{
  "<pad>": 0,
  "<unk>": 1,
  "<s>": 2,
  "</s>": 3,
  ",": 4,
  ".": 5,
  "\u2581le": 6,
  "\u2581ai": 7,
  "\u2581te": 8,
  "\u2581kai": 9,
  "\u2581o": 10,
  "\u2581O": 11,
  "\u2581": 12,
  "\u2581si": 13,
  "\u2581e": 14,
  "\u2581ande": 15,
  "a": 16,
  "\u2581chi": 17,
  "\u2581ke": 18,
  "\u2581\"": 19,
  "\u2581sas": 20,
  "\u2581ka": 21,
  "\u2581so": 22,
  "\u2581Del": 23,
  "\u2581sar": 24,
  "\u2581les": 25,
  "\u2581pe": 26,
  "\u2581Jesus": 27,
  "i": 28,
  "\u2581Ai": 29,
  "\u2581ando": 30,
  "?": 31,
  "n": 32,
  "o": 33,
  ";": 34,
  "e": 35,
  "\u2581mai": 36,
  "\u2581manush": 37,
  "tar": 38,
  "\u2581tume": 39,
  "\u2581iek": 40,
  "\u2581anda": 41,
  "\u2581phendia": 42,
  ".\"": 43,
  "\u2581na": 44,
  "as": 45,
  "\u2581leske": 46,
  "\u2581sa": 47,
  "k": 48,
  "\u2581numa": 49,
  "\u2581lenge": 50,
  "\u2581kana": 51,
  "s": 52,
  "\u2581avel": 53,
  "\u2581Numa": 54,
  "\u2581la": 55,
  "\u2581pala": 56,
  "\u2581pa": 57,
  "\u2581leste": 58,
  "\u2581tu": 59,
  "\u2581ma": 60,
  "\u2581wo": 61,
  "\u2581but": 62,
  "m": 63,
  "\u2581ame": 64,
  "\u2581avela": 65,
  "\u2581tumenge": 66,
  "\u2581Ke": 67,
  "l": 68,
  "!": 69,
  ":": 70,
  "\u2581kodia": 71,
  "\u2581keren": 72,
  "\u2581kodo": 73,
  "\u2581vi": 74,
  "\u2581Kristo": 75,
  "\u2581nai": 76,
  "\u2581kerel": 77,
  "\u2581Wo": 78,
  "\u2581Kana": 79,
  "\u2581duma": 80,
  "\u2581kadia": 81,
  "\u2581po": 82,
  "\u2581Devlesko": 83,
  "\u2581trobul": 84,
  "\u2581kodola": 85,
  "pe": 86,
  "\u2581peske": 87,
  "\u2581lesko": 88,
  "\u2581won": 89,
  "\u2581E": 90,
  "\u2581Devleski": 91,
  "\u2581aven": 92,
  "\u2581a": 93,
  "\u2581baro": 94,
  "\u2581tumende": 95,
  "\u2581(": 96,
  "vai": 97,
  "\u2581del": 98,
  "\u2581san": 99,
  "\u2581Le": 100,
  "\u2581dieli": 101,
  "\u2581me": 102,
  "\u2581zakono": 103,
  "?\"": 104,
  "\u2581dies": 105,
  "\u2581sai": 106,
  "\u2581godi": 107,
  "\u2581Devleske": 108,
  "\u2581h": 109,
  "\u2581angla": 110,
  "\u2581pes": 111,
  "\u2581dia": 112,
  "\u2581buchi": 113,
  "\u2581lende": 114,
  ")": 115,
  "\u2581So": 116,
  "\u2581than": 117,
  "\u2581phuv": 118,
  "\u2581narodo": 119,
  "\u2581de": 120,
  "\u2581Te": 121,
  "\u2581murho": 122,
  "oj": 123,
  "\u2581vorta": 124,
  "sa": 125,
  "\u2581traio": 126,
  "\u2581Sar": 127,
  "\u2581pachamos": 128,
  "\u2581bi": 129,
  "\u2581mashkar": 130,
  "\u2581mande": 131,
  "\u2581anglal": 132,
  "\u2581swako": 133,
  "\u2581phende": 134,
  "\u2581pal": 135,
  "\u2581andai": 136,
  "av": 137,
  "\u2581Swunto": 138,
  "en": 139,
  "\u2581akana": 140,
  "\u2581mange": 141,
  "\u2581phral": 142,
  "\u2581kerdia": 143,
  "ski": 144,
  "\u2581vari": 145,
  "r": 146,
  "\u2581tuke": 147,
  "\u2581andal": 148,
  "\u2581drago": 149,
  "u": 150,
  "\u2581avri": 151,
  "sko": 152,
  "\u2581vriama": 153,
  "\u2581kon": 154,
  "\u2581sim": 155,
  "\u2581stato": 156,
  "de": 157,
  "\u2581avilo": 158,
  "\u2581ferdi": 159,
  "\u2581rhaio": 160,
  "\u2581zhanen": 161,
  "\u2581Zhiduvuria": 162,
  "\u2581kher": 163,
  "\u2581dui": 164,
  "\u2581kaj": 165,
  "\u2581andre": 166,
  "\u2581aver": 167,
  "\u2581phenel": 168,
  "\u2581len": 169,
  "\u2581Duxo": 170,
  "\u2581amaro": 171,
  "\u2581the": 172,
  "es": 173,
  "\u2581saxke": 174,
  "\u2581kadala": 175,
  "\u2581Devles": 176,
  "\u2581mui": 177,
  "\u2581pre": 178,
  "\u2581lumia": 179,
  "\u2581mishto": 180,
  "\u2581mothol": 181,
  "\u2581Antunchi": 182,
  "\u2581vas": 183,
  "\u2581Vorba": 184,
  "\u2581Shav": 185,
  "na": 186,
  "\u2581putiera": 187,
  "\u2581zhi": 188,
  "\u2581den": 189,
  "\u2581kado": 190,
  "\u2581anav": 191,
  "\u2581kris": 192,
  "la": 193,
  "\u2581disipluria": 194,
  "\u2581Dat": 195,
  "\u2581murh": 196,
  "\u2581bare": 197,
  "\u2581tumaro": 198,
  "\u2581phenav": 199,
  "\u2581tumare": 200,
  "\u0161aj": 201,
  "!\"": 202,
  "le": 203,
  "\u2581shav": 204,
  "\u2581kotse": 205,
  "ha": 206,
  "\u2581Me": 207,
  "\u2581amare": 208,
  "\u2581pai": 209,
  "\u2581Jehovas": 210,
  "\u2581amenge": 211,
  "ko": 212,
  "ing": 213,
  "v": 214,
  "\u2581ada": 215,
  "\u2581Na": 216,
  "\u2581A": 217,
  "\u2581cho": 218,
  "\u2581hin": 219,
  "\u2581Pavlo": 220,
  "\u2581foro": 221,
  "ra": 222,
  "\u2581dine": 223,
  "\u2581amende": 224,
  "\u2581tele": 225,
  "\u2581kar": 226,
  "\u2581tumen": 227,
  "\u2581vorbi": 228,
  "\u2581lashi": 229,
  "\u2581palpale": 230,
  "ro": 231,
  "\u2581che": 232,
  "\u2581mishtimos": 233,
  "\u2581data": 234,
  "\u2581andr": 235,
  "\u2581phendias": 236,
  "\u2581avile": 237,
  "\u2581nas": 238,
  "\u2581kal": 239,
  "\u2581bezexa": 240,
  "\u2581lestar": 241,
  "\u2581lashimos": 242,
  "\u2581gelo": 243,
  "\u2581zor": 244,
  "O": 245,
  "\u2581chachimos": 246,
  "\u2581sama": 247,
  "\u2581savorhe": 248,
  "lo": 249,
  "\u2581Tume": 250,
  "\u2581Petri": 251,
  "\u2581avena": 252,
  "\u2581drom": 253,
  "\u2581viasta": 254,
  "ngo": 255,
  "\u2581kerde": 256,
  "\u2581nashti": 257,
  "\u2581lia": 258,
  "\u2581mangel": 259,
  "re": 260,
  "\u2581tute": 261,
  "\u2581Jerusalem": 262,
  "\u2581shave": 263,
  "\u2581sam": 264,
  "\u2581uni": 265,
  "\u2581Ko": 266,
  "b": 267,
  "\u2581dikhen": 268,
  "\u2581tut": 269,
  "\u2581kerav": 270,
  "\u2581bezex": 271,
  "di": 272,
  "\u2581pasha": 273,
  "\u2581Biblija": 274,
  "\u2581phenen": 275,
  "\u2581zhan": 276,
  "\u2581amen": 277,
  "\u2581dikhlia": 278,
  "\u2581Kodo": 279,
  "\u2581lasho": 280,
  "\u2581desh": 281,
  "\u2581zurales": 282,
  "\u2581ilo": 283,
  "\u2581mothon": 284,
  "\u2581goji": 285,
  "\u2581manushen": 286,
  "\u2581manushenge": 287,
  "\u2581'": 288,
  "\u2581dragostia": 289,
  "\u2581zhanas": 290,
  "\u0161": 291,
  "\u2581lo": 292,
  "ri": 293,
  "\u2581u": 294,
  "\u2581bari": 295,
  "\u2581kodolen": 296,
  "\u2581mule": 297,
  "ne": 298,
  "\u2581Porme": 299,
  "\u2581bax": 300,
  "\u2581Je\u017ei\u0161": 301,
  "nge": 302,
  "\u2581Chi": 303,
  "\u2581beng": 304,
  "ske": 305,
  "\u2581penge": 306,
  "ki": 307,
  "el": 308,
  "ka": 309,
  "\u2581Ka": 310,
  "\u2581lesa": 311,
  "\u2581tradia": 312,
  "\u2581ko": 313,
  "\u2581diela": 314,
  "\u2581dat": 315,
  "ke": 316,
  "\u2581amperetsia": 317,
  "\u2581angelo": 318,
  "\u2581Iovano": 319,
  "\u2581Nai": 320,
  "\u2581Sa": 321,
  "\u2581kolaver": 322,
  "\u2581zhal": 323,
  "\u2581chacho": 324,
  "\u2581Anda": 325,
  "\u2581pesk": 326,
  "\u2581sluga": 327,
  "\u2581pel": 328,
  "\u2581ashunde": 329,
  "\u2581martia": 330,
  "\u2581mangav": 331,
  "\u2581opre": 332,
  "\u2581dino": 333,
  "dia": 334,
  "\u2581man": 335,
  "\u2581busholas": 336,
  "\u2581\u201e": 337,
  "\u2581mangen": 338,
  "\u2581dela": 339,
  "d": 340,
  "\u2581rat": 341,
  "\u2581thodia": 342,
  "to": 343,
  "\u2581antunchi": 344,
  "\u2581love": 345,
  "os": 346,
  "\u2581khonik": 347,
  "\u2581xantsi": 348,
  "\u2581line": 349,
  "\u2581zhanel": 350,
  "\u2581sikavel": 351,
  "\u2581nasulimos": 352,
  "\u2581inker": 353,
  "\u2581nasul": 354,
  "\u2581kerdiol": 355,
  "\u2581manu\u0161a": 356,
  "\u2581them": 357,
  "\u2581porme": 358,
  "no": 359,
  "sas": 360,
  "\u2581tumensa": 361,
  "\u2581dikhle": 362,
  "\u2581pro": 363,
  "t": 364,
  "\u2581gele": 365,
  "\u2581kodole": 366,
  "\u2581khangeri": 367,
  "\u2581ramome": 368,
  "\u2581zhuvli": 369,
  "\u2581keras": 370,
  "li": 371,
  "\u2581manglia": 372,
  "\"": 373,
  "ia": 374,
  "\u2581vorba": 375,
  "pesko": 376,
  "te": 377,
  "\u2581Ame": 378,
  "\u2581Ma": 379,
  "\u2581amperato": 380,
  "\u2581fielo": 381,
  "\u2581ta": 382,
  "\u2581beshen": 383,
  "ta": 384,
  "\u2581semno": 385,
  "\u2581strazo": 386,
  "\u2581peste": 387,
  "\u2581zhanav": 388,
  "\u2581lel": 389,
  "\u2581shtar": 390,
  "\u2581lensa": 391,
  "\u2581rasha": 392,
  "osko": 393,
  "do": 394,
  "\u2581vediara": 395,
  "\u2581lashe": 396,
  "\u2581pacha": 397,
  "\u2581lake": 398,
  "\u2581kodoleng": 399,
  "\u2581beshel": 400,
  "\u2581punrhe": 401,
  "\u2581sagda": 402,
  "nas": 403,
  "\u2581gazda": 404,
  "\u2581phenelas": 405,
  "\u2581pachan": 406,
  "\u2581shoxar": 407,
  "\u2581kanchi": 408,
  "\u2581Murh": 409,
  "\u2581kamel": 410,
  "\u2581dikhel": 411,
  "\u2581glaso": 412,
  "\u2581tampla": 413,
  "\u2581tsalia": 414,
  "\u2581mudaren": 415,
  "\u2581tumendar": 416,
  "\u2581keres": 417,
  "ar": 418,
  "\u2581thon": 419,
  "\u2581gor": 420,
  "\u2581traiin": 421,
  "\u2581pervo": 422,
  "\u2581Kristosko": 423,
  "\u2581akhardia": 424,
  "\u2581iakha": 425,
  "\u2581phenenas": 426,
  "uria": 427,
  "g": 428,
  "\u2581maria": 429,
  "\u2581xan": 430,
  "\u2581efta": 431,
  "\u2581pachanpe": 432,
  "\u2581mek": 433,
  "\u2581ashunen": 434,
  "\u2581mulo": 435,
  "\u2581Pala": 436,
  "ai": 437,
  "\u2581phendem": 438,
  "\u2581dias": 439,
  "\u2581trin": 440,
  "Te": 441,
  "mos": 442,
  "\u2581oda": 443,
  "\u2581S": 444,
  "\u2581divano": 445,
  "\u2581barimos": 446,
  "\u2581mothav": 447,
  "\u2581murhi": 448,
  "ti": 449,
  "E": 450,
  "\u2581Manushesko": 451,
  "\u2581ginduria": 452,
  "\u2581sikaven": 453,
  "\u2581iag": 454,
  "\u2581Farizeanuria": 455,
  "Gazda": 456,
  "So": 457,
  "\u2581late": 458,
  "an": 459,
  "\u2581Si": 460,
  "\u2581trushul": 461,
  "\u2581cheri": 462,
  "\u2581thode": 463,
  "Me": 464,
  "\u2581d\u017eivipen": 465,
  "\u2581vitsa": 466,
  "\u2581beshlo": 467,
  "\u2581slugi": 468,
  "\u2581manrho": 469,
  "z": 470,
  "sh": 471,
  "\u2581dur": 472,
  "\u2581roden": 473,
  "\u2581kerdilia": 474,
  "\u2581s": 475,
  "\u2581pale": 476,
  "\u2581Abraham": 477,
  "\u2581soste": 478,
  "\u2581gelotar": 479,
  "\u2581kerela": 480,
  "\u2581chorhe": 481,
  "us": 482,
  "\u2581mi": 483,
  "\u2581Sas": 484,
  "\u2581bushol": 485,
  "\u2581ieke": 486,
  "\u2581furt": 487,
  "\u2581Zhidovongo": 488,
  "\u2581Akana": 489,
  "Na": 490,
  "va": 491,
  "\u2581avili": 492,
  "\u2581bersh": 493,
  "\u2581haliaren": 494,
  "\u2581Ande": 495,
  "\u2581profeto": 496,
  "\u2581zhuvlia": 497,
  "\u2581avka": 498,
  "\u2581angle": 499,
  "\u2581katse": 500,
  "\u2581savo": 501,
  "\u2581mansa": 502,
  "h": 503,
  "da": 504,
  "\u2581trobulas": 505,
  "\u2581Moses": 506,
  "\u2581Galilee": 507,
  "\u2581temnitsa": 508,
  "\u2581Baro": 509,
  "\u2581bo": 510,
  "\u2581merel": 511,
  "\u2581xal": 512,
  "\u2581lendar": 513,
  "\u2581dei": 514,
  "\u2581ela": 515,
  "\u2581dav": 516,
  "\u2581chiden": 517,
  "\u2581mol": 518,
  "\u2581meklia": 519,
  "\u2581duxo": 520,
  "\u2581Maria": 521,
  "\u2581phen\u010fa": 522,
  "imos": 523,
  "\u2581delas": 524,
  "\u2581manushes": 525,
  "\u2581aves": 526,
  "\u2581luvudimos": 527,
  "\u2581shero": 528,
  "\u2581But": 529,
  "\u2581mila": 530,
  "\u2581jekh": 531,
  "\u2581Phen": 532,
  "Ka": 533,
  "chi": 534,
  "\u2581el": 535,
  "nsa": 536,
  "\u2581narodos": 537,
  "\u2581sanas": 538,
  "ma": 539,
  "\u2581kuchi": 540,
  "Tu": 541,
  "\u2581ashundia": 542,
  "c": 543,
  "Chi": 544,
  "\u2581podarka": 545,
  "\u2581tuniariko": 546,
  "\u2581vuzho": 547,
  "\u2581profeturia": 548,
  "\u2581skepime": 549,
  "p": 550,
  "\u2581ale": 551,
  "\u2581zhas": 552,
  "\u2581pherdo": 553,
  "on": 554,
  "\u2581shinadia": 555,
  "\u2581ilesa": 556,
  "\u2581traiil": 557,
  "\u2581\u010da": 558,
  "\u2581zhav": 559,
  "kal": 560,
  ",\"": 561,
  "\u2581mothonas": 562,
  "\u2581No": 563,
  "\u2581anklisto": 564,
  "\u2581savore": 565,
  "\u2581mandar": 566,
  "\u2581avav": 567,
  "oske": 568,
  "\u2581hino": 569,
  "\u2581da": 570,
  "\u2581ketani": 571,
  "\u2581Kadia": 572,
  ".\u201c": 573,
  "\u2581J": 574,
  "\u2581atweto": 575,
  "\u2581sigo": 576,
  "\u2581meken": 577,
  "\u2581phenes": 578,
  "\u2581dikhlem": 579,
  "\u2581denas": 580,
  "me": 581,
  "\u2581avas": 582,
  "\u2581rhomni": 583,
  "Le": 584,
  "\u2581rhom": 585,
  "\u2581shel": 586,
  "\u2581getolpe": 587,
  "Ko": 588,
  "\u2581raduimos": 589,
  "\u2581kaver": 590,
  "\u2581Simon": 591,
  "\u2581kamen": 592,
  "\u2581chaches": 593,
  "\u2581Di": 594,
  "abo": 595,
  "las": 596,
  "\u2581Pilate": 597,
  "\u2581Uni": 598,
  "\u2581raduime": 599,
  "\u2581lumiake": 600,
  "\u2581skepil": 601,
  "imar": 602,
  "\u2581kodoles": 603,
  "\u2581thol": 604,
  "\u2581Tu": 605,
  "\u2581angeluria": 606,
  "\u2581kotsar": 607,
  "\u2581la\u010dho": 608,
  "\u2581vunzhe": 609,
  "\u2581nevo": 610,
  "\u2581mangas": 611,
  "\u2581s\u00ee": 612,
  "'": 613,
  "\u2581barval": 614,
  "\u2581chache": 615,
  "\u2581D": 616,
  "\u2581simas": 617,
  "\u2581anel": 618,
  "\u2581paraxodo": 619,
  "\u2581trito": 620,
  "\u2581korkorho": 621,
  "\u2581Gramnoturia": 622,
  "\u2581chachimasa": 623,
  "\u2581voia": 624,
  "\u2581opral": 625,
  "\u2581Iek": 626,
  "\u2581Devleskero": 627,
  "\u2581kerelas": 628,
  "\u2581Kristosa": 629,
  "\u2581ile": 630,
  "\u2581Herod": 631,
  "\u2581fruta": 632,
  "\u2581dikhas": 633,
  "ng": 634,
  "\u2581chor": 635,
  "\u2581riat": 636,
  "\u2581P": 637,
  "\u2581luvudin": 638,
  "\u2581Andre": 639,
  "\u2581savoro": 640,
  "Ke": 641,
  "\u2581phure": 642,
  "\u2581kanch": 643,
  "\u2581pengo": 644,
  "\u010fa": 645,
  "\u2581rom": 646,
  "\u2581glata": 647,
  "\u2581\u0148ebos": 648,
  "\u2581daran": 649,
  "\u2581T": 650,
  "ni": 651,
  "\u2581Jehovaske": 652,
  "\u2581phen": 653,
  "\u2581beshelas": 654,
  "\u2581rashai": 655,
  "\u2581skafidi": 656,
  "kh": 657,
  "\u2581do": 658,
  "\u2581motholas": 659,
  "\u2581Pe": 660,
  "\u2581David": 661,
  "\u2581\u010da\u010dipen": 662,
  "\u010d": 663,
  "\u2581dikhav": 664,
  "\u2581mekel": 665,
  "\u2581sostar": 666,
  "eske": 667,
  "\u2581ashunel": 668,
  "\u2581arakhen": 669,
  "\u2581phushlia": 670,
  "\u2581Sostar": 671,
  "\u2581mangenas": 672,
  "\u2581chachi": 673,
  "\u2581gindo": 674,
  "\u2581mirakluria": 675,
  "\u2581Satan": 676,
  "\u2581alosardia": 677,
  "\u2581mudarde": 678,
  "\u2581phushle": 679,
  "\u2581des": 680,
  "\u2581arakhle": 681,
  "Sostar": 682,
  "\u2581glate": 683,
  "\u2581palal": 684,
  "lia": 685,
  "\u2581ker": 686,
  "aj": 687,
  "\u2581chaso": 688,
  "\u2581sikadia": 689,
  "\u2581narodoske": 690,
  "Devla": 691,
  "\u2581geletar": 692,
  "\u2581adies": 693,
  "\u2581hine": 694,
  "\u2581Judea": 695,
  "\u2581sumnakai": 696,
  "\u2581zhigeni": 697,
  "\u2581pusta": 698,
  "\u2581kavreske": 699,
  "\u2581andia": 700,
  "al": 701,
  "\u2581tir": 702,
  "\u2581f": 703,
  "Tume": 704,
  "\u2581lako": 705,
  "esa": 706,
  "\u2581Devlesa": 707,
  "\u2581paramichi": 708,
  "\u2581dades": 709,
  "\u2581Jehovasker": 710,
  "\u2581swunto": 711,
  "ho": 712,
  "\u2581pende": 713,
  "\u2581rodel": 714,
  "\u2581gindin": 715,
  "\u2581maren": 716,
  "ava": 717,
  "aha": 718,
  "\u2581sicharel": 719,
  "igen": 720,
  "\u2581lil": 721,
  "\u2581sakadia": 722,
  "\u2581Kodol": 723,
  "\u2581manu\u0161en": 724,
  "\u2581jiv": 725,
  "\u2581kra\u013ei\u0161agos": 726,
  "\u2581das": 727,
  "\u2581rado": 728,
  "\u2581dikhena": 729,
  "\u2581zhanes": 730,
  "ndar": 731,
  "\u2581Amen": 732,
  "enge": 733,
  "Soske": 734,
  "\u2581i": 735,
  "ge": 736,
  "\u2581manges": 737,
  "\u2581dosta": 738,
  "\u2581gata": 739,
  "\u2581akharen": 740,
  "\u2581zhutil": 741,
  "\u2581kr": 742,
  "\u2581xoli": 743,
  "\u2581khangeria": 744,
  "\u2581kerdian": 745,
  "dem": 746,
  "Murh": 747,
  "\u2581pochin": 748,
  "\u2581zhungal": 749,
  "y": 750,
  "\u2581nekazo": 751,
  "\u2581klishka": 752,
  "\u2581zakonuria": 753,
  "\u2581kerdilo": 754,
  "\u2581dosh": 755,
  "npe": 756,
  "\u2581kaste": 757,
  "\u2581tutar": 758,
  "\u2581mekle": 759,
  "\u2581khan": 760,
  "\u2581mangle": 761,
  "ol": 762,
  "\u2581aresle": 763,
  "\u2581tumari": 764,
  "\u2581shukar": 765,
  "\u2581phendo": 766,
  "\u2581Dikhen": 767,
  "\u2581avava": 768,
  "\u2581manushesko": 769,
  "\u2581vortako": 770,
  "au": 771,
  "\u2581khere": 772,
  "\u2581kerdem": 773,
  "\u2581nane": 774,
  "\u2581Vi": 775,
  "\u2581mursh": 776,
  "\u2581dian": 777,
  "A": 778,
  "\u2581mangelas": 779,
  ".'": 780,
  "\u2581rhugin": 781,
  "j": 782,
  "\u2581lazhav": 783,
  "\u2581avilino": 784,
  "\u2581pachalpe": 785,
  "\u2581De": 786,
  "\u2581zhutin": 787,
  "\u2581lav": 788,
  "\u2581save": 789,
  "\u2581kashte": 790,
  "\u2581pachas": 791,
  "\u201c": 792,
  "\u2581phenas": 793,
  "\u2581dava": 794,
  "vi": 795,
  "res": 796,
  "\u2581Iakov": 797,
  "\u2581biblick": 798,
  "\u2581ordina": 799,
  "\u2581partia": 800,
  "\u2581vuzhe": 801,
  "\u2581kampel": 802,
  "\u2581baio": 803,
  "\u2581Savorhe": 804,
  "\u2581synagogue": 805,
  "\u013ea": 806,
  "\u2581wushtilo": 807,
  "\u0161\u0165i": 808,
  "\u2581buter": 809,
  "\u2581bezexale": 810,
  "\u2581Dikh": 811,
  "\u2581Kristoske": 812,
  "\u2581I": 813,
  "\u2581sap": 814,
  "\u2581Jesusos": 815,
  "\u2581kerenas": 816,
  "\u2581Barnabas": 817,
  "\u2581chudisaile": 818,
  "\u2581chuno": 819,
  "\u2581gojaver": 820,
  "\u2581Judas": 821,
  "\u2581mothas": 822,
  "\u2581chino": 823,
  "\u2581K": 824,
  "\u2581pesker": 825,
  "\u2581arakhel": 826,
  "\u2581manu\u0161": 827,
  "\u2581kotor": 828,
  "\u0148i": 829,
  "nes": 830,
  "\u2581Israel": 831,
  "\u2581podarki": 832,
  "\u2581meriben": 833,
  "\u2581manrhe": 834,
  "\u2581rik": 835,
  "\u2581shei": 836,
  "\u2581kotora": 837,
  "\u00e5": 838,
  "\u2581zhanelas": 839,
  "\u2581wudar": 840,
  "\u2581zha": 841,
  "\u2581khash": 842,
  "\u2581greposhevo": 843,
  "\u2581phangle": 844,
  "\u2581miazol": 845,
  "\u2581veci": 846,
  "\u2581rig": 847,
  "\u2581kadale": 848,
  "\u2581Zhidovonge": 849,
  "\u2581vortacha": 850,
  "star": 851,
  "\u2581anen": 852,
  "\u2581mudarel": 853,
  "\u2581zhanenas": 854,
  "po": 855,
  "\u2581Ashun": 856,
  "\u25814": 857,
  "\u2581Kristoski": 858,
  "\u2581Katar": 859,
  "S": 860,
  "\u017e": 861,
  "\u2581zurale": 862,
  "\u2581thema": 863,
  "\u013e": 864,
  "vardesh": 865,
  "\u2581poronchil": 866,
  "\u2581tamplo": 867,
  "\u2581vareso": 868,
  "\u2581altari": 869,
  "\u2581areslo": 870,
  "\u2581amari": 871,
  "\u2581arakhlia": 872,
  "\u2581barvalimos": 873,
  "\u2581mus": 874,
  "\u2581sicharelas": 875,
  "ga": 876,
  "\u2581rhaioski": 877,
  "\u2581zhuvindil": 878,
  "x": 879,
  "sardia": 880,
  "ch": 881,
  "\u2581gav": 882,
  "\u2581pele": 883,
  "\u2581menos": 884,
  "\u2581disiplonge": 885,
  "\u2581savorhenge": 886,
  "\u2581dikhes": 887,
  "\u2581duito": 888,
  "\u2581manusheske": 889,
  "\u2581ashundian": 890,
  "\u2581amensa": 891,
  "\u2581Kad": 892,
  "\u2581nashtil": 893,
  "\u2581Kadal": 894,
  "\u2581shude": 895,
  "\u2581kerdion": 896,
  "\u2581shudel": 897,
  "\u2581bucha": 898,
  "\u2581svetos": 899,
  "\u258114": 900,
  "\u2581butivar": 901,
  "\u2581skepimos": 902,
  "\u2581roven": 903,
  "\u2581Zhan": 904,
  "\u2581chorho": 905,
  "\u2581garavel": 906,
  "\u2581plai": 907,
  "\u2581a\u0148i": 908,
  "\u2581kasave": 909,
  "\u2581phendiasas": 910,
  "\u2581dada": 911,
  "\u2581avilem": 912,
  "cho": 913,
  "\u2581za": 914,
  "\u2581barvalo": 915,
  "\u2581zhalas": 916,
  "\u2581zhantar": 917,
  "andine": 918,
  "\u2581lias": 919,
  "\u2581Va": 920,
  "sul": 921,
  "\u2581Strazo": 922,
  "\u2581apostluria": 923,
  "\u2581zhene": 924,
  "\u2581d\u017eivel": 925,
  "\u2581taksa": 926,
  "lpe": 927,
  "er": 928,
  "var": 929,
  "\u2581Eta": 930,
  "f": 931,
  "\u2581Devla": 932,
  "\u2581pesa": 933,
  "Kodo": 934,
  "Sar": 935,
  "\u2581Dades": 936,
  "\u2581sako": 937,
  "Si": 938,
  "\u2581tusa": 939,
  "\u2581av": 940,
  "\u2581bariol": 941,
  "\u2581familia": 942,
  "\u2581garado": 943,
  "\u2581terharin": 944,
  "\u2581kham": 945,
  "\u2581defial": 946,
  "\u2581traiisaras": 947,
  "\u2581zhigania": 948,
  "\u2581punrhende": 949,
  "\u2581B": 950,
  "lem": 951,
  "\u2581amendar": 952,
  "\u2581rimon": 953,
  "alm": 954,
  "\u2581shiba": 955,
  "\u2581dar": 956,
  "arde": 957,
  "ci": 958,
  "\u2581kerena": 959,
  "\u2581Raduim": 960,
  "sarde": 961,
  "\u2581kerdias": 962,
  "inen": 963,
  "\u2581dukh": 964,
  "\u2581p": 965,
  "\u2581rhavda": 966,
  "uglo": 967,
  "\u2581kapitola": 968,
  "\u2581niril": 969,
  "\u2581ramomos": 970,
  "\u2581sumuntsa": 971,
  "\u2581\u0161ukar": 972,
  "\u2581zuralo": 973,
  "\u2581haliarel": 974,
  "\u2581bolde": 975,
  "\u2581di\u0148a": 976,
  "\u2581lino": 977,
  "\u2581marka": 978,
  "\u2581z": 979,
  "\u2581ingerel": 980,
  "\u2581khanchi": 981,
  "\u2581Swako": 982,
  ").": 983,
  "\u2581shuden": 984,
  "\u2581ji": 985,
  "\u2581Nichi": 986,
  "\u2581samas": 987,
  "\u2581rhomnia": 988,
  "ph": 989,
  "vo": 990,
  "\u2581Pavlos": 991,
  "\u2581marenas": 992,
  "-": 993,
  "\u2581dem": 994,
  "\u2581Savo": 995,
  "\u2581avres": 996,
  "\u2581tela": 997,
  "\u2581tho": 998,
  "\u2581rom\u0148i": 999,
  "\u2581foruria": 1000,
  "\u2581ramov": 1001,
  "\u2581vazdia": 1002,
  "\u2581pachaiepe": 1003,
  "\u2581marde": 1004,
  "is": 1005,
  "\u2581khera": 1006,
  "\u2581Ale": 1007,
  "\u0148e": 1008,
  "vas": 1009,
  "\u2581an": 1010,
  "bi": 1011,
  "\u2581pomo\u017einel": 1012,
  "esko": 1013,
  "0": 1014,
  "\u2581sicharen": 1015,
  "\u2581M": 1016,
  "\u2581iertime": 1017,
  "\u2581luvudime": 1018,
  "\u2581znachil": 1019,
  "\u2581nala\u010dho": 1020,
  "\u2581panzh": 1021,
  "\u2581va\u0161": 1022,
  "\u2581slobodo": 1023,
  "\u2581bu\u0165i": 1024,
  "\u2581dini": 1025,
  "\u2581laska": 1026,
  "\u2581jilo": 1027,
  "\u2581L": 1028,
  "\u2581Saul": 1029,
  "\u2581Khonik": 1030,
  "elas": 1031,
  "\u2581xaben": 1032,
  "\u2581trade": 1033,
  "\u2581perel": 1034,
  "enca": 1035,
  "\u2581pi": 1036,
  "imata": 1037,
  "\u2581R": 1038,
  "Z": 1039,
  "men": 1040,
  "\u2581xale": 1041,
  "\u2581bengen": 1042,
  "\u2581zhaltar": 1043,
  "\u2581bu": 1044,
  "\u2581ov": 1045,
  "mas": 1046,
  "\u2581V": 1047,
  "\u2581strefial": 1048,
  "\u2581barimata": 1049,
  "\u2581\u010dhavo": 1050,
  "\u00e1": 1051,
  "\u2581Gazda": 1052,
  "\u2581kerava": 1053,
  "\u2581Amperato": 1054,
  "\u2581mi\u0161te": 1055,
  "\u2581mothos": 1056,
  "\u2581dichol": 1057,
  "\u2581rigate": 1058,
  "\u2581intaino": 1059,
  "\u2581shinado": 1060,
  "\u2581phuterdia": 1061,
  "\u2581premisarde": 1062,
  "\u2581peren": 1063,
  "\u2581kerdo": 1064,
  "ensa": 1065,
  "\u2581shudia": 1066,
  "\u2581putierasa": 1067,
  "\u2581di": 1068,
  "aspe": 1069,
  "\u2581Pa": 1070,
  "\u2581Kristos": 1071,
  "ino": 1072,
  "\u2581shib": 1073,
  "\u25813": 1074,
  "\u2581avre": 1075,
  "ve": 1076,
  "\u2581Zhidovo": 1077,
  "\u2581phiren": 1078,
  "\u2581eta": 1079,
  "\u2581phenela": 1080,
  "\u258111": 1081,
  "\u2581Egypt": 1082,
  "\u2581Nazareth": 1083,
  "\u2581svedki": 1084,
  "\u2581thodino": 1085,
  "\u2581akor": 1086,
  "\u2581sastimos": 1087,
  "\u2581nevi": 1088,
  "\u2581zhuvindisailo": 1089,
  "\u2581terno": 1090,
  "\u2581\u0148i\u010d": 1091,
  "\u2581sicharimos": 1092,
  "\u2581akhardo": 1093,
  "\u2581kames": 1094,
  "\u2581mashe": 1095,
  "\u2581vov": 1096,
  "\u2581pachanaspe": 1097,
  "zh": 1098,
  "\u2581shordia": 1099,
  "\u2581avilian": 1100,
  "\u2581phuro": 1101,
  "\u2581xas": 1102,
  "\u2581Trobul": 1103,
  "\u2581zhuvindin": 1104,
  "\u2581dara": 1105,
  "\u2581cal": 1106,
  "\u2581\u010dhave": 1107,
  "\u2581korhe": 1108,
  "Nai": 1109,
  "ime": 1110,
  "za": 1111,
  "\u2581ph": 1112,
  "\u2581mudar": 1113,
  "\u2581barvale": 1114,
  "\u2581nashtin": 1115,
  "shte": 1116,
  "\u2581disiplo": 1117,
  "\u2581Ave": 1118,
  "\u2581phushen": 1119,
  "\u2581phirel": 1120,
  "\u2581fame\u013eija": 1121,
  "\u2581duzhmaia": 1122,
  "\u258110": 1123,
  "\u2581garade": 1124,
  "\u2581kontrakto": 1125,
  "\u2581rajos": 1126,
  "\u2581saikfielo": 1127,
  "\u2581marturia": 1128,
  "\u2581rez": 1129,
  "\u2581sabia": 1130,
  "\u2581ker\u010fa": 1131,
  "\u2581Andro": 1132,
  "\u2581avelas": 1133,
  "\u2581akharel": 1134,
  "\u2581tsipinas": 1135,
  "\u2581ankliste": 1136,
  "liam": 1137,
  "\u2581malades": 1138,
  "\u2581cha": 1139,
  "\u2581phralen": 1140,
  "\u2581Leske": 1141,
  "ba": 1142,
  "\u2581tsinorhe": 1143,
  "\u2581manushensa": 1144,
  "\u2581pa\u0161": 1145,
  "Dikh": 1146,
  "\u2581Jesusosko": 1147,
  "hi": 1148,
  "tu": 1149,
  "\u2581Ada": 1150,
  "\u2581kerdiam": 1151,
  "\u2581dikhlian": 1152,
  "\u2581mar": 1153,
  "lenge": 1154,
  "\u2581poronchin": 1155,
  "\u2581Aven": 1156,
  "w": 1157,
  "\u2581Caesar": 1158,
  "\u2581k\u0148i\u017eka": 1159,
  "\u2581nala\u010dhe": 1160,
  "\u2581phanglo": 1161,
  "\u2581profesi": 1162,
  "\u2581pruing": 1163,
  "\u2581vizion": 1164,
  "\u2581ivia": 1165,
  "\u2581\u010dasos": 1166,
  "\u2581daraile": 1167,
  "\u2581iado": 1168,
  "\u2581doshalo": 1169,
  "\u2581sastiardia": 1170,
  "\u2581Keren": 1171,
  "\u2581ikoni": 1172,
  "\u2581avrial": 1173,
  "Zhan": 1174,
  "\u2581Hin": 1175,
  "\u2581kurvia": 1176,
  "L": 1177,
  "leske": 1178,
  "\u2581Josef": 1179,
  "\u2581tsinorho": 1180,
  "\u2581dikhliam": 1181,
  "\u2581beshenas": 1182,
  "ja": 1183,
  "4": 1184,
  "\u2581vazdel": 1185,
  "\u2581vu": 1186,
  "\u2581sal": 1187,
  "\u2581d": 1188,
  "Phen": 1189,
  "\u2581Adam": 1190,
  "\u2581xabe": 1191,
  "endar": 1192,
  "\u0165": 1193,
  "\u2581dosha": 1194,
  "\u2581phrales": 1195,
  "Ai": 1196,
  "mar": 1197,
  "\u2581Macedonia": 1198,
  "\u2581armaia": 1199,
  "\u2581rhugiv": 1200,
  "\u2581duzhmano": 1201,
  "\u2581d\u017eal": 1202,
  "\u2581hulel": 1203,
  "\u2581slu\u017einel": 1204,
  "\u2581zhutimos": 1205,
  "ca": 1206,
  "\u2581kanikaske": 1207,
  ".'\"": 1208,
  "\u2581akharde": 1209,
  "\u2581sikavas": 1210,
  "\u2581\u0161unel": 1211,
  "\u2581tradav": 1212,
  "\u2581Pre": 1213,
  "sto": 1214,
  "\u2581trad": 1215,
  "Zha": 1216,
  "\u2581bal": 1217,
  "\u2581Vo": 1218,
  "rho": 1219,
  "\u2581kodolesk": 1220,
  "D": 1221,
  "asa": 1222,
  "\u2581t": 1223,
  "I": 1224,
  "\u2581kavres": 1225,
  "\u2581sikavela": 1226,
  "\u2581chinuil": 1227,
  "\u2581d\u017eanel": 1228,
  "gda": 1229,
  "du": 1230,
  "\u2581thodias": 1231,
  "\u00ee": 1232,
  "\u2581xa": 1233,
  "\u2581Antioch": 1234,
  "\u2581ajso": 1235,
  "\u2581a\u010dhi\u013ea": 1236,
  "\u2581naswalo": 1237,
  "\u2581poxtan": 1238,
  "\u2581tsipisardia": 1239,
  "\u2581garaven": 1240,
  "\u2581\u0161unen": 1241,
  "\u2581ramosardia": 1242,
  "\u2581sikaves": 1243,
  "\u2581terne": 1244,
  "\u2581Mosesosko": 1245,
  "\u2581korho": 1246,
  "\u2581fialo": 1247,
  "\u2581ankerdio": 1248,
  "\u2581bini": 1249,
  "\u2581ca\u013e": 1250,
  "\u2581thav": 1251,
  "\u2581Amar": 1252,
  "\u2581phenena": 1253,
  "\u2581lumiako": 1254,
  "\u2581avesa": 1255,
  "\u2581ola": 1256,
  "\u2581Z": 1257,
  "\u2581inkerel": 1258,
  "\u2581rodenas": 1259,
  "\u2581mekav": 1260,
  "\u2581kamas": 1261,
  "\u2581b": 1262,
  "\u2581bale": 1263,
  "\u2581Shaves": 1264,
  "Aven": 1265,
  "\u2581iakh": 1266,
  "Wo": 1267,
  "\u2581Bar": 1268,
  "\u2581ber\u0161": 1269,
  "\u2581iertil": 1270,
  "sailo": 1271,
  "\u2581lasa": 1272,
  "\u2581pachiv": 1273,
  "\u2581Timote": 1274,
  "\u2581duxi": 1275,
  "\u2581go\u010fi": 1276,
  "\u2581inchal": 1277,
  "\u2581izula": 1278,
  "\u2581luvudiv": 1279,
  "\u2581pa\u013eis": 1280,
  "\u2581sikadilo": 1281,
  "\u2581sumuntsi": 1282,
  "\u2581Sakadia": 1283,
  "\u2581chiriklia": 1284,
  "\u2581premil": 1285,
  "\u2581dosharen": 1286,
  "\u2581shov": 1287,
  "\u2581S\u00ee": 1288,
  "\u2581kolavrenge": 1289,
  "\u2581disiplonsa": 1290,
  "\u2581angerde": 1291,
  "\u2581chinuin": 1292,
  "\u2581k\u00e5": 1293,
  "\u2581rhuginpe": 1294,
  "\u2581mudardia": 1295,
  "\u2581disiplon": 1296,
  "\u2581Den": 1297,
  "um": 1298,
  "\u2581kerdiola": 1299,
  "\u2581ode": 1300,
  "diol": 1301,
  "\u2581Nas": 1302,
  "\u25819": 1303,
  "\u2581xasarela": 1304,
  "\u2581gava": 1305,
  "\u2581xalia": 1306,
  "\u2581thana": 1307,
  "\u2581Kots": 1308,
  "ala": 1309,
  "\u2581avasa": 1310,
  "\u2581geli": 1311,
  "\u2581mir": 1312,
  "\u25815": 1313,
  "Kad": 1314,
  "\u2581pon": 1315,
  "ardia": 1316,
  "\u2581merela": 1317,
  "\u2581chide": 1318,
  "saile": 1319,
  "\u2581H": 1320,
  "si": 1321,
  "\u2581\u00e8i": 1322,
  "\u2581Filip": 1323,
  "\u2581anklen": 1324,
  "\u2581dieluria": 1325,
  "\u2581duxuria": 1326,
  "\u2581haliarde": 1327,
  "\u2581raduin": 1328,
  "\u2581rhugilpe": 1329,
  "\u2581semnuria": 1330,
  "\u2581zhuvindo": 1331,
  "\u2581Va\u0161oda": 1332,
  "\u2581drazh": 1333,
  "\u2581xoliariko": 1334,
  "\u2581bunto": 1335,
  "\u2581xoxamle": 1336,
  "\u2581Mangav": 1337,
  "\u2581parno": 1338,
  "\u2581Asia": 1339,
  "\u2581naisimos": 1340,
  "\u2581dosharel": 1341,
  "\u2581Savatone": 1342,
  "\u2581Kaj": 1343,
  "\u2581vitsi": 1344,
  "lu": 1345,
  "ion": 1346,
  "\u2581astarde": 1347,
  "\u2581shudino": 1348,
  "\u2581d\u017eiven": 1349,
  "\u2581zumaven": 1350,
  "\u2581\u010d": 1351,
  "ce": 1352,
  "engo": 1353,
  "\u2581arakhena": 1354,
  "nca": 1355,
  "\u2581rimol": 1356,
  "\u2581sakrifis": 1357,
  "\u2581leskere": 1358,
  "5": 1359,
  "\u2581lela": 1360,
  "d\u017eas": 1361,
  "\u2581mas": 1362,
  "Eta": 1363,
  "\u2581chidel": 1364,
  "\u2581azhukeren": 1365,
  "\u2581phari": 1366,
  "\u2581be": 1367,
  "\u258115": 1368,
  "\u2581Elijah": 1369,
  "\u2581Zhidovisko": 1370,
  "\u2581anklel": 1371,
  "\u2581baptisto": 1372,
  "\u2581feder": 1373,
  "\u2581thi\u0161": 1374,
  "\u2581ajse": 1375,
  "\u2581shon": 1376,
  "\u2581chorhi": 1377,
  "\u2581raduimasa": 1378,
  "\u2581bange": 1379,
  "\u2581pomo\u017einen": 1380,
  "\u2581Davidosko": 1381,
  "\u2581zhana": 1382,
  "\u2581areslia": 1383,
  "tsi": 1384,
  "\u2581diesa": 1385,
  "\u2581pachaian": 1386,
  "\u2581lolo": 1387,
  "\u2581lenas": 1388,
  "\u2581Pate": 1389,
  "sosko": 1390,
  "\u2581beshle": 1391,
  "\u2581pachal": 1392,
  "\u2581Chachimasa": 1393,
  "\u2581telai": 1394,
  "\u2581jinel": 1395,
  "\u2581riate": 1396,
  "\u2581mu\u0161in": 1397,
  "\u2581Kame": 1398,
  "\u2581\u0148i": 1399,
  "\u2581shaves": 1400,
  "\u2581pu": 1401,
  "\u2581tsinorh": 1402,
  "\u2581Mi": 1403,
  "\u2581chiro": 1404,
  "lin": 1405,
  "\u2581chidine": 1406,
  "nde": 1407,
  "\u2581shu": 1408,
  "om": 1409,
  "has": 1410,
  "erdi": 1411,
  "\u2581manu\u0161enge": 1412,
  "\u2581Ov": 1413,
  "\u2581dikh": 1414,
  "\u2581kerdi": 1415,
  "\u2581jin": 1416,
  "\u2581dikhenas": 1417,
  "9": 1418,
  "\u2581phendi": 1419,
  "\u2581iekes": 1420,
  "\u2581sikadiol": 1421,
  "\u2581\u0161a": 1422,
  "\u2581zhanglia": 1423,
  "\u2581las": 1424,
  "\u2581kerdile": 1425,
  "\u2581Bakriorho": 1426,
  "ut": 1427,
  "\u2581wushti": 1428,
  "\u2581garadi": 1429,
  "\u258112": 1430,
  "\u2581dumult": 1431,
  "\u2581hulist": 1432,
  "\u2581podail": 1433,
  "\u2581rhugimos": 1434,
  "\u2581rhugisailo": 1435,
  "\u2581zumaimos": 1436,
  "\u2581Rasha": 1437,
  "\u2581zhandari": 1438,
  "\u2581trutno": 1439,
  "\u2581nakhle": 1440,
  "\u2581pansh": 1441,
  "\u2581pherde": 1442,
  "\u2581zhanglimos": 1443,
  "\u2581marimos": 1444,
  "\u2581mudardo": 1445,
  "\u2581krenzhi": 1446,
  "\u2581sichardia": 1447,
  "\u2581azbadia": 1448,
  "\u2581d\u017eanen": 1449,
  "\u2581xoxamlo": 1450,
  "\u2581phushel": 1451,
  "\u2581naswalen": 1452,
  "\u2581pek": 1453,
  "\u2581Apo": 1454,
  "les": 1455,
  "\u2581Chaches": 1456,
  "\u2581arakh": 1457,
  "\u2581kolavre": 1458,
  "\u2581tradel": 1459,
  "\u2581gelem": 1460,
  "ste": 1461,
  "\u2581\u010di": 1462,
  "\u2581Duxosa": 1463,
  "\u2581vlad\u0148inel": 1464,
  "\u2581Jesusoske": 1465,
  "\u2581phrala": 1466,
  "\u2581kamelas": 1467,
  "tsir": 1468,
  "\u2581mangela": 1469,
  "\u2581j": 1470,
  "i\u0148i": 1471,
  "je": 1472,
  "\u25818": 1473,
  "\u2581gras": 1474,
  "B": 1475,
  "ini": 1476,
  "\u2581dad": 1477,
  "Kana": 1478,
  "\u2581raxami": 1479,
  "ji": 1480,
  "\u2581Mek": 1481,
  "\u2581xasar": 1482,
  "\u2581azhukerel": 1483,
  "\u2581Pal": 1484,
  "ru": 1485,
  "\u2581kanikas": 1486,
  "\u2581phangli": 1487,
  "U": 1488,
  "\u258118": 1489,
  "\u2581Ephesus": 1490,
  "\u2581amperaturia": 1491,
  "\u2581kamaratos": 1492,
  "\u2581baiuria": 1493,
  "\u2581ketanengo": 1494,
  "\u2581kodala": 1495,
  "\u2581kurko": 1496,
  "\u2581nakhen": 1497,
  "\u2581ketana": 1498,
  "\u2581pashe": 1499,
  "\u2581mu\u013ea": 1500,
  "\u2581upral": 1501,
  "\u2581Oda": 1502,
  "J\u00e1n": 1503,
  "\u2581rhugis": 1504,
  "\u2581ankalavel": 1505,
  "\u2581varesave": 1506,
  "\u2581su": 1507,
  "\u2581lian": 1508,
  "\u2581angerel": 1509,
  "\u2581azhukeras": 1510,
  "\u2581thodine": 1511,
  "Sa": 1512,
  "\u2581Devlestar": 1513,
  "\u2581mothona": 1514,
  "\u2581sastiarel": 1515,
  "\u2581chererhaia": 1516,
  "\u2581peli": 1517,
  "\u2581purhil": 1518,
  "\u2581statosa": 1519,
  "\u2581wudara": 1520,
  "\u2581xanas": 1521,
  "\u2581dikhelas": 1522,
  "\u2581gropo": 1523,
  "\u2581benges": 1524,
  "T": 1525,
  "siv": 1526,
  "\u2581mia": 1527,
  "\u2581phenava": 1528,
  "\u2581Sabat": 1529,
  "\u2581Ker": 1530,
  "skeri": 1531,
  "\u2581bute": 1532,
  "\u2581nakhel": 1533,
  "\u2581kolavren": 1534,
  "\u2581kurvi": 1535,
  "\u2581meren": 1536,
  "\u2581dashti": 1537,
  "\u2581gindis": 1538,
  "\u2581bar": 1539,
  "\u2581kaske": 1540,
  "\u2581zhala": 1541,
  "P": 1542,
  "\u2581Savato": 1543,
  "\u258113": 1544,
  "\u2581chudisailo": 1545,
  "\u2581modlitbi": 1546,
  "\u2581phuterdilo": 1547,
  "\u2581radi\u0161agos": 1548,
  "\u2581struguro": 1549,
  "\u2581vareko": 1550,
  "\u2581vushoro": 1551,
  "\u2581mi\u0161\u013ein": 1552,
  "\u2581traiiv": 1553,
  "\u2581skepitori": 1554,
  "\u2581vastensa": 1555,
  "\u2581Lazarus": 1556,
  "\u2581iame": 1557,
  "\u2581angerdia": 1558,
  "\u2581xoxaven": 1559,
  "\u2581shinen": 1560,
  "\u2581avrenge": 1561,
  "\u2581Silas": 1562,
  "\u2581doshale": 1563,
  "\u2581pherdi": 1564,
  "\u2581Dar": 1565,
  "\u2581jinen": 1566,
  "\u2581Tir": 1567,
  "\u2581rashange": 1568,
  "\u2581daj": 1569,
  "\u2581d\u017eanas": 1570,
  "\u2581bakriorha": 1571,
  "\u2581Iovanosko": 1572,
  "\u2581rhevdin": 1573,
  "\u2581savi": 1574,
  "\u2581zhungale": 1575,
  "\u2581chinuisarde": 1576,
  "Tho": 1577,
  "\u2581zhangli": 1578,
  "\u2581Petres": 1579,
  "\u2581pachav": 1580,
  "iben": 1581,
  "mon": 1582,
  "\u2581char": 1583,
  "\u2581avren": 1584,
  "\u2581Po": 1585,
  "\u2581tradin": 1586,
  "\u2581rod": 1587,
  "ake": 1588,
  "\u2581traden": 1589,
  "\u2581ashun": 1590,
  "\u2581ashela": 1591,
  "\u2581sikavelas": 1592,
  "\u2581zhuvindila": 1593,
  "estar": 1594,
  "\u2581abiav": 1595,
  "\u2581phir": 1596,
  "\u2581savorhen": 1597,
  "\u2581sta": 1598,
  "Ashun": 1599,
  "Aidi": 1600,
  "Iek": 1601,
  "savo": 1602,
  "\u2581pra": 1603,
  "\u2581chud": 1604,
  "Vi": 1605,
  "\u2581zhava": 1606,
  "\u2581naswale": 1607,
  "\u2581izdra": 1608,
  "imasa": 1609,
  "brazkos": 1610,
  "\u2581Festus": 1611,
  "\u2581Isaiah": 1612,
  "\u2581diminiatsi": 1613,
  "\u2581la\u010dhe": 1614,
  "\u2581miazon": 1615,
  "\u2581nekezhime": 1616,
  "\u2581nuvero": 1617,
  "\u2581sikh\u013euvas": 1618,
  "\u2581xoxaimos": 1619,
  "\u2581phandade": 1620,
  "\u2581xasavol": 1621,
  "\u2581arakhadilo": 1622,
  "\u2581kanrhe": 1623,
  "\u2581phandado": 1624,
  "\u2581duj": 1625,
  "\u2581Caesarea": 1626,
  "\u2581getosardia": 1627,
  "\u2581zhuvindisardia": 1628,
  "\u2581naisin": 1629,
  "\u2581zhuvindimos": 1630,
  "\u2581pherdiol": 1631,
  "\u2581ningerd": 1632,
  "\u2581muli": 1633,
  "\u2581ankeren": 1634,
  "\u2581kavreste": 1635,
  "\u2581pachaiape": 1636,
  "\u2581chinuisardia": 1637,
  "\u2581sovel": 1638,
  "\u2581gonisardia": 1639,
  "\u2581savorhende": 1640,
  "\u2581shinel": 1641,
  "\u2581phirav": 1642,
  "\u2581chinen": 1643,
  "\u2581pochinen": 1644,
  "\u2581beshas": 1645,
  "\u2581vakerel": 1646,
  "\u2581kheresko": 1647,
  "\u2581F": 1648,
  "\u2581sikavav": 1649,
  "Mek": 1650,
  "\u2581chiri": 1651,
  "\u2581phirelas": 1652,
  "i\u017ee": 1653,
  "\u0165i": 1654,
  "\u25817": 1655,
  "\u2581mangena": 1656,
  "kar": 1657,
  "\u2581soba": 1658,
  "\u2581rh": 1659,
  "\u2581jinde": 1660,
  "\u2581rhaiosko": 1661,
  "oha": 1662,
  "kala": 1663,
  "\u2581lila": 1664,
  "\u2581vo": 1665,
  "\u0148a": 1666,
  "\u2581kuk": 1667,
  "Mu": 1668,
  "\u2581Len": 1669,
  "\u2581pelo": 1670,
  "Ma": 1671,
  "\u2581glaten": 1672,
  "\u2581pen": 1673,
  "\u2581arakhela": 1674,
  "ian": 1675,
  "\u2581gindinas": 1676,
  "\u2581dikhela": 1677,
  "\u2581skepisardi": 1678,
  "3": 1679,
  "\u2581vast": 1680,
  "Wushti": 1681,
  "Nichi": 1682,
  "\u2581luvudisarde": 1683,
  "rel": 1684,
  "\u2581lashar": 1685,
  "\u2581mothola": 1686,
  "\u2581thodian": 1687,
  "\u2581plaia": 1688,
  "\u2581azba": 1689,
  "\u2581rov": 1690,
  "\u00e8": 1691,
  "pa": 1692,
  "\u2581Samaria": 1693,
  "\u2581changende": 1694,
  "\u2581chidinisaile": 1695,
  "\u2581trapi\u0161agos": 1696,
  "\u2581musuri": 1697,
  "\u2581chasuria": 1698,
  "\u2581alome": 1699,
  "\u2581premin": 1700,
  "\u2581tsera": 1701,
  "\u2581sastilo": 1702,
  "\u2581krisako": 1703,
  "\u2581parhuven": 1704,
  "\u2581marime": 1705,
  "\u2581phutren": 1706,
  "\u2581iagasa": 1707,
  "\u2581inia": 1708,
  "\u2581zhutisardia": 1709,
  "\u2581shudin": 1710,
  "\u2581rimolpe": 1711,
  "\u2581manglem": 1712,
  "\u2581Dadesko": 1713,
  "and": 1714,
  "\u2581shinde": 1715,
  "\u2581beshav": 1716,
  "\u2581dena": 1717,
  "\u2581kh\u00e5": 1718,
  "\u2581soven": 1719,
  "\u2581\u010da\u010d": 1720,
  "\u2581swakones": 1721,
  "\u2581nakhelas": 1722,
  "\u2581Zhidovon": 1723,
  "\u2581ashundiam": 1724,
  "\u2581putierako": 1725,
  "\u2581hai": 1726,
  "\u2581pastuxo": 1727,
  "tori": 1728,
  "\u2581phivlia": 1729,
  "\u2581ku": 1730,
  "\u2581phendiam": 1731,
  "\u2581sichar": 1732,
  "\u201c.": 1733,
  "\u2581kako": 1734,
  "r\u0103": 1735,
  "cha": 1736,
  "\u2581traiila": 1737,
  "\u2581x": 1738,
  "\u258116": 1739,
  "\u2581zur": 1740,
  "\u2581kas": 1741,
  "\u2581trobula": 1742,
  "inel": 1743,
  "tha": 1744,
  "V": 1745,
  "Chachimasa": 1746,
  "Len": 1747,
  "\u2581rup": 1748,
  "\u2581lelas": 1749,
  "\u2581gindil": 1750,
  "\u2581skamin": 1751,
  "ria": 1752,
  "\u2581Av": 1753,
  "\u2581jind": 1754,
  "\u2581hodini": 1755,
  "\u2581pomo\u017ein": 1756,
  "\u2581av\u013ea": 1757,
  "the": 1758,
  "\u2581slugen": 1759,
  "\u2581darasa": 1760,
  "\u2581mangliam": 1761,
  "\u2581buntui": 1762,
  "\u2581Capernaum": 1763,
  "\u2581Damascus": 1764,
  "\u2581Gelo": 1765,
  "\u2581Jordan": 1766,
  "\u2581breshind": 1767,
  "\u2581chinuime": 1768,
  "\u2581zumade": 1769,
  "\u2581Pavol": 1770,
  "\u2581vzkrjesimen": 1771,
  "\u2581kovlo": 1772,
  "\u2581selia": 1773,
  "\u2581a\u0161ar": 1774,
  "\u2581naisil": 1775,
  "\u2581kereha": 1776,
  "\u2581vuzhimos": 1777,
  "changa": 1778,
  "\u2581phuviake": 1779,
  "\u2581Mark": 1780,
  "\u2581zboros": 1781,
  "\u2581stran": 1782,
  "\u2581divinilas": 1783,
  "\u2581kadea": 1784,
  "\u2581pri": 1785,
  "\u2581Abrahamoske": 1786,
  "\u2581doshako": 1787,
  "\u2581Phende": 1788,
  "\u2581Phendia": 1789,
  "\u2581bengeske": 1790,
  "\u2581paiesa": 1791,
  "Mang": 1792,
  "\u2581ashunes": 1793,
  "\u2581xaiin": 1794,
  "\u2581bish": 1795,
  "\u2581Besh": 1796,
  "\u2581manushengo": 1797,
  "\u2581poronchinas": 1798,
  "\u2581kacha": 1799,
  "\u2581ver": 1800,
  "\u2581a\u010dhel": 1801,
  "\u2581Wushti": 1802,
  "\u2581kavresa": 1803,
  "\u2581phuvia": 1804,
  "ndine": 1805,
  "\u2581shin": 1806,
  "\u2581ru": 1807,
  "\u2581iertin": 1808,
  "ter": 1809,
  "ado": 1810,
  "\u2581ve": 1811,
  "tre": 1812,
  "\u2581daras": 1813,
  "\u2581lava": 1814,
  "\u0103": 1815,
  "\u2581\u010dhaven": 1816,
  "ilo": 1817,
  "onge": 1818,
  "\u2581choren": 1819,
  "ela": 1820,
  "\u2581thola": 1821,
  "imasko": 1822,
  "\u2581Zha": 1823,
  "\u2581zumave": 1824,
  "Che": 1825,
  "Savo": 1826,
  "\u2581azhuker": 1827,
  "\u2581d\u017eivena": 1828,
  "\u2581dikhlias": 1829,
  "\u2581soske": 1830,
  "\u2581bolel": 1831,
  "\u2581phabol": 1832,
  "tra": 1833,
  "\u2581pravare": 1834,
  "\u2581ca": 1835,
  "\u2581pachaie": 1836,
  "\u2581kra\u013eis": 1837,
  "\u2581vuzhi": 1838,
  "\u2581Agrippa": 1839,
  "\u2581Pilato": 1840,
  "\u2581Rachab": 1841,
  "\u2581antrego": 1842,
  "\u2581apostle": 1843,
  "\u2581chinuimos": 1844,
  "\u2581gindiv": 1845,
  "\u2581man\u017eelstvo": 1846,
  "\u2581stvorin\u010fa": 1847,
  "\u2581tuturaza": 1848,
  "\u2581varekana": 1849,
  "\u2581xoxamn": 1850,
  "\u2581zumado": 1851,
  "\u2581Saxke": 1852,
  "\u2581gone": 1853,
  "\u2581magares": 1854,
  "\u2581patria": 1855,
  "\u2581pa\u0165iv": 1856,
  "\u2581bolimos": 1857,
  "\u2581kovle": 1858,
  "\u2581paluno": 1859,
  "\u2581vuzhard": 1860,
  "\u2581vuloi": 1861,
  "\u2581Rome": 1862,
  "\u2581lampo": 1863,
  "\u2581The": 1864,
  "\u2581nashen": 1865,
  "\u2581primin": 1866,
  "\u2581piiav": 1867,
  "\u2581Stephen": 1868,
  "00": 1869,
  "\u2581parhuvel": 1870,
  "\u2581ada\u010fives": 1871,
  "\u2581Je\u017ei\u0161osker": 1872,
  "\u2581verno": 1873,
  "\u2581astaren": 1874,
  "\u2581meras": 1875,
  "\u2581rom\u0148aha": 1876,
  "\u2581ingeren": 1877,
  "\u2581phuviako": 1878,
  "\u2581zhungalimos": 1879,
  "\u2581barimatange": 1880,
  "\u2581baxensa": 1881,
  "\u2581phutrel": 1882,
  "\u2581lasharen": 1883,
  "\u2581avreske": 1884,
  "\u2581bezexeske": 1885,
  "\u2581d\u017ean": 1886,
  "\u2581ankerel": 1887,
  "chimos": 1888,
  "\u2581phralenge": 1889,
  "\u2581Levi": 1890,
  "\u2581angelonge": 1891,
  "\u2581tradem": 1892,
  "\u2581hodinin": 1893,
  "\u2581palma": 1894,
  "\u2581azhukerelas": 1895,
  "\u2581tradine": 1896,
  "\u2581zhanena": 1897,
  "\u2581Pavloske": 1898,
  "\u2581rodas": 1899,
  "\u2581plachal": 1900,
  "\u2581preznain": 1901,
  "\u2581premisardian": 1902,
  "aras": 1903,
  "\u2581inkeren": 1904,
  "tse": 1905,
  "\u2581primil": 1906,
  "\u2581luvudil": 1907,
  "Mat": 1908,
  "\u2581ber\u0161a": 1909,
  "\u2581daranas": 1910,
  "\u2581xasarde": 1911,
  "\u2581vazden": 1912,
  "\u2581phab": 1913,
  "\u2581vazde": 1914,
  "\u2581droma": 1915,
  "\u2581no": 1916,
  "\u2581Ar": 1917,
  "aile": 1918,
  "sar": 1919,
  "\u2581phei": 1920,
  "\u2581ashunenas": 1921,
  "De": 1922,
  "\u2581Iovanos": 1923,
  "\u2581mulen": 1924,
  "\u2581anava": 1925,
  "\u2581skepisar": 1926,
  "\u2581ba": 1927,
  "\u2581pheia": 1928,
  "\u2581marel": 1929,
  "\u2581lill": 1930,
  "\u2581manglian": 1931,
  "\u2581phivli": 1932,
  "\u2581sastiar": 1933,
  "Chaches": 1934,
  "\u2581dukhave": 1935,
  "\u2581sheia": 1936,
  "\u2581\u0161tudine": 1937,
  "\u2581\u010fives": 1938,
  "iam": 1939,
  "\u2581bachtale": 1940,
  "aven": 1941,
  "Ker": 1942,
  "\u2581angelon": 1943,
  "\u2581dashtil": 1944,
  "\u2581tsipil": 1945,
  "\u2581sasto": 1946,
  "\u2581shaven": 1947,
  "\u010di": 1948,
  "\u2581mekela": 1949,
  "ng\u00e5": 1950,
  "\u2581rom\u0148a": 1951,
  "\u2581mishti": 1952,
  "\u2581la\u010dhi": 1953,
  "\u258117": 1954,
  "\u258119": 1955,
  "\u2581Babylon": 1956,
  "\u2581Saduseanuria": 1957,
  "\u2581Samuel": 1958,
  "\u2581Zechariah": 1959,
  "\u2581apo\u0161tol": 1960,
  "\u2581armia": 1961,
  "\u2581chordanes": 1962,
  "\u2581gonil": 1963,
  "\u2581gono": 1964,
  "\u2581gratsia": 1965,
  "\u2581marturo": 1966,
  "\u2581nala\u010dhipen": 1967,
  "\u2581respektin": 1968,
  "\u2581trenda": 1969,
  "\u2581mi\u0161to": 1970,
  "\u2581prinzhard": 1971,
  "\u2581shere": 1972,
  "\u2581stingo": 1973,
  "\u2581wushtel": 1974,
  "\u2581pa\u0165al": 1975,
  "\u2581va\u0161oda": 1976,
  "\u2581slu\u017einen": 1977,
  "\u2581nakhlo": 1978,
  "\u2581niva": 1979,
  "\u2581palune": 1980,
  "\u2581romeha": 1981,
  "\u2581synagoguria": 1982,
  "\u2581chingara": 1983,
  "\u2581shinade": 1984,
  "\u2581naswalimos": 1985,
  "\u2581chud\u0148a": 1986,
  "\u2581Melchizedek": 1987,
  "\u2581konona": 1988,
  "\u2581merav": 1989,
  "\u2581phaglia": 1990,
  "\u2581rhonjito": 1991,
  "\u2581sichares": 1992,
  "\u2581daros": 1993,
  "\u2581\u010dhavoro": 1994,
  "\u2581odphenel": 1995,
  "\u2581darako": 1996,
  "\u2581lashardia": 1997,
  "\u2581krenzha": 1998,
  "\u2581phiraven": 1999,
  "\u2581pachival": 2000,
  "\u2581shindia": 2001,
  "\u2581andral": 2002,
  "\u2581paieske": 2003,
  "\u2581pasholas": 2004,
  "maske": 2005,
  "\u2581kote": 2006,
  "\u2581a\u0148jela": 2007,
  "\u2581mashkaral": 2008,
  "rus": 2009,
  "\u2581Sako": 2010,
  "masa": 2011,
  "\u2581xo": 2012,
  "\u2581bezexalo": 2013,
  "\u2581strefialas": 2014,
  "\u2581Ashunen": 2015,
  "\u2581Bo": 2016,
  "\u2581Che": 2017,
  "\u2581nakhav": 2018,
  "\u2581ashunelas": 2019,
  "\u2581pochinel": 2020,
  "\u2581mu\u0161ine": 2021,
  "dian": 2022,
  "\u2581La": 2023,
  "char": 2024,
  "\u2581Ph": 2025,
  "\u2581pomo\u017einela": 2026,
  "nel": 2027,
  "\u2581ambolden": 2028,
  "\u2581sicharde": 2029,
  "\u010dinel": 2030,
  "\u2581duril": 2031,
  "\u2581thos": 2032,
  "\u2581Je": 2033,
  "\u2581shud": 2034,
  "\u2581karfosard": 2035,
  "\u2581ashunena": 2036,
  "\u2581vuli": 2037,
  "\u2581And": 2038,
  "\u2581sikav": 2039,
  "7": 2040,
  "\u2581akhar": 2041,
  "\u2581xasarel": 2042,
  "\u2581kerdili": 2043,
  "\u2581chinuis": 2044,
  "naspe": 2045,
  "saras": 2046,
  "Ame": 2047,
  "\u2581ramosar": 2048,
  "\u2581swuntso": 2049,
  "\u2581thu": 2050,
  "\u258121": 2051,
  "\u2581Jeremija\u0161": 2052,
  "\u2581Jericho": 2053,
  "\u2581Pa\u013eis": 2054,
  "\u2581divanuria": 2055,
  "\u2581dod\u017eanaha": 2056,
  "\u2581dziliare": 2057,
  "\u2581haliardia": 2058,
  "\u2581kamarata": 2059,
  "\u2581kimpo": 2060,
  "\u2581kurkorsho": 2061,
  "\u2581k\u0148i\u017eki": 2062,
  "\u2581miraklo": 2063,
  "\u2581nekfeder": 2064,
  "\u2581pa\u013eiker": 2065,
  "\u2581pupui": 2066,
  "\u2581saxanits": 2067,
  "\u2581shipk": 2068,
  "\u2581shodo": 2069,
  "\u2581streino": 2070,
  "\u2581zhroma\u017e\u010fe\u0148e": 2071,
  "\u2581zumadia": 2072,
  "\u2581Titus": 2073,
  "\u2581dichon": 2074,
  "\u2581starinel": 2075,
  "\u2581phurane": 2076,
  "\u2581rhugisavas": 2077,
  "\u2581Sidon": 2078,
  "\u2581Job": 2079,
  "\u2581nichi": 2080,
  "\u2581neve": 2081,
  "\u2581pa\u0165as": 2082,
  "\u2581sika\u010fa": 2083,
  "\u2581Sodom": 2084,
  "\u2581oxto": 2085,
  "\u2581bariarel": 2086,
  "\u2581parne": 2087,
  "\u2581Trade": 2088,
  "\u2581lantsonsa": 2089,
  "\u2581\u010dhaj": 2090,
  "\u2581apostlonge": 2091,
  "\u2581ramosardem": 2092,
  "aresave": 2093,
  "\u2581olestar": 2094,
  "\u2581Martha": 2095,
  "\u2581xoxavel": 2096,
  "\u2581roz": 2097,
  "\u2581durion": 2098,
  "\u2581Tumar": 2099,
  "\u2581Barabbas": 2100,
  "\u2581Avka": 2101,
  "\u2581otazki": 2102,
  "\u2581aterdiaren": 2103,
  "\u2581ansurilpe": 2104,
  "\u2581angeren": 2105,
  "\u2581Ser": 2106,
  "\u2581Iakovosko": 2107,
  "\u2581bezexesko": 2108,
  "\u2581eftato": 2109,
  "\u2581vazdino": 2110,
  "\u2581profetonge": 2111,
  "\u2581tsipilas": 2112,
  "\u2581jilia": 2113,
  "\u2581mo": 2114,
  "\u2581Lia": 2115,
  "\u2581Iovanoske": 2116,
  "\u2581phraleske": 2117,
  "\u2581arakhav": 2118,
  "sinel": 2119,
  "\u2581ruv": 2120,
  "\u2581foros": 2121,
  "turia": 2122,
  "\u2581daral": 2123,
  "\u2581besh": 2124,
  "\u2581traiosko": 2125,
  "\u2581pachasa": 2126,
  "\u2581rhevdisar": 2127,
  "\u2581ierti": 2128,
  "zha": 2129,
  "\u2581karfo": 2130,
  "\u2581shubi": 2131,
  "\u2581pena": 2132,
  "\u2581olen": 2133,
  "\u2581rode": 2134,
  "16)": 2135,
  "\u2581d\u017ei": 2136,
  "\u2581shind": 2137,
  "\u2581tira": 2138,
  "\u2581pachala": 2139,
  "\u2581chidia": 2140,
  "\u2581beshela": 2141,
  "\u2581Sai": 2142,
  "\u2581chererhai": 2143,
  "\u2581kres\u0165ansk": 2144,
  "Trobul": 2145,
  "\u2581phush": 2146,
  "\u2581diam": 2147,
  "Numa": 2148,
  "th": 2149,
  "Arakhen": 2150,
  "\u2581premisardia": 2151,
  "\u2581anger": 2152,
  "\u2581mur\u0161": 2153,
  "\u25813:1": 2154,
  "Anda": 2155,
  "\u2581pashil": 2156,
  "Raduim": 2157,
  "\u2581chumid": 2158,
  "\u2581pashol": 2159,
  "\u2581geliam": 2160,
  "\u2581malade": 2161,
  "\u2581strefia": 2162,
  "\u2581kadi": 2163,
  "Sai": 2164,
  "\u2581getol": 2165,
  "Arakh": 2166,
  "\u2581tsip": 2167,
  "\u2581Elizabeth": 2168,
  "\u2581Gele": 2169,
  "\u2581Grekuria": 2170,
  "\u2581Iscariot": 2171,
  "\u2581Izrael\u010dan": 2172,
  "\u2581Romanuria": 2173,
  "\u2581amperatsi": 2174,
  "\u2581biandilo": 2175,
  "\u2581dzile": 2176,
  "\u2581geton": 2177,
  "\u2581gonin": 2178,
  "\u2581hiros": 2179,
  "\u2581ivend": 2180,
  "\u2581nirin": 2181,
  "\u2581problemi": 2182,
  "\u2581respektimos": 2183,
  "\u2581rhugilaspe": 2184,
  "\u2581sichilian": 2185,
  "\u2581terhara": 2186,
  "\u2581trobun": 2187,
  "\u2581vlada": 2188,
  "\u2581vutuimata": 2189,
  "\u2581zhaluzi": 2190,
  "\u2581zhuvinde": 2191,
  "\u2581Solomon": 2192,
  "\u2581krenga": 2193,
  "\u2581patreto": 2194,
  "\u2581xoliavol": 2195,
  "\u2581Thomas": 2196,
  "hk\u00e5": 2197,
  "\u2581bichosa": 2198,
  "bacht": 2199,
  "\u2581bokhalo": 2200,
  "\u2581Line": 2201,
  "\u2581duriol": 2202,
  "\u2581gada": 2203,
  "\u2581Philip": 2204,
  "\u2581lungo": 2205,
  "\u2581dod\u017eane": 2206,
  "\u2581vorbensa": 2207,
  "\u2581Abrahamoski": 2208,
  "\u2581ti\u0161": 2209,
  "\u2581traiisardia": 2210,
  "\u2581anglun": 2211,
  "\u2581rhugisaile": 2212,
  "\u2581d\u017eivas": 2213,
  "\u2581demoni": 2214,
  "\u2581Rhugin": 2215,
  "\u2581sichon": 2216,
  "\u2581phuterdo": 2217,
  "\u2581vastesa": 2218,
  "\u2581cu": 2219,
  "\u2581buntuime": 2220,
  "\u2581xalaven": 2221,
  "\u2581Beng": 2222,
  "\u2581phurdia": 2223,
  "\u2581kurvimos": 2224,
  "\u2581pachalaspe": 2225,
  "\u2581lashimasa": 2226,
  "\u2581Sikaven": 2227,
  "\u2581trushalo": 2228,
  "\u2581xulad": 2229,
  "\u2581\u0148iko": 2230,
  "\u2581pochindo": 2231,
  "\u2581lasharel": 2232,
  "\u2581Luvudi": 2233,
  "\u2581Sikav": 2234,
  "\u2581Simonosko": 2235,
  "\u2581luvudilpe": 2236,
  "\u2581aterdiarel": 2237,
  "\u2581semnome": 2238,
  "\u2581zorasa": 2239,
  "in\u010fa": 2240,
  "\u2581mod\u013einel": 2241,
  "\u2581Phenen": 2242,
  "\u2581khangeriako": 2243,
  "\u2581presikavel": 2244,
  "\u2581kerdilem": 2245,
  "\u2581geliamtar": 2246,
  "\u2581kres\u0165an": 2247,
  "\u2581pharipena": 2248,
  "\u2581ch": 2249,
  "\u2581pasturia": 2250,
  "\u2581phur": 2251,
  "\u2581phiras": 2252,
  "\u2581saves": 2253,
  "\u2581prosto": 2254,
  "\u2581mur\u0161a": 2255,
  "\u2581d\u017eanelas": 2256,
  "tus": 2257,
  "\u2581lumiaki": 2258,
  "\u2581ingerde": 2259,
  "!'": 2260,
  "\u2581sicharenas": 2261,
  "\u2581Arakhen": 2262,
  "\u2581merena": 2263,
  "\u2581avilemas": 2264,
  "\u2581andin": 2265,
  "\u2581mu\u0161inen": 2266,
  "\u2581forosko": 2267,
  "\u2581Zhi": 2268,
  "ven": 2269,
  "\u2581luvudis": 2270,
  "\u2581tire": 2271,
  "\u2581Duxoski": 2272,
  "\u2581keci": 2273,
  "?'": 2274,
  "Pr": 2275,
  "\u2581chire": 2276,
  "\u2581skepin": 2277,
  "lape": 2278,
  "\u2581traioski": 2279,
  "\u2581thodem": 2280,
  "\u2581ashunela": 2281,
  "\u2581skafidia": 2282,
  "laspe": 2283,
  "kane": 2284,
  "\u2581phushlias": 2285,
  "\u258120": 2286,
  "\u2581bakre": 2287,
  "\u2581profeton": 2288,
  "\u2581sprind\u017ear": 2289,
  "mata": 2290,
  "\u2581tradian": 2291,
  "\u2581xalas": 2292,
  "ardi": 2293,
  "orha": 2294,
  "ardo": 2295,
  "\u2581mu": 2296,
  "\u2581Ta": 2297,
  "\u2581Man": 2298,
  "hko": 2299,
  "\u2581tha": 2300,
  "\u2581bichind": 2301,
  "\u2581darav": 2302,
  "pasturi": 2303,
  "J": 2304,
  "jekh": 2305,
  "rhe": 2306,
  "\u2581barile": 2307,
  "\u2581zumav": 2308,
  "\u2581phag": 2309,
  "\u2581kid": 2310,
  "\u2581chinuina": 2311,
  "\u2581garav": 2312,
  "\u2581narodosa": 2313,
  "Den": 2314,
  "\u2581grast": 2315,
  "\u2581bash": 2316,
  "\u2581odphen": 2317,
  "mborim": 2318,
  "\u2581xoxav": 2319,
  "\u2581pharhad": 2320,
  "Rhugi": 2321,
  "\u2581ketanen": 2322,
  "Haliar": 2323,
  "\u2581Apollos": 2324,
  "\u2581Isaak": 2325,
  "\u2581ansurime": 2326,
  "\u2581bazari": 2327,
  "\u2581daxtai": 2328,
  "\u2581dopash": 2329,
  "\u2581fialuri": 2330,
  "\u2581k\u00e5r\u00e5l": 2331,
  "\u2581lantsuria": 2332,
  "\u2581nekezhin": 2333,
  "\u2581nekezhisailo": 2334,
  "\u2581raduisaile": 2335,
  "\u2581respektime": 2336,
  "\u2581shunuto": 2337,
  "\u2581skurt": 2338,
  "\u2581smirom": 2339,
  "\u2581u\u017earel": 2340,
  "\u2581z\u0148i\u010dimen": 2341,
  "\u2581\u0161tudijum": 2342,
  "\u2581Elija\u0161": 2343,
  "\u2581jilestar": 2344,
  "\u2581sabiensa": 2345,
  "\u2581tiari": 2346,
  "Zjave": 2347,
  "\u2581Ce": 2348,
  "\u2581guvernori": 2349,
  "\u2581xoliavon": 2350,
  "\u2581pachamasko": 2351,
  "\u2581pa\u0165an": 2352,
  "\u2581seren": 2353,
  "\u2581kimpuria": 2354,
  "\u2581pisinenas": 2355,
  "\u2581zasadi": 2356,
  "\u2581magari": 2357,
  "\u2581shavorhe": 2358,
  "\u2581bokhale": 2359,
  "\u2581phurano": 2360,
  "slovi": 2361,
  "\u2581pharo": 2362,
  "Vorta": 2363,
  "\u2581kamiben": 2364,
  "\u2581per\u0161o": 2365,
  "\u2581nirisardia": 2366,
  "\u2581Inker": 2367,
  "\u2581lokes": 2368,
  "\u2581teliara": 2369,
  "\u2581lazhal": 2370,
  "\u2581divinin": 2371,
  "\u2581zhangle": 2372,
  "\u2581radi": 2373,
  "\u2581jindian": 2374,
  "\u2581slugenge": 2375,
  "\u2581vo\u013ea": 2376,
  "\u2581swuntsome": 2377,
  "Luk": 2378,
  "\u2581chinuria": 2379,
  "\u2581vuni": 2380,
  "dav": 2381,
  "\u2581Evaha": 2382,
  "\u2581aviliam": 2383,
  "\u2581ashshile": 2384,
  "este": 2385,
  "\u2581mod\u013einas": 2386,
  "\u2581dural": 2387,
  "\u2581Mosesoske": 2388,
  "\u2581sicharav": 2389,
  "\u2581pisinel": 2390,
  "\u2581nashtisardia": 2391,
  "\u2581bichinenas": 2392,
  "\u2581mosa": 2393,
  "\u2581bashel": 2394,
  "\u2581ablakato": 2395,
  "\u2581Mu\u0161in": 2396,
  "\u2581perve": 2397,
  "\u2581Dadeske": 2398,
  "\u2581Dui": 2399,
  "M": 2400,
  "\u2581pravar": 2401,
  "\u2581phuterde": 2402,
  "\u2581pashilo": 2403,
  "\u2581sprava": 2404,
  "\u2581xasavona": 2405,
  "\u2581phabolas": 2406,
  "\u2581asan": 2407,
  "\u2581chal": 2408,
  "\u2581savorhensa": 2409,
  "\u2581sha": 2410,
  "\u2581morchia": 2411,
  "\u2581marenpe": 2412,
  "\u2581Avile": 2413,
  "\u2581drabar": 2414,
  "\u2581telal": 2415,
  "\u2581\u0161un": 2416,
  "\u2581foroske": 2417,
  "\u2581amperatosko": 2418,
  "\u00e5l": 2419,
  "oni": 2420,
  "\u2581arakhas": 2421,
  "\u2581Pacha": 2422,
  "\u2581phirenas": 2423,
  "\u2581statoske": 2424,
  "\u2581skamina": 2425,
  "\u2581anela": 2426,
  "\u2581xav": 2427,
  "\u2581Zhanas": 2428,
  "\u2581raxamia": 2429,
  "K": 2430,
  "\u2581kerdiolpe": 2431,
  "\u2581astard": 2432,
  "\u2581atsaven": 2433,
  "\u2581Dav": 2434,
  "\u2581statosko": 2435,
  "\u2581mu\u0161inel": 2436,
  "\u2581kerdiona": 2437,
  "\u2581solaxal": 2438,
  "\u2581lon": 2439,
  "\u2581Noah": 2440,
  "\u2581inger": 2441,
  "\u2581peng": 2442,
  "\u2581bij": 2443,
  "dra": 2444,
  "\u2581-": 2445,
  "gre": 2446,
  "\u2581Var": 2447,
  "\u2581ashel": 2448,
  "\u2581Save": 2449,
  "\u2581vi\u010din": 2450,
  "\u2581prea\u010dhe": 2451,
  "rdo": 2452,
  "5)": 2453,
  "\u2581rimo": 2454,
  "\u2581perela": 2455,
  "Zhanen": 2456,
  "\u2581a\u010dhela": 2457,
  "a\u013ei": 2458,
  "\u2581angl": 2459,
  "8": 2460,
  "d\u017ean": 2461,
  "Pacha": 2462,
  "Akana": 2463,
  "\u2581zhanglian": 2464,
  "huvlio": 2465,
  "rado": 2466,
  "\u2581Jehova": 2467,
  "atsa": 2468,
  "und": 2469,
  "\u2581s\u013eub": 2470,
  "\u2581traiis": 2471,
  "\u2581Jozija\u0161": 2472,
  "Shoxar": 2473,
  "Skutk": 2474,
  "\u258123": 2475,
  "\u2581Bethlehem": 2476,
  "\u2581Caiaphas": 2477,
  "\u2581Corinth": 2478,
  "\u2581Devleha": 2479,
  "\u2581Felix": 2480,
  "\u2581aterdion": 2481,
  "\u2581berego": 2482,
  "\u2581dureder": 2483,
  "\u2581falo\u0161n": 2484,
  "\u2581fruti": 2485,
  "\u2581gojasa": 2486,
  "\u2581grebi": 2487,
  "\u2581gretsol": 2488,
  "\u2581gurumli": 2489,
  "\u2581haliarav": 2490,
  "\u2581jakha": 2491,
  "\u2581kozhnitsi": 2492,
  "\u2581niriv": 2493,
  "\u2581paramicha": 2494,
  "\u2581phuterdile": 2495,
  "\u2581pou\u017einel": 2496,
  "\u2581prashtia": 2497,
  "\u2581pretso": 2498,
  "\u2581rhugimata": 2499,
  "\u2581streinuria": 2500,
  "\u2581ternaxar": 2501,
  "\u2581ve\u010dno": 2502,
  "\u2581zhukel": 2503,
  "\u2581duchos": 2504,
  "\u2581punrho": 2505,
  "\u2581trivar": 2506,
  "\u2581shinaimos": 2507,
  "\u2581katsar": 2508,
  "\u2581manjin": 2509,
  "\u2581sulum": 2510,
  "\u2581tsipisarde": 2511,
  "\u2581la\u010dhipen": 2512,
  "\u2581naisisaras": 2513,
  "Magdata": 2514,
  "\u2581jean": 2515,
  "\u2581bolav": 2516,
  "\u0148in\u010fa": 2517,
  "a\u0165e\u013e": 2518,
  "\u2581da\u0161ti": 2519,
  "\u2581nirisarde": 2520,
  "\u2581bezexeski": 2521,
  "\u2581Elias": 2522,
  "\u2581Easto": 2523,
  "\u2581zd\u017ean": 2524,
  "\u2581vastestar": 2525,
  "\u2581lazhan": 2526,
  "\u010da": 2527,
  "\u2581korkoro": 2528,
  "\u2581shinga": 2529,
  "\u2581Fal": 2530,
  "rago": 2531,
  "\u2581pharhadia": 2532,
  "\u2581D\u017eanes": 2533,
  "\u2581nakha": 2534,
  "\u2581rhuginaspe": 2535,
  "\u2581garadia": 2536,
  "\u2581Raj": 2537,
  "\u2581rhai": 2538,
  "ng\u0103": 2539,
  "ge\u013ea": 2540,
  "\u2581stranki": 2541,
  "\u2581rherto": 2542,
  "\u2581aterdiardia": 2543,
  "\u2581kontra": 2544,
  "\u2581doshardia": 2545,
  "\u2581xaiil": 2546,
  "\u2581amborim": 2547,
  "\u2581Va\u0161": 2548,
  "\u2581Cornelius": 2549,
  "\u2581Tradav": 2550,
  "\u2581bakria": 2551,
  "\u2581marelpe": 2552,
  "\u2581Romano": 2553,
  "\u2581plaiing": 2554,
  "\u2581mardo": 2555,
  "\u2581Ramos": 2556,
  "\u2581Pro": 2557,
  "\u2581beshes": 2558,
  "\u2581arho": 2559,
  "\u2581akharav": 2560,
  "\u2581zhuvliake": 2561,
  "\u2581gazdaske": 2562,
  "\u2581aleha": 2563,
  "\u2581daralas": 2564,
  "\u2581phralensa": 2565,
  "\u2581korkore": 2566,
  "\u2581Avil": 2567,
  "\u2581gropon": 2568,
  "\u2581ankaladi": 2569,
  "\u2581pelia": 2570,
  "\u2581arakhlias": 2571,
  "\u2581phushenas": 2572,
  "\u2581kerdiliape": 2573,
  "\u2581nakhela": 2574,
  "\u2581sikadiola": 2575,
  "\u2581shut": 2576,
  "\u2581kein": 2577,
  "\u2581gindilas": 2578,
  "\u2581nekezhis": 2579,
  "\u2581kerdionas": 2580,
  "And": 2581,
  "Anen": 2582,
  "\u2581zido": 2583,
  "\u2581adiese": 2584,
  "unt": 2585,
  "\u2581shor": 2586,
  "nie": 2587,
  "\u2581anas": 2588,
  "\u2581traiilas": 2589,
  "\u2581Dem": 2590,
  "\u2581kastar": 2591,
  "Mar": 2592,
  "lendar": 2593,
  "\u2581\u010dhas": 2594,
  "Naisi": 2595,
  "\u2581ade": 2596,
  "alol": 2597,
  "\u2581daden": 2598,
  "3)": 2599,
  "\u2581murdar": 2600,
  "uzo": 2601,
  "\u2581vuzhare": 2602,
  "\u2581pachaia": 2603,
  "\u2581vlad\u0148inela": 2604,
  "sardem": 2605,
  "olpe": 2606,
  "\u2581u\u0161ta": 2607,
  "\u2581luvudisar": 2608,
  "\u2581stat": 2609,
  "keren": 2610,
  "\u2581luvudila": 2611,
  "\u2581ban": 2612,
  "\u2581zhuvindi": 2613,
  "\u2581atsave": 2614,
  "\u2581primila": 2615,
  "ip": 2616,
  "\u2581bakro": 2617,
  "s\u0148e": 2618,
  "\u2581kh\u0103": 2619,
  "\u2581vaker": 2620,
  "\u2581zhutisar": 2621,
  "\u2581bariaren": 2622,
  "Besh": 2623,
  "Pate": 2624,
  "Antunchi": 2625,
  "Amar": 2626,
  "\u2581beshlia": 2627,
  "\u2581\u010dhib": 2628,
  "\u2581morchi": 2629,
  "\u2581aterdiar": 2630,
  "\u2581vazdin": 2631,
  "\u2581phand": 2632,
  "\u2581tradela": 2633,
  "\u2581boldia": 2634,
  "\u2581pharipe": 2635,
  "\u2581mishki": 2636,
  "\u2581Furt": 2637,
  "pokojis": 2638,
  "\u2581Cilicia": 2639,
  "\u2581Farisi": 2640,
  "\u2581Gretsia": 2641,
  "\u2581Jonah": 2642,
  "\u2581Joppa": 2643,
  "\u2581Magdalena": 2644,
  "\u2581Mesija\u0161is": 2645,
  "\u2581Syria": 2646,
  "\u2581Vuzh": 2647,
  "\u2581brazb": 2648,
  "\u2581bro\u017eura": 2649,
  "\u2581drozhda": 2650,
  "\u2581hulade": 2651,
  "\u2581jekhetane": 2652,
  "\u2581kara\u010do\u0148a": 2653,
  "\u2581literatura": 2654,
  "\u2581modlitba": 2655,
  "\u2581nuveria": 2656,
  "\u2581phu\u010den": 2657,
  "\u2581pisimen": 2658,
  "\u2581podaitori": 2659,
  "\u2581ramol": 2660,
  "\u2581shovardesh": 2661,
  "\u2581smutno": 2662,
  "\u2581s\u00eekaimahko": 2663,
  "\u2581vjera": 2664,
  "\u2581vladcas": 2665,
  "\u2581vojni": 2666,
  "\u2581vusharad": 2667,
  "\u2581xarkune": 2668,
  "pa\u0161eder": 2669,
  "\u2581Samaritan": 2670,
  "\u2581figi": 2671,
  "\u2581svato": 2672,
  "\u2581Bethani": 2673,
  "\u2581Tradia": 2674,
  "\u2581jileha": 2675,
  "\u2581musura": 2676,
  "\u2581phandavel": 2677,
  "\u2581wushten": 2678,
  "\u2581atsaimos": 2679,
  "\u2581talaz": 2680,
  "\u2581vurdon": 2681,
  "\u2581d\u017eives": 2682,
  "\u2581ajsi": 2683,
  "\u2581boldo": 2684,
  "\u2581Noach": 2685,
  "\u2581zhigene": 2686,
  "\u2581naswalimata": 2687,
  "\u2581pechime": 2688,
  "\u2581jilaben": 2689,
  "\u2581wushar": 2690,
  "\u2581ramon": 2691,
  "\u2581naisisardia": 2692,
  "\u2581chishai": 2693,
  "\u2581Davidoski": 2694,
  "\u2581dzilo": 2695,
  "\u2581zvestinel": 2696,
  "\u2581phandaven": 2697,
  "\u2581panvardesh": 2698,
  "\u2581posti": 2699,
  "ablos": 2700,
  "\u2581phuterdiol": 2701,
  "\u2581perli": 2702,
  "\u2581dandendar": 2703,
  "\u2581bustrel": 2704,
  "\u2581keisaile": 2705,
  "\u2581slu\u017einas": 2706,
  "\u2581Isak": 2707,
  "\u2581Phir": 2708,
  "\u2581acha\u013eol": 2709,
  "\u2581lepra": 2710,
  "\u2581dadengo": 2711,
  "\u2581darailo": 2712,
  "\u2581phabarde": 2713,
  "\u2581bustren": 2714,
  "\u2581Farizeanonge": 2715,
  "\u2581dichil": 2716,
  "\u2581sastri": 2717,
  "\u2581\u0161un\u010fa": 2718,
  "\u2581karfome": 2719,
  "\u2581posledn": 2720,
  "\u2581xasaile": 2721,
  "AL": 2722,
  "\u2581muto": 2723,
  "\u2581sakones": 2724,
  "\u2581pachamasa": 2725,
  "\u2581Ur": 2726,
  "\u2581chindia": 2727,
  "\u2581phanglimos": 2728,
  "\u2581bershengo": 2729,
  "\u2581avisailo": 2730,
  "\u2581vakeren": 2731,
  "\u013eol": 2732,
  "\u2581phanden": 2733,
  "\u2581kolin": 2734,
  "\u2581vortachen": 2735,
  "\u2581fundania": 2736,
  "\u2581Aresl": 2737,
  "\u2581lasharde": 2738,
  "\u2581patea": 2739,
  "\u2581themenge": 2740,
  "\u2581phurdelas": 2741,
  "\u2581Ananias": 2742,
  "\u2581bokh": 2743,
  "\u2581xolaile": 2744,
  "tinel": 2745,
  "\u2581Zhidovonsa": 2746,
  "\u2581dadeske": 2747,
  "\u2581Tri": 2748,
  "\u2581khangeriake": 2749,
  "\u2581avle": 2750,
  "\u2581getosarde": 2751,
  "\u2581Du": 2752,
  "\u2581barvalia": 2753,
  "\u2581prast": 2754,
  "\u2581vakeras": 2755,
  "\u2581dadesko": 2756,
  "\u2581chidelpe": 2757,
  "\u2581kerdiolape": 2758,
  "\u2581Elis": 2759,
  "\u2581tato": 2760,
  "\u2581diesesko": 2761,
  "\u2581profetongo": 2762,
  "\u2581SO": 2763,
  "\u2581rimonpe": 2764,
  "\u2581bolelas": 2765,
  "\u2581pasturi": 2766,
  "\u2581trobulsardia": 2767,
  "\u2581dab": 2768,
  "\u2581astardia": 2769,
  "\u2581jes": 2770,
  "\u2581shudine": 2771,
  "\u2581arakhenpe": 2772,
  "\u2581Nashti": 2773,
  "\u2581duxosa": 2774,
  "\u2581kritsini": 2775,
  "\u2581barilo": 2776,
  "\u2581mudares": 2777,
  "\u2581manu\u0161es": 2778,
  "\u2581chinuilas": 2779,
  "\u2581marela": 2780,
  "\u2581phires": 2781,
  "\u2581\u010fivesa": 2782,
  "\u2581shavenge": 2783,
  "\u2581skepisail": 2784,
  "\u2581rhaioske": 2785,
  "\u2581slabo": 2786,
  "\u2581han": 2787,
  "\u2581bariolas": 2788,
  "\u2581bichindia": 2789,
  "\u2581ashunav": 2790,
  "Kadal": 2791,
  "\u2581tromal": 2792,
  "\u2581ashundias": 2793,
  "\u2581skepi": 2794,
  "\u2581rhevdil": 2795,
  "Pe": 2796,
  "\u2581bino": 2797,
  "\u2581vuzharen": 2798,
  "\u2581zakonosko": 2799,
  "\u2581Savor": 2800,
  "\u2581groposard": 2801,
  "\u2581shubin": 2802,
  "\u2581chidelas": 2803,
  "\u2581Radui": 2804,
  "\u2581preznaisar": 2805,
  "\u2581Dikhle": 2806,
  "8)": 2807,
  "\u2581Paulos": 2808,
  "\u2581rimosar": 2809,
  "sos": 2810,
  "imp": 2811,
  "\u2581vurhitsi": 2812,
  "\u2581meklias": 2813,
  "\u2581zhuti": 2814,
  "amime": 2815,
  "Amen": 2816,
  "\u017eiv": 2817,
  "\u2581wu": 2818,
  "Av": 2819,
  "\u2581placha": 2820,
  "\u2581chinuisar": 2821,
  "\u2581suvi": 2822,
  "\u2581xaii": 2823,
  "Nashti": 2824,
  "F": 2825,
  "\u2581drab": 2826,
  "Khonik": 2827,
  "\u2581shinadi": 2828,
  "Ashunen": 2829,
  "\u2581sprav": 2830,
  "\u2581xasavon": 2831,
  "\u2581phuter": 2832,
  "\u2581a\u0148jel": 2833,
  "\u2581aresli": 2834,
  "\u2581jili": 2835,
  "\u2581phiri": 2836,
  "\u2581kud": 2837,
  "\u2581phutr": 2838,
  "\u2581\u013eiker": 2839,
  "\u2581perv": 2840,
  "\u2581lichar": 2841,
  "\u2581hulav": 2842,
  "\u2581ankalav": 2843,
  "\u2581ansuril": 2844,
  "\u2581raduima": 2845,
  "\u2581acha\u013e": 2846,
  "\u2581Lazar": 2847,
  "a\u0161ti": 2848,
  "\u2581zvest": 2849,
  "\u2581mo\u017eno": 2850,
  "priklad": 2851,
  "IJA": 2852,
  "r\u00e5bu": 2853,
  "\u00e1r\u00e1": 2854,
  "\u2581Alexander": 2855,
  "\u2581Apostle": 2856,
  "\u2581Athens": 2857,
  "\u2581Beelzebub": 2858,
  "\u2581Bethsaida": 2859,
  "\u2581Cyprus": 2860,
  "\u2581Cyren": 2861,
  "\u2581Galatia": 2862,
  "\u2581Iconium": 2863,
  "\u2581Traioski": 2864,
  "\u2581aterdiol": 2865,
  "\u2581bandilo": 2866,
  "\u2581chinuiv": 2867,
  "\u2581demonenca": 2868,
  "\u2581figenge": 2869,
  "\u2581glasuria": 2870,
  "\u2581go\u010faver": 2871,
  "\u2581gropa": 2872,
  "\u2581halome": 2873,
  "\u2581kamaraten": 2874,
  "\u2581kapitano": 2875,
  "\u2581klamine": 2876,
  "\u2581lunzhardia": 2877,
  "\u2581neksigeder": 2878,
  "\u2581ningeren": 2879,
  "\u2581organizacija": 2880,
  "\u2581rhivdil": 2881,
  "\u2581skepitores": 2882,
  "\u2581trapin": 2883,
  "\u2581veli\u0165e\u013eis": 2884,
  "\u2581zahrada": 2885,
  "\u2581zhroma\u017e\u010fe\u0148a": 2886,
  "\u2581Simeon": 2887,
  "\u2581amboldia": 2888,
  "\u2581haliares": 2889,
  "\u2581nasva\u013eiben": 2890,
  "\u2581parhudil": 2891,
  "\u2581be\u0161el": 2892,
  "\u2581chaben": 2893,
  "\u2581chachimaski": 2894,
  "mpuria": 2895,
  "\u2581genen": 2896,
  "\u2581podain": 2897,
  "\u2581a\u010dhile": 2898,
  "\u2581dilimos": 2899,
  "\u2581ko\u00e8e": 2900,
  "\u2581duvar": 2901,
  "\u2581genel": 2902,
  "\u2581nekbareder": 2903,
  "\u2581phares": 2904,
  "\u2581maslineng": 2905,
  "heiorhi": 2906,
  ":4)": 2907,
  "\u2581liono": 2908,
  "Mishto": 2909,
  "\u2581ashundili": 2910,
  "\u2581phaka": 2911,
  "\u2581Troas": 2912,
  "\u2581racha": 2913,
  "\u2581zname\u0148inel": 2914,
  "\u2581Rode": 2915,
  "\u2581merimos": 2916,
  "\u2581aresel": 2917,
  "\u2581genas": 2918,
  "\u2581Plai": 2919,
  "\u2581swuntsi": 2920,
  "\u2581nashle": 2921,
  "\u2581s\u013eubin\u010fa": 2922,
  "\u2581sastile": 2923,
  "\u2581parha": 2924,
  "\u2581proroctvos": 2925,
  "\u2581het": 2926,
  "\u2581Nathan": 2927,
  "\u2581papucha": 2928,
  "\u2581kamau": 2929,
  "\u2581korhen": 2930,
  "\u2581sigeder": 2931,
  "\u2581chudin": 2932,
  "\u2581o\u00e8e": 2933,
  "\u2581swuntsosardia": 2934,
  "hrjechos": 2935,
  "\u2581s\u00eeteo": 2936,
  "\u2581chra\u0148inel": 2937,
  "\u2581Zion": 2938,
  "Manushale": 2939,
  "\u2581Pa\u0165a": 2940,
  "\u2581bushon": 2941,
  "\u2581devlenge": 2942,
  "Po": 2943,
  "\u2581iakhensa": 2944,
  "Iza": 2945,
  "\u2581acha\u013eon": 2946,
  "\u2581sastili": 2947,
  "liarel": 2948,
  "\u2581Skepitori": 2949,
  "\u2581governori": 2950,
  "\u2581luvudimasko": 2951,
  "\u2581nashel": 2952,
  "\u2581iertisardia": 2953,
  "\u2581\u010dhavenca": 2954,
  "\u2581odmukhel": 2955,
  "\u2581londo": 2956,
  "\u2581dand": 2957,
  "\u2581mod\u013einen": 2958,
  "\u2581dadenge": 2959,
  "\u2581sprind\u017earel": 2960,
  "\u2581masho": 2961,
  "\u2581chacharel": 2962,
  "\u2581rom\u0148ake": 2963,
  "\u2581kra\u013eiske": 2964,
  "antsi": 2965,
  "\u2581\u00e8e": 2966,
  "\u2581suno": 2967,
  "\u2581pharhavel": 2968,
  "\u2581bango": 2969,
  "\u2581\u0161unes": 2970,
  "\u2581phirdia": 2971,
  "\u2581hulavel": 2972,
  "\u2581alestar": 2973,
  "\u2581pherdilo": 2974,
  "\u2581bariardia": 2975,
  "\u2581unen": 2976,
  "\u2581boldiape": 2977,
  "\u2581phagen": 2978,
  "\u2581Thi": 2979,
  "\u2581proroctva": 2980,
  "ashkar": 2981,
  "\u2581chorimos": 2982,
  "\u2581sastiaren": 2983,
  "\u2581svetoske": 2984,
  "\u2581profeti": 2985,
  "\u2581slugensa": 2986,
  "\u2581solaxa": 2987,
  "\u2581fame\u013eijaha": 2988,
  "\u2581themeske": 2989,
  "\u2581Savi": 2990,
  "\u2581slu\u017eob\u0148ika": 2991,
  "\u2581iertimele": 2992,
  "\u2581sluga\u010fa": 2993,
  "\u2581zharo": 2994,
  "\u2581shinadiasas": 2995,
  "\u2581astarel": 2996,
  "\u2581radisa\u013eon": 2997,
  "\u2581Kamelas": 2998,
  "\u2581rhavdasa": 2999,
  "\u2581nabo\u017eenstva": 3000,
  "\u2581manusheski": 3001,
  "\u2581Shavesko": 3002,
  "\u2581shibasa": 3003,
  "\u2581Phenenas": 3004,
  "\u2581zhuvliako": 3005,
  "area": 3006,
  "\u2581izdraia": 3007,
  "\u2581shil": 3008,
  "\u2581\u010dhiba": 3009,
  "\u2581a\u010dh": 3010,
  "\u2581nek": 3011,
  "\u2581manglemas": 3012,
  "\u2581pachako": 3013,
  "\u2581zakonoske": 3014,
  "\u2581sastren": 3015,
  "\u2581kuch": 3016,
  "\u2581mardia": 3017,
  "\u2581azhukerenas": 3018,
  "\u2581kres\u0165ana": 3019,
  "\u2581tromail": 3020,
  "\u2581zhungales": 3021,
  "\u2581bariarenas": 3022,
  "\u2581glasosa": 3023,
  "\u2581marav": 3024,
  "\u2581chudel": 3025,
  "\u2581maj": 3026,
  "\u2581\u0148isav": 3027,
  "\u2581Vaker": 3028,
  "\u2581kh\u0103r": 3029,
  "\u2581wuch": 3030,
  "\u2581Kar": 3031,
  "\u2581shubisail": 3032,
  ":14": 3033,
  "okim": 3034,
  "Lash": 3035,
  "\u00e5r\u00e5": 3036,
  "\u2581griatsa": 3037,
  "\u2581Mangen": 3038,
  "\u2581marelas": 3039,
  "DO": 3040,
  "\u2581vurhitsin": 3041,
  "\u2581preznai": 3042,
  "\u2581abiavesk": 3043,
  "\u2581vuria": 3044,
  "\u2581gelia": 3045,
  "zori": 3046,
  "\u2581Paul": 3047,
  "\u2581manu\u0161enger": 3048,
  "chardo": 3049,
  "\u2581astar": 3050,
  "\u2581bakr": 3051,
  "alon": 3052,
  "\u2581d\u017eid": 3053,
  "\u2581anker": 3054,
  "\u2581Adamosk": 3055,
  "Per": 3056,
  "\u2581shord": 3057,
  "\u2581troma": 3058,
  "haj": 3059,
  "ahosko": 3060,
  "\u2581zid": 3061,
  "\u2581Mange": 3062,
  "\u2581Zhid": 3063,
  "\u2581pastux": 3064,
  "R": 3065,
  "H": 3066,
  "fielo": 3067,
  "\u2581pher": 3068,
  "Dikhes": 3069,
  "\u2581Timotej": 3070,
  "\u2581varesav": 3071,
  "\u2581zhutis": 3072,
  "\u2581fiel": 3073,
  "\u2581premisar": 3074,
  "\u2581bichinen": 3075,
  "\u2581pisin": 3076,
  "isailian": 3077,
  "\u2581Pomo\u017ein": 3078,
  "\u2581xul": 3079,
  "\u2581pharipen": 3080,
  "\u2581Greko": 3081,
  "\u2581niris": 3082,
  "\u2581u\u010de\u0148ik": 3083,
  "\u2581nachinai": 3084,
  "\u010di\u0165e": 3085,
  "\u2581cikno": 3086,
  "\u2581kashuke": 3087,
  "Jakub": 3088,
  "Vushti": 3089,
  "Wushten": 3090,
  "azhainona": 3091,
  "pokrs\u0165inel": 3092,
  "ulberia": 3093,
  "\u2581Anklist": 3094,
  "\u2581Garav": 3095,
  "\u2581Laodicea": 3096,
  "\u2581Nev": 3097,
  "\u2581Phu\u010d": 3098,
  "\u2581Priscilla": 3099,
  "\u2581aresena": 3100,
  "\u2581asuensa": 3101,
  "\u2581bachtalo": 3102,
  "\u2581boldinisailo": 3103,
  "\u2581budinel": 3104,
  "\u2581chidinisailo": 3105,
  "\u2581chunuria": 3106,
  "\u2581dokonalo": 3107,
  "\u2581do\u013eikere": 3108,
  "\u2581duchovn": 3109,
  "\u2581dvole\u017eito": 3110,
  "\u2581figengi": 3111,
  "\u2581gemula": 3112,
  "\u2581glati": 3113,
  "\u2581greposhevuria": 3114,
  "\u2581guruv": 3115,
  "\u2581haliarimos": 3116,
  "\u2581klishki": 3117,
  "\u2581k\u0148i\u017e\u0148ica": 3118,
  "\u2581luluji": 3119,
  "\u2581masharia": 3120,
  "\u2581moxton": 3121,
  "\u2581nekezhil": 3122,
  "\u2581odva\u017eno": 3123,
  "\u2581pamphuri": 3124,
  "\u2581parhude": 3125,
  "\u2581pashliol": 3126,
  "\u2581prind\u017earen": 3127,
  "\u2581prinzharen": 3128,
  "\u2581putieri": 3129,
  "\u2581rhindo": 3130,
  "\u2581slu\u017eba": 3131,
  "\u2581strefaimos": 3132,
  "\u2581sulfer": 3133,
  "\u2581sumnakasa": 3134,
  "\u2581tristo": 3135,
  "\u2581trpezliv": 3136,
  "\u2581varekas": 3137,
  "\u2581vushalin": 3138,
  "\u2581vusharave": 3139,
  "\u2581\u010dasopisi": 3140,
  "\u2581\u0148ebesk": 3141,
  "Hosana": 3142,
  "uguro": 3143,
  "\u2581Cephas": 3144,
  "\u2581bokhailo": 3145,
  "\u2581cho\u013eamen": 3146,
  "\u2581dokxt": 3147,
  "\u2581khashtensa": 3148,
  "\u2581rroma": 3149,
  "\u2581star\u0161i": 3150,
  "\u2581ansurisailo": 3151,
  "\u2581avjin": 3152,
  "\u2581khan\u00e8i": 3153,
  "\u2581milij": 3154,
  "\u2581numero": 3155,
  "\u2581od\u010dhivel": 3156,
  "\u2581peravel": 3157,
  "\u2581potopa": 3158,
  "\u2581saikfialo": 3159,
  "\u2581Psalm": 3160,
  "\u2581du\u0161a": 3161,
  "\u2581vitselo": 3162,
  "\u2581solaxadias": 3163,
  "\u2581priklados": 3164,
  "org": 3165,
  "\u2581stakla": 3166,
  "\u2581Abel": 3167,
  "\u2581pozno": 3168,
  "\u2581stanos": 3169,
  "\u2581luvudisavas": 3170,
  "\u2581lashimasko": 3171,
  "\u2581vushtilo": 3172,
  "stvo": 3173,
  "\u2581tasade": 3174,
  "\u2581Kristus": 3175,
  "\u2581cheresko": 3176,
  "\u2581serel": 3177,
  "\u2581vazdav": 3178,
  "\u2581vuriardo": 3179,
  "\u2581betel": 3180,
  "\u2581sastion": 3181,
  "\u2581tuk\u00e5": 3182,
  "\u2581zhutitori": 3183,
  "\u2581zurali": 3184,
  "\u2581Sinai": 3185,
  "\u2581maladiol": 3186,
  "\u2581aresas": 3187,
  "\u2581\u0148isostar": 3188,
  "\u2581shuchil": 3189,
  "\u2581zjazdos": 3190,
  "\u2581chudinaspe": 3191,
  "\u2581nachinaisardia": 3192,
  "\u2581naroduria": 3193,
  "\u2581Mothol": 3194,
  "\u2581She": 3195,
  "\u2581sikh\u013eol": 3196,
  "\u2581sikado": 3197,
  "\u2581kasavi": 3198,
  "\u2581vi\u010dinelas": 3199,
  "\u2581traiisarde": 3200,
  "\u2581v\u0161": 3201,
  "lijak": 3202,
  "Adies": 3203,
  "ER": 3204,
  "\u2581dukhado": 3205,
  "\u2581sakra": 3206,
  "\u2581chungarde": 3207,
  "\u2581ansurinpe": 3208,
  "\u2581Eden": 3209,
  "\u2581sung": 3210,
  "\u2581Mart": 3211,
  "\u2581sera": 3212,
  "\u2581xaladia": 3213,
  "\u2581thud": 3214,
  "\u2581Filiposke": 3215,
  "\u2581bararen": 3216,
  "\u2581kanchesko": 3217,
  "\u2581bush": 3218,
  "poji": 3219,
  "\u2581xasardo": 3220,
  "\u2581hulaven": 3221,
  "\u2581wushtili": 3222,
  "\u2581Hai": 3223,
  "\u2581phend\u017eas": 3224,
  "\u2581Petreske": 3225,
  "\u2581shuri": 3226,
  "\u2581romeske": 3227,
  "\u2581manu\u0161eske": 3228,
  "\u2581alosardem": 3229,
  "\u2581spidia": 3230,
  "\u2581themesko": 3231,
  "\u2581bakriorhe": 3232,
  "chudena": 3233,
  "\u2581keinpe": 3234,
  "\u2581bariarde": 3235,
  "\u2581barimatango": 3236,
  "\u2581zhuvliansa": 3237,
  "IK": 3238,
  "\u2581Bakriorhoski": 3239,
  "\u2581ratesa": 3240,
  "\u2581Abi": 3241,
  "\u2581Kamel": 3242,
  "\u2581paiesko": 3243,
  "\u2581katka": 3244,
  "\u2581punrhensa": 3245,
  "\u2581Petr": 3246,
  "\u2581\u013eikerel": 3247,
  "\u2581shinave": 3248,
  "\u2581phurenge": 3249,
  "\u2581lovensa": 3250,
  "\u2581Phil": 3251,
  "\u2581Timotejo": 3252,
  "\u2581Josefosko": 3253,
  "\u2581Dine": 3254,
  "tiva": 3255,
  "\u2581bichin": 3256,
  "\u2581mang\u00e5": 3257,
  "\u2581xalade": 3258,
  "\u2581bezexalenge": 3259,
  "\u2581purhisar": 3260,
  "\u2581pa\u010dinel": 3261,
  "anoske": 3262,
  "\u2581Cain": 3263,
  "\u2581\u013eid\u017eal": 3264,
  "\u2581loli": 3265,
  "\u2581zachra\u0148in": 3266,
  "\u2581dau": 3267,
  "\u2581mulenge": 3268,
  "\u2581shavensa": 3269,
  "\u2581arakhes": 3270,
  "\u2581Manglema": 3271,
  "Bari": 3272,
  "DA": 3273,
  "\u2581Meklia": 3274,
  "D\u017ea": 3275,
  "\u2581buchari": 3276,
  "\u2581Ramo": 3277,
  "\u2581prost": 3278,
  "\u2581astardio": 3279,
  "\u2581niamon": 3280,
  "ingeras": 3281,
  "\u2581luvudisardem": 3282,
  "hov": 3283,
  "\u2581zhutisarde": 3284,
  "\u2581rhevdi": 3285,
  "\u2581xasare": 3286,
  "ndro": 3287,
  "\u2581Ru": 3288,
  "Dav": 3289,
  "\u2581ankerde": 3290,
  "\u2581nasulimask": 3291,
  "\u2581murshesk": 3292,
  "\u2581dukhavel": 3293,
  "Avel": 3294,
  "sea": 3295,
  "\u2581beshli": 3296,
  "\u2581iagak": 3297,
  "\u2581\u010dha": 3298,
  "\u2581ambolde": 3299,
  "\u2581kh\u00e5l": 3300,
  "\u0148": 3301,
  "Mila": 3302,
  "\u2581purhi": 3303,
  "\u2581Joseph": 3304,
  "Dikhlia": 3305,
  "\u2581solax": 3306,
  "\u2581xoliar": 3307,
  "\u2581mot": 3308,
  "\u2581niamo": 3309,
  "dinesas": 3310,
  "\u2581bi\u010dha": 3311,
  "\u2581Dux": 3312,
  "vaha": 3313,
  "Saul": 3314,
  "Swako": 3315,
  "Simon": 3316,
  "Apo": 3317,
  "\u2581\u013eid\u017ea": 3318,
  "\u2581Cai": 3319,
  "lavel": 3320,
  "riat": 3321,
  "\u2581nabo\u017eenstv": 3322,
  "\u2581Romanong": 3323,
  "\u2581gonisard": 3324,
  "\u2581phurdel": 3325,
  "\u2581khanch": 3326,
  "\u2581alosarde": 3327,
  "\u2581raduil": 3328,
  "\u2581luvudimas": 3329,
  "\u2581devle": 3330,
  "\u2581amperets": 3331,
  "\u2581chikhat": 3332,
  "igeder": 3333,
  "\u2581zhigan": 3334,
  "\u2581D\u017ean": 3335,
  "\u2581plaiin": 3336,
  "sikh\u013eo": 3337,
  "\u2581ankli": 3338,
  "efial": 3339,
  "lishka": 3340,
  "\u2581Bachtal": 3341,
  "\u2581zheg": 3342,
  "\u2581Izrael": 3343,
  "\u2581bo\u013eip": 3344,
  "\u2581klami\u0161ag": 3345,
  ":13": 3346,
  "araxoduria": 3347,
  "pugnia": 3348,
  "redstavin": 3349,
  "unuch": 3350,
  "\u25811914": 3351,
  "\u2581Alphaeusosko": 3352,
  "\u2581Bethany": 3353,
  "\u2581Bichin": 3354,
  "\u2581Crete": 3355,
  "\u2581Elijezer": 3356,
  "\u2581Gaius": 3357,
  "\u2581Gindi": 3358,
  "\u2581Gomorrah": 3359,
  "\u2581Iagaki": 3360,
  "\u2581Izaja\u0161": 3361,
  "\u2581James": 3362,
  "\u2581Maslineng": 3363,
  "\u2581Nicodemus": 3364,
  "\u2581Premi\u0161\u013ein": 3365,
  "\u2581Tarsus": 3366,
  "\u2581Thessalonica": 3367,
  "\u2581Westo": 3368,
  "\u2581Zebedeske": 3369,
  "\u2581aterdile": 3370,
  "\u2581aterdios": 3371,
  "\u2581chailile": 3372,
  "\u2581dar\u010dekos": 3373,
  "\u2581drozhde": 3374,
  "\u2581dzeka": 3375,
  "\u2581d\u017eivipna": 3376,
  "\u2581galbano": 3377,
  "\u2581garchitsaki": 3378,
  "\u2581garuv": 3379,
  "\u2581gi\u013eav": 3380,
  "\u2581goniv": 3381,
  "\u2581gulumbo": 3382,
  "\u2581haliaras": 3383,
  "\u2581koltsuria": 3384,
  "\u2581kovlimos": 3385,
  "\u2581k\u0103r\u0103": 3386,
  "\u2581lampi": 3387,
  "\u2581lunzhi": 3388,
  "\u2581masleneng": 3389,
  "\u2581miazutso": 3390,
  "\u2581niamuria": 3391,
  "\u2581pobo\u010dk": 3392,
  "\u2581politika": 3393,
  "\u2581pomocn": 3394,
  "\u2581pred\u017eiven": 3395,
  "\u2581raduisailo": 3396,
  "\u2581respektil": 3397,
  "\u2581rhuzhin": 3398,
  "\u2581shodeni": 3399,
  "\u2581shtala": 3400,
  "\u2581skepimasko": 3401,
  "\u2581ubli\u017einel": 3402,
  "\u2581u\u017eitkos": 3403,
  "\u2581veselo": 3404,
  "\u2581vladi": 3405,
  "\u2581zachra\u0148imen": 3406,
  "\u2581zad\u017eive": 3407,
  "\u2581zholin": 3408,
  "\u2581zhonis": 3409,
  "\u2581zme\u0148inel": 3410,
  "ATO": 3411,
  "Hebrej": 3412,
  "elders": 3413,
  "\u2581Rebeka": 3414,
  "\u2581Swuntsom": 3415,
  "\u2581Tyre": 3416,
  "\u2581gojavren": 3417,
  "\u2581naisimaske": 3418,
  "\u2581pijel": 3419,
  "\u2581podpori": 3420,
  "\u2581svedken": 3421,
  "\u2581terdilo": 3422,
  "\u2581vi\u0161vet\u013ein": 3423,
  "\u2581xulavel": 3424,
  "Daniel": 3425,
  "\u2581s\u00eekaimos": 3426,
  "\u2581\u013eil": 3427,
  "\u2581Bibl": 3428,
  "\u2581rupune": 3429,
  "\u2581ankles": 3430,
  "\u2581sikadili": 3431,
  "\u2581Perga": 3432,
  "\u2581ashili": 3433,
  "\u2581chachimasko": 3434,
  "\u2581upre": 3435,
  "\u2581ve\u017ea": 3436,
  "\u2581sarancha": 3437,
  "\u2581pokorn": 3438,
  "\u2581prachos": 3439,
  "\u2581zhegani": 3440,
  "\u2581Aaron": 3441,
  "\u2581ikona": 3442,
  "\u2581ninker": 3443,
  "\u2581Jason": 3444,
  "\u2581bister": 3445,
  "\u2581genes": 3446,
  "\u2581tseri": 3447,
  "\u2581malaven": 3448,
  "\u2581chereske": 3449,
  "\u2581pashon": 3450,
  "\u2581apsa": 3451,
  "\u2581\u00e8easo": 3452,
  "\u2581getolape": 3453,
  "mult": 3454,
  "\u2581parni": 3455,
  "\u2581ashen": 3456,
  "\u2581phandadia": 3457,
  "\u2581rezako": 3458,
  "\u2581pa\u010div": 3459,
  "\u2581dukhade": 3460,
  "\u2581Premi": 3461,
  "\u2581nirisaras": 3462,
  "\u2581xoliale": 3463,
  "\u2581vudar": 3464,
  "\u2581Je\u017ei\u0161ostar": 3465,
  "\u2581vurm": 3466,
  "\u2581sikaimos": 3467,
  "krst": 3468,
  "\u2581asua": 3469,
  "\u2581arakhadile": 3470,
  "\u2581mishtimata": 3471,
  "\u2581s\u013eubinel": 3472,
  "\u2581Devleskre": 3473,
  "\u2581ZH": 3474,
  "Phrala": 3475,
  "\u2581Jekhvar": 3476,
  "\u2581Diana": 3477,
  "\u2581mishtimasa": 3478,
  "\u2581butiol": 3479,
  "\u2581Akor": 3480,
  "\u2581karfosardian": 3481,
  "\u2581xalavel": 3482,
  "\u2581vulitsi": 3483,
  "\u2581bi\u010dha\u010fa": 3484,
  "\u2581zoralo": 3485,
  "\u2581slu\u017eob\u0148ikos": 3486,
  "\u2581Herodias": 3487,
  "\u2581eriate": 3488,
  "\u2581pachanape": 3489,
  "\u2581Canaan": 3490,
  "\u2581Jekh": 3491,
  "\u2581rovelas": 3492,
  "\u2581zhuvindime": 3493,
  "\u2581buntuilpe": 3494,
  "\u2581kancheste": 3495,
  "\u2581ziduria": 3496,
  "\u2581piias": 3497,
  "\u2581Martia": 3498,
  "\u2581odde": 3499,
  "\u2581vzburinde": 3500,
  "\u2581zachra\u0148inel": 3501,
  "\u2581podaisardia": 3502,
  "\u2581rom\u0148ija": 3503,
  "\u2581Thode": 3504,
  "\u2581azhukerimos": 3505,
  "\u2581sakoneske": 3506,
  "\u2581palmi": 3507,
  "\u2581swuntsomos": 3508,
  "\u017eba": 3509,
  "\u2581avrenca": 3510,
  "\u2581doshares": 3511,
  "Pochin": 3512,
  "\u2581dikhimos": 3513,
  "\u2581lashardo": 3514,
  "\u2581phaglo": 3515,
  "\u2581bashlo": 3516,
  "\u2581atsadi": 3517,
  "rakhadiol": 3518,
  "\u2581kanikaste": 3519,
  "\u2581nashtisaras": 3520,
  "\u2581a\u010dhen": 3521,
  "\u2581raduilpe": 3522,
  "udinen": 3523,
  "\u2581balensa": 3524,
  "\u2581lovenca": 3525,
  "\u2581Je\u017ei\u0161oha": 3526,
  "\u2581bengeski": 3527,
  "\u2581i\u013ea": 3528,
  "\u2581chetai": 3529,
  "\u2581bezexengo": 3530,
  "\u2581Simonoske": 3531,
  "\u00e5r": 3532,
  "\u2581phraleski": 3533,
  "\u2581\u00e8iro": 3534,
  "Raduisavo": 3535,
  "uila": 3536,
  "\u2581kox": 3537,
  "\u2581Bakriorhosko": 3538,
  "Ramome": 3539,
  "\u2581vortakoske": 3540,
  "slu\u017eines": 3541,
  "\u2581zvjerat": 3542,
  "\u2581licharel": 3543,
  "MP": 3544,
  "\u2581di\u010dhol": 3545,
  "\u2581D\u017ei": 3546,
  "\u2581sikade": 3547,
  "\u2581Kerdia": 3548,
  "\u2581phandel": 3549,
  "\u2581chumidia": 3550,
  "\u2581kidel": 3551,
  "ervo": 3552,
  "\u2581bakrore": 3553,
  "\u2581lasharav": 3554,
  "\u2581arakhad": 3555,
  "\u2581Mich": 3556,
  "\u2581tr": 3557,
  "\u2581\u0161tudin": 3558,
  "\u2581iertiv": 3559,
  "\u2581Judahosk": 3560,
  "30": 3561,
  "\u2581dashtisard": 3562,
  "\u2581podaisar": 3563,
  "\u2581vulist": 3564,
  "\u2581u\u0161tad": 3565,
  "\u2581iertisar": 3566,
  "\u017einel": 3567,
  "erti": 3568,
  "\u2581barar": 3569,
  "\u2581prea\u010dh": 3570,
  "\u0161unde": 3571,
  "\u2581inkerdio": 3572,
  "\u2581korh": 3573,
  "Kote": 3574,
  "\u2581scird": 3575,
  "\u2581Josefosk": 3576,
  "na\u017ein": 3577,
  "\u2581chra\u0148in": 3578,
  "\u2581podais": 3579,
  "\u2581Ramosar": 3580,
  "mukhel": 3581,
  "\u2581hami": 3582,
  "\u2581Judah": 3583,
  "\u2581slab": 3584,
  "pral": 3585,
  "\u2581moros": 3586,
  "\u2581mod\u013ein": 3587,
  "xoxamlo": 3588,
  "(": 3589,
  "Jesus": 3590,
  "Shav": 3591,
  "Pala": 3592,
  "rhai": 3593,
  "\u2581trai": 3594,
  "\u2581Vorb": 3595,
  "\u2581vort": 3596,
  "\u2581num": 3597,
  "\u2581xolail": 3598,
  "\u2581amboldinisail": 3599,
  "\u2581divinil": 3600,
  "\u2581vaz": 3601,
  "\u2581tsipin": 3602,
  "\u2581zboro": 3603,
  "\u2581pharhave": 3604,
  "\u2581parhuv": 3605,
  "\u2581presikave": 3606,
  "\u2581chachar": 3607,
  "\u2581pa\u010din": 3608,
  "\u2581Cana": 3609,
  "\u2581Farizeano": 3610,
  "\u2581apostlo": 3611,
  "hrjech": 3612,
  "\u2581Shud": 3613,
  "\u2581Kris": 3614,
  "\u2581lantso": 3615,
  "\u2581divin": 3616,
  "Phush": 3617,
  "reznaisar": 3618,
  "a\u010dipen": 3619,
  "unzhe": 3620,
  "\u2581guvern": 3621,
  "\u2581Grebi": 3622,
  "\u2581rhespi": 3623,
  "\u2581Claudi": 3624,
  "\u258128": 3625,
  "\u2581dobrovo\u013e": 3626,
  "Messiah": 3627,
  "Respekti": 3628,
  "Zacchaeus": 3629,
  "d\u017ei\u010fi\u013ea": 3630,
  "zoraleder": 3631,
  "\u258122)": 3632,
  "\u25816:9": 3633,
  "\u2581Aristarchus": 3634,
  "\u2581Babilon": 3635,
  "\u2581Balaam": 3636,
  "\u2581Benjamin": 3637,
  "\u2581Berea": 3638,
  "\u2581Derbe": 3639,
  "\u2581Gadarenes": 3640,
  "\u2581Golijat": 3641,
  "\u2581Lystra": 3642,
  "\u2581Mod\u013ein": 3643,
  "\u2581PHEN": 3644,
  "\u2581Phuter": 3645,
  "\u2581Swuntson": 3646,
  "\u2581Thesalonika": 3647,
  "\u2581Tychicus": 3648,
  "\u2581Zebedoske": 3649,
  "\u2581ajuk\u00e5r": 3650,
  "\u2581amblad": 3651,
  "\u2581aterdilo": 3652,
  "\u2581cherniol": 3653,
  "\u2581chinuimata": 3654,
  "\u2581dielensa": 3655,
  "\u2581dokon\u010dinel": 3656,
  "\u2581domukh\u013ea": 3657,
  "\u2581fame\u013eijen": 3658,
  "\u2581forestar": 3659,
  "\u2581go\u010faha": 3660,
  "\u2581hodina": 3661,
  "\u2581huriarvel": 3662,
  "\u2581jilabav": 3663,
  "\u2581kaplitsi": 3664,
  "\u2581kheldia": 3665,
  "\u2581miazutsi": 3666,
  "\u2581morchaki": 3667,
  "\u2581nekazuria": 3668,
  "\u2581nekbuter": 3669,
  "\u2581ningerel": 3670,
  "\u2581nirimos": 3671,
  "\u2581oslobodzinel": 3672,
  "\u2581parhudiol": 3673,
  "\u2581pindre": 3674,
  "\u2581poronchis": 3675,
  "\u2581pravi\u010fel\u0148e": 3676,
  "\u2581preferato": 3677,
  "\u2581prikazinel": 3678,
  "\u2581problemos": 3679,
  "\u2581raduisav": 3680,
  "\u2581raduiv": 3681,
  "\u2581raxamaki": 3682,
  "\u2581rhimi": 3683,
  "\u2581rhunjito": 3684,
  "\u2581shkonits": 3685,
  "\u2581sphande": 3686,
  "\u2581spl\u0148inde": 3687,
  "\u2581spuma": 3688,
  "\u2581stvorimen": 3689,
  "\u2581sumnakun": 3690,
  "\u2581trankilo": 3691,
  "\u2581tuturazi": 3692,
  "\u2581u\u013eahas": 3693,
  "\u2581u\u0161\u0165en": 3694,
  "\u2581veselinpe": 3695,
  "\u2581vushtiavav": 3696,
  "\u2581webov": 3697,
  "\u2581zanavesk": 3698,
  "\u2581zbori": 3699,
  "\u2581zhonin": 3700,
  "\u2581zumaimata": 3701,
  "\u2581z\u0148i\u010dinel": 3702,
  "\u2581\u013eudo": 3703,
  "unzhar": 3704,
  "\u2581Italia": 3705,
  "\u2581Jakov": 3706,
  "\u2581chuchi": 3707,
  "\u2581ciknorestar": 3708,
  "\u2581davkerel": 3709,
  "\u2581gretsosard": 3710,
  "\u2581huriardo": 3711,
  "\u2581miliwo": 3712,
  "\u2581nipi": 3713,
  "\u2581prashav": 3714,
  "\u2581sakrifikat": 3715,
  "\u2581sku\u0161in": 3716,
  "\u2581spravodlivo": 3717,
  "\u2581tsign": 3718,
  "\u2581vuluisard": 3719,
  "\u2581\u0161ero": 3720,
  "\u2581\u017ea\u013ea": 3721,
  "Riman": 3722,
  "\u258127": 3723,
  "\u2581Beth": 3724,
  "\u2581busterd": 3725,
  "\u2581fundo": 3726,
  "\u2581phabaren": 3727,
  "\u2581phoria": 3728,
  "\u2581reat": 3729,
  "\u2581ro\u010fi": 3730,
  "\u2581skurtiarde": 3731,
  "\u2581Paluno": 3732,
  "\u2581chernil": 3733,
  "\u2581phe\u0148a": 3734,
  "Efez": 3735,
  "\u2581Mattha": 3736,
  "\u2581babits": 3737,
  "\u2581be\u0161en": 3738,
  "\u2581tsirdin": 3739,
  "\u2581tsulo": 3740,
  "\u2581zurailo": 3741,
  "\u2581Jesse": 3742,
  "\u2581Philippi": 3743,
  "\u2581shinaimata": 3744,
  "\u2581Iertisar": 3745,
  "\u2581papucheng": 3746,
  "\u2581\u010dhavoreske": 3747,
  "ghes": 3748,
  "\u2581Salmon": 3749,
  "\u2581Zumav": 3750,
  "\u2581teksti": 3751,
  "\u2581Pa\u010das": 3752,
  "\u2581pozoris": 3753,
  "\u2581zhanglo": 3754,
  "d\u017eaha": 3755,
  "\u2581hlasos": 3756,
  "\u2581Phushav": 3757,
  "\u2581skut": 3758,
  "\u2581Zhidovongi": 3759,
  "\u2581slava": 3760,
  "\u2581vzkrjesinel": 3761,
  "\u2581Lot": 3762,
  "\u2581aterdili": 3763,
  "\u2581do\u013eikeras": 3764,
  "\u2581raduilape": 3765,
  "\u2581peklos": 3766,
  "polis": 3767,
  "\u2581kokola": 3768,
  "\u2581Iame": 3769,
  "\u2581tsod": 3770,
  "\u2581meriti": 3771,
  "\u2581Zhutitori": 3772,
  "\u2581skus": 3773,
  "\u2581pusav": 3774,
  "ompani": 3775,
  "\u2581obeti": 3776,
  "\u2581phirade": 3777,
  "\u2581korona": 3778,
  "\u2581zorales": 3779,
  "\u2581pashua": 3780,
  "\u2581pa\u010dan": 3781,
  "\u2581svjatki": 3782,
  "\u2581Chinui": 3783,
  "\u2581tsan": 3784,
  "\u2581jeli": 3785,
  "hosela": 3786,
  "\u2581pripravinel": 3787,
  "\u2581\u0148espravodliv": 3788,
  "\u2581d\u017eivaha": 3789,
  "\u2581ista": 3790,
  "\u2581Esaia": 3791,
  "\u2581Iakovoski": 3792,
  "\u2581malado": 3793,
  "Kudo": 3794,
  "\u2581\u0161uneha": 3795,
  "\u2581Annas": 3796,
  "\u2581Izak": 3797,
  "\u2581tsava": 3798,
  "\u2581\u010dhid": 3799,
  "\u2581cho\u013eare": 3800,
  "\u2581Achai": 3801,
  "\u2581aresav": 3802,
  "\u2581memeli": 3803,
  "\u2581zhiganesko": 3804,
  "\u2581iekavres": 3805,
  "\u2581na\u0161ti": 3806,
  "\u2581chidimos": 3807,
  "\u2581nekezhisardia": 3808,
  "\u2581Esau": 3809,
  "rigi": 3810,
  "\u2581barzha": 3811,
  "\u2581Enoch": 3812,
  "\u2581pechil": 3813,
  "\u2581duriare": 3814,
  "Ashundiam": 3815,
  "AR": 3816,
  "\u2581odcirdel": 3817,
  "\u2581u\u010de\u0148ikenge": 3818,
  "\u2581chikake": 3819,
  "\u2581izdraimasa": 3820,
  "\u2581pisin\u010fa": 3821,
  "\u2581rhugimasko": 3822,
  "ashilo": 3823,
  "\u2581moste": 3824,
  "\u2581muliam": 3825,
  "\u2581baba": 3826,
  "\u2581zea": 3827,
  "\u2581ketanenge": 3828,
  "\u2581chikhaturia": 3829,
  "\u2581ra\u0161aj": 3830,
  "\u2581kodales": 3831,
  "\u2581la\u0161o": 3832,
  "AV": 3833,
  "sikaveha": 3834,
  "\u2581Grekonge": 3835,
  "\u2581dikh\u00e5": 3836,
  "\u2581doria": 3837,
  "\u258170": 3838,
  "\u2581vuriarel": 3839,
  "\u2581tasave": 3840,
  "dren": 3841,
  "\u2581fer": 3842,
  "\u2581dikhaha": 3843,
  "\u2581lini": 3844,
  "etri": 3845,
  "\u2581For": 3846,
  "\u2581naro\u010finel": 3847,
  "\u2581dobisard": 3848,
  "herdo": 3849,
  "\u2581visare": 3850,
  "\u2581pechin": 3851,
  "\u2581Pomo\u017einel": 3852,
  "\u2581levos": 3853,
  "Alle": 3854,
  "\u2581doshard": 3855,
  "\u2581vz": 3856,
  "\u2581baxresk": 3857,
  "phat": 3858,
  "\u2581raklorh": 3859,
  "av\u013eahas": 3860,
  "\u2581mur": 3861,
  "\u2581bichinel": 3862,
  "orosko": 3863,
  "\u2581pherel": 3864,
  "chinime": 3865,
  "\u2581tov": 3866,
  "\u2581chidas": 3867,
  "\u2581ma\u0161k": 3868,
  "sop": 3869,
  "\u2581Jehovaskr": 3870,
  "zilo": 3871,
  "\u2581phagela": 3872,
  "reklad": 3873,
  "\u2581domukhe": 3874,
  "pravo": 3875,
  "chra\u0148inen": 3876,
  "\u2581Dadesk": 3877,
  "\u2581grasteng": 3878,
  "spidel": 3879,
  "Shuden": 3880,
  "\u2581Angerd": 3881,
  "ingerdia": 3882,
  "thovel": 3883,
  "\u2581barvalimas": 3884,
  "azin": 3885,
  "eskolk": 3886,
  "vendar": 3887,
  "20)": 3888,
  "\u2581prethove": 3889,
  "sic": 3890,
  "\u2581Shu": 3891,
  "ngerde": 3892,
  "\u2581pripravi": 3893,
  "3:18": 3894,
  "Jilab": 3895,
  "\u2581ankalad": 3896,
  "\u2581kritsinisard": 3897,
  "\u2581Mangle": 3898,
  "\u2581korko": 3899,
  "a\u010dho": 3900,
  "\u2581xalad": 3901,
  "\u2581bakriorh": 3902,
  "phage": 3903,
  "er\u0161o": 3904,
  "\u2581swunt": 3905,
  "\u2581krenzh": 3906,
  "resikaven": 3907,
  "Ramos": 3908,
  "Sikav": 3909,
  "fialo": 3910,
  "ikoni": 3911,
  "Avile": 3912,
  "Kristo": 3913,
  "efta": 3914,
  "\u2581slu\u017ei": 3915,
  "\u2581kra\u013ei\u0161ag": 3916,
  "\u2581raklo": 3917,
  "\u2581anklist": 3918,
  "\u2581slu\u017eob\u0148ik": 3919,
  "\u2581zakon": 3920,
  "\u2581trushal": 3921,
  "da\u010fives": 3922,
  "\u2581alosar": 3923,
  "posled": 3924,
  "\u2581vzburin": 3925,
  "\u2581chungar": 3926,
  "Manusha": 3927,
  "\u2581naswali": 3928,
  "Motho": 3929,
  "\u2581Gramnot": 3930,
  "lobodo": 3931,
  "\u2581Nic": 3932,
  "rutno": 3933,
  "\u2581vurhi": 3934,
  "svjatk": 3935,
  "\u2581zname\u0148": 3936,
  "\u2581maladi": 3937,
  "arfosar": 3938,
  "dvole\u017eiteder": 3939,
  "iazol": 3940,
  "\u2581Epaphr": 3941,
  "\u2581respektisar": 3942,
  "IMO": 3943,
  "Jupiter": 3944,
  "Rabb": 3945,
  "Skepisardia": 3946,
  "Spravodliv": 3947,
  "dokonala": 3948,
  "drukos": 3949,
  "dzimen": 3950,
  "d\u017eene": 3951,
  "humwiia": 3952,
  "jileskre": 3953,
  "mparaturi": 3954,
  "pokrs\u0165imen": 3955,
  "tla\u010dinen": 3956,
  "tressome": 3957,
  "zastavinel": 3958,
  "\u258137:29)": 3959,
  "\u2581Alexandria": 3960,
  "\u2581Arimath": 3961,
  "\u2581Augustus": 3962,
  "\u2581Bartholomew": 3963,
  "\u2581Bernice": 3964,
  "\u2581Betlehem": 3965,
  "\u2581Bi\u010dha": 3966,
  "\u2581Chud": 3967,
  "\u2581Decapolis": 3968,
  "\u2581Erastus": 3969,
  "\u2581Ethiopia": 3970,
  "\u2581Galilean": 3971,
  "\u2581Gallio": 3972,
  "\u2581Gena": 3973,
  "\u2581Jeremiah": 3974,
  "\u2581Kampel": 3975,
  "\u2581Listra": 3976,
  "\u2581Lysias": 3977,
  "\u2581Magdalene": 3978,
  "\u2581Miletus": 3979,
  "\u2581Nekbareder": 3980,
  "\u2581Pamphilia": 3981,
  "\u2581Pa\u013eiker": 3982,
  "\u2581Pentecost": 3983,
  "\u2581Phoenicia": 3984,
  "\u2581Pontius": 3985,
  "\u2581Prea\u010dh": 3986,
  "\u2581Prind\u017eare": 3987,
  "\u2581Romania": 3988,
  "\u2581Saikfielo": 3989,
  "\u2581Shpania": 3990,
  "\u2581Siloam": 3991,
  "\u2581Silvanus": 3992,
  "\u2581Sofonija\u0161": 3993,
  "\u2581Thyatira": 3994,
  "\u2581Timothy": 3995,
  "\u2581Zakonos": 3996,
  "\u2581Zhiduviska": 3997,
  "\u2581amperatitsk": 3998,
  "\u2581amperetisa": 3999,
  "\u2581angrusti": 4000,
  "\u2581bershengi": 4001,
  "\u2581biznibraznia": 4002,
  "\u2581braval": 4003,
  "\u2581bro\u017euri": 4004,
  "\u2581b\u0103r\u0161": 4005,
  "\u2581cirden": 4006,
  "\u2581dod\u017ean\u013eam": 4007,
  "\u2581dokon\u010din\u010f": 4008,
  "\u2581dragostimasa": 4009,
  "\u2581drechini": 4010,
  "\u2581drozhdi": 4011,
  "\u2581dziliard": 4012,
  "\u2581dziliarimos": 4013,
  "\u2581dzilimos": 4014,
  "\u2581d\u017eava": 4015,
  "\u2581d\u017eiveha": 4016,
  "\u2581feliastra": 4017,
  "\u2581galbi": 4018,
  "\u2581gazdi": 4019,
  "\u2581getome": 4020,
  "\u2581gojako": 4021,
  "\u2581golumburia": 4022,
  "\u2581gunoi": 4023,
  "\u2581hebrejsk": 4024,
  "\u2581hrobos": 4025,
  "\u2581jilabad": 4026,
  "\u2581kamblem": 4027,
  "\u2581kavrenge": 4028,
  "\u2581kriminalita": 4029,
  "\u2581kurkesko": 4030,
  "\u2581leprosi": 4031,
  "\u2581liberte": 4032,
  "\u2581luluja": 4033,
  "\u2581medve\u010fis": 4034,
  "\u2581mumunturia": 4035,
  "\u2581nekezhiv": 4036,
  "\u2581obrazki": 4037,
  "\u2581ochrana": 4038,
  "\u2581odstra\u0148inel": 4039,
  "\u2581otrokos": 4040,
  "\u2581paramichensa": 4041,
  "\u2581paraxodits": 4042,
  "\u2581pharaxodo": 4043,
  "\u2581pishtiri": 4044,
  "\u2581pomoca": 4045,
  "\u2581poznamk": 4046,
  "\u2581pribehi": 4047,
  "\u2581pribehostar": 4048,
  "\u2581prind\u017earel": 4049,
  "\u2581prind\u017eares": 4050,
  "\u2581prostovanes": 4051,
  "\u2581radisa\u013euvas": 4052,
  "\u2581raduisardia": 4053,
  "\u2581ram\u010dek": 4054,
  "\u2581rozdze\u013ein": 4055,
  "\u2581ro\u010fi\u010dja": 4056,
  "\u2581sebeck": 4057,
  "\u2581sirbatiko": 4058,
  "\u2581spl\u0148inel": 4059,
  "\u2581sumnkai": 4060,
  "\u2581svedkos": 4061,
  "\u2581synagogak": 4062,
  "\u2581tampluria": 4063,
  "\u2581temnitsi": 4064,
  "\u2581tr\u0103bu": 4065,
  "\u2581uspokoj": 4066,
  "\u2581veselisavas": 4067,
  "\u2581votrava": 4068,
  "\u2581vunzhi": 4069,
  "\u2581vushtiarde": 4070,
  "\u2581vutuime": 4071,
  "\u2581vutuimos": 4072,
  "\u2581westo": 4073,
  "\u2581zaa\u010dh": 4074,
  "\u2581zachran": 4075,
  "\u2581zborenge": 4076,
  "\u2581zemetrase\u0148a": 4077,
  "\u2581zme\u0148inen": 4078,
  "\u2581zrachinel": 4079,
  "\u2581z\u013eid\u017ea": 4080,
  "\u2581\u010destn": 4081,
  "\u2581\u010doripen": 4082,
  "\u2581\u010duda\u013ein": 4083,
  "\u2581\u0161havo": 4084,
  "forma": 4085,
  "glinda": 4086,
  "\u25813:9": 4087,
  "\u2581Chacho": 4088,
  "\u2581Haran": 4089,
  "\u2581Moj\u017ei\u0161": 4090,
  "\u2581aliaren": 4091,
  "\u2581diminiatsak": 4092,
  "\u2581dragimos": 4093,
  "\u2581greck": 4094,
  "\u2581holear": 4095,
  "\u2581nigr": 4096,
  "\u2581parhudia": 4097,
  "\u2581streia": 4098,
  "\u2581suspini": 4099,
  "\u2581tsigniol": 4100,
  "\u2581\u010dhivker": 4101,
  "\u2581\u0148eprja\u0165e": 4102,
  "\u2581\u017eeh\u0148ine": 4103,
  "Armaged": 4104,
  "\u2581Ajuk": 4105,
  "\u2581Saduseanong": 4106,
  "\u2581ablokat": 4107,
  "\u2581chardako": 4108,
  "\u2581getov": 4109,
  "\u2581khoro": 4110,
  "\u2581mukhen": 4111,
  "\u2581savsem": 4112,
  "\u2581skepimaski": 4113,
  "\u2581terdion": 4114,
  "\u2581vediari": 4115,
  "\u2581wurota": 4116,
  "\u2581Mattath": 4117,
  "\u2581Prinjean": 4118,
  "\u2581Satanoskere": 4119,
  "\u2581ashundilo": 4120,
  "\u2581cchach": 4121,
  "\u2581ce\u0148in": 4122,
  "\u2581getosail": 4123,
  "\u2581sastrun": 4124,
  "Efta": 4125,
  "r\u00e1sh": 4126,
  "\u2581arakh\u00e5s": 4127,
  "\u2581chidinisailia": 4128,
  "\u2581liagano": 4129,
  "\u2581vortome": 4130,
  "\u2581rovnako": 4131,
  "\u2581sikadile": 4132,
  "\u2581wulits": 4133,
  "\u2581rhocha": 4134,
  "\u2581kononuria": 4135,
  "\u2581Herm": 4136,
  "\u2581Lyc": 4137,
  "\u2581tsol": 4138,
  "momento": 4139,
  "\u2581nakh\u00e5": 4140,
  "\u2581pachamaski": 4141,
  "\u2581Manasse": 4142,
  "\u2581gazden": 4143,
  "\u2581vadra": 4144,
  "\u2581zelen": 4145,
  "\u2581tutaraza": 4146,
  "\u2581Vazd": 4147,
  "\u2581inep": 4148,
  "\u2581bunda": 4149,
  "\u2581swuntse": 4150,
  "\u2581zhun": 4151,
  "\u2581amper": 4152,
  "\u2581Baal": 4153,
  "\u2581jeau": 4154,
  "\u2581tasule": 4155,
  "\u2581nekdvole\u017eiteder": 4156,
  "a\u010dikano": 4157,
  "\u2581arachi": 4158,
  "\u2581\u0161kol": 4159,
  "\u2581mo\u017enos\u0165": 4160,
  "\u2581lajau": 4161,
  "oskro": 4162,
  "\u2581Thodia": 4163,
  "\u2581hlavn": 4164,
  "\u2581lunzhe": 4165,
  "\u2581phagavel": 4166,
  "\u2581Shtar": 4167,
  "\u2581sikad\u017eas": 4168,
  "\u2581peraven": 4169,
  "\u2581korab": 4170,
  "\u2581Satanostar": 4171,
  "\u2581teliardo": 4172,
  "\u2581amil": 4173,
  "\u2581atear": 4174,
  "\u2581aveha": 4175,
  "Phutr": 4176,
  "\u2581xabeneski": 4177,
  "\u2581machol": 4178,
  "\u2581tomn": 4179,
  "\u2581butionas": 4180,
  "\u2581nashlo": 4181,
  "\u2581rhande": 4182,
  "\u2581mishkirin": 4183,
  "\u2581manushengi": 4184,
  "uvav": 4185,
  "\u2581sastiol": 4186,
  "diamond": 4187,
  "\u2581chudinisail": 4188,
  "\u2581tili": 4189,
  "\u2581puchil": 4190,
  "W": 4191,
  "6": 4192,
  "\u201e": 4193,
  "2": 4194,
  "\u010f": 4195,
  "1": 4196,
  "G": 4197,
  "C": 4198,
  "N": 4199,
  "\u2581\u015fi": 4200,
  "\u2581s\u0103": 4201,
  "\u2581\u00een": 4202,
  "\u2581nu": 4203,
  "\u2581lui": 4204,
  "\u2581,,": 4205,
  "\u2581este": 4206,
  "\u2581din": 4207,
  "\u2581ce": 4208,
  "\u2581c\u0103": 4209,
  "\u2581care": 4210,
  "\u2581se": 4211,
  "\u2581Dumnezeu": 4212,
  "\u2581Isus": 4213,
  "\u2581au": 4214,
  "\u0163i": 4215,
  "\u2581voi": 4216,
  "\u2581va": 4217,
  "\u2581un": 4218,
  "\u2581zis": 4219,
  "\u2581\u015ei": 4220,
  "ul": 4221,
  ".``": 4222,
  "\u2581pentru": 4223,
  "\u2581El": 4224,
  "\u2581v\u0103": 4225,
  "\u2581fi": 4226,
  "\u2581ei": 4227,
  "\u2581ne": 4228,
  "\u2581prin": 4229,
  "\u2581cari": 4230,
  "\u2581fost": 4231,
  "\u2581c\u00eend": 4232,
  "\u2581\u00ee": 4233,
  "\u2581s\u00eent": 4234,
  "\u2581n": 4235,
  "\u2581cei": 4236,
  "\u2581am": 4237,
  "\u2581dup\u0103": 4238,
  "am": 4239,
  "\u2581vor": 4240,
  "\u2581dac\u0103": 4241,
  "\u2581Hristos": 4242,
  "\u2581fie": 4243,
  "\u2581ci": 4244,
  "\u2581cum": 4245,
  "\u2581noi": 4246,
  "\u2581nici": 4247,
  "\u2581C": 4248,
  "\u2581l": 4249,
  "\u2581Lui": 4250,
  "\u2581era": 4251,
  "\u2581lor": 4252,
  "\u2581mare": 4253,
  "\u2581al": 4254,
  "\u2581C\u0103ci": 4255,
  "spre": 4256,
  "\u2581\u00eenainte": 4257,
  "\u2581c\u0103ci": 4258,
  "\u2581to\u0163i": 4259,
  "a\u0163i": 4260,
  "\u00eend": 4261,
  "\u2581f\u0103cut": 4262,
  "\u2581acesta": 4263,
  "\u2581\u00cen": 4264,
  "lor": 4265,
  "\u015fi": 4266,
  "\u2581tot": 4267,
  "\u2581venit": 4268,
  "?``": 4269,
  "\u2581toate": 4270,
  "\u2581r\u0103spuns": 4271,
  "\u2581\u0219i": 4272,
  "\u2581v\u0103zut": 4273,
  "\u2581Iehova": 4274,
  "se": 4275,
  "!``": 4276,
  "\u2581Domnul": 4277,
  "\u2581a\u015fa": 4278,
  "\u2581aceea": 4279,
  "un": 4280,
  "v\u0103": 4281,
  "\u021bi": 4282,
  "e\u015fte": 4283,
  "\u2581sau": 4284,
  "\u2581Nu": 4285,
  "\u2581aceasta": 4286,
  "\u2581face": 4287,
  "at": 4288,
  "rea": 4289,
  "\u2581Eu": 4290,
  "\u2581lucruri": 4291,
  "\u2581aceste": 4292,
  "\u2581cel": 4293,
  "\u2581pentruc\u0103": 4294,
  "\u2581bine": 4295,
  "\u2581mult": 4296,
  "ui": 4297,
  "\u2581oameni": 4298,
  "ului": 4299,
  "\u2581cine": 4300,
  "\u2581Mine": 4301,
  "\u2581auzit": 4302,
  "\u2581f\u0103r\u0103": 4303,
  "\u2581p\u00een\u0103": 4304,
  "\u2581v": 4305,
  "\u2581Domnului": 4306,
  "esc": 4307,
  "\u2581celor": 4308,
  "\u2581Dac\u0103": 4309,
  "\u2581lucrurile": 4310,
  "\u2581spun": 4311,
  "\u2581ea": 4312,
  "\u2581om": 4313,
  "\u2581\u00eentr": 4314,
  "\u2581Pavel": 4315,
  "t\u0103": 4316,
  "\u2581m\u0103": 4317,
  "mi": 4318,
  "\u2581avea": 4319,
  "\u2581luat": 4320,
  "\u2581\u00eempreun\u0103": 4321,
  "\u2581cer": 4322,
  "\u2581Atunci": 4323,
  "are": 4324,
  "\u2581are": 4325,
  "\u2581acum": 4326,
  "\u2581zice": 4327,
  "\u2581Tat\u0103l": 4328,
  "or": 4329,
  "``,": 4330,
  "\u2581dec\u00eet": 4331,
  "\u2581unde": 4332,
  "\u2581Fiul": 4333,
  "\u2581\u00eempotriv": 4334,
  "\u2581pus": 4335,
  "i\u0163i": 4336,
  "\u2581eu": 4337,
  "\u2581acolo": 4338,
  "\u2581Dup\u0103": 4339,
  "\u2581unii": 4340,
  "it": 4341,
  "ve\u0163i": 4342,
  "\u2581spus": 4343,
  "orice": 4344,
  "\u2581m": 4345,
  "\u2581trebuie": 4346,
  "\u2581nostru": 4347,
  "\u2581ziua": 4348,
  "\u2581\u00eenceput": 4349,
  "easc\u0103": 4350,
  "\u2581Cum": 4351,
  "\u2581erau": 4352,
  "\u2581Duhul": 4353,
  "\u2581toat\u0103": 4354,
  "\u2581afar\u0103": 4355,
  "\u2581Petru": 4356,
  "ei": 4357,
  "\u2581nimic": 4358,
  "\u2581M\u0103": 4359,
  "\u2581Meu": 4360,
  "\u2581multe": 4361,
  "\u2581poate": 4362,
  "\u2581a\u0163i": 4363,
  "\u015f": 4364,
  "ele": 4365,
  "\u2581scris": 4366,
  "\u2581trimes": 4367,
  "\u2581dus": 4368,
  "\u2581Cel": 4369,
  "\u2581veni": 4370,
  "\u2581mine": 4371,
  "\u2581Cine": 4372,
  "\u2581p\u0103m\u00eent": 4373,
  "\u2581fac\u0103": 4374,
  "\u2581sunt": 4375,
  "\u2581Ioan": 4376,
  "\u2581unul": 4377,
  "\u2581ar": 4378,
  "\u2581fiul": 4379,
  "ii": 4380,
  "\u2581voastr\u0103": 4381,
  "\u2581zi": 4382,
  "\u2581t\u0103u": 4383,
  "\u2581Ei": 4384,
  "\u2581cele": 4385,
  "\u2581fac": 4386,
  "\u2581Ierusalim": 4387,
  "\u2581iar": 4388,
  "\u2581\u00ce": 4389,
  "\u2581tine": 4390,
  "ni\u015fte": 4391,
  "\u2581pentruca": 4392,
  "\u2581acela": 4393,
  "\u2581chiar": 4394,
  "\u2581Apoi": 4395,
  "\u2581adev\u0103r": 4396,
  "\u2581r\u0103u": 4397,
  "\u2581via\u0163a": 4398,
  "\u2581parte": 4399,
  "\u2581astfel": 4400,
  "\u2581cineva": 4401,
  "\u2581\u00eentre": 4402,
  "uri": 4403,
  "\u2581S\u0103": 4404,
  "\u2581e\u015fti": 4405,
  "\u2581fiindc\u0103": 4406,
  "\u0103m": 4407,
  "\u2581fa\u0163\u0103": 4408,
  "\u2581al\u0163ii": 4409,
  "\u2581mul\u0163i": 4410,
  "\u2581m\u00eena": 4411,
  "c\u0103": 4412,
  "\u2581ie\u015fit": 4413,
  "\u2581meu": 4414,
  "\u00een": 4415,
  "\u2581s\u00eente\u0163i": 4416,
  "\u2581ucenicii": 4417,
  "\u2581pricin": 4418,
  "\u2581adus": 4419,
  "\u2581adev\u0103rat": 4420,
  "\u2581lucrul": 4421,
  "\u2581ceice": 4422,
  "\u2581Numele": 4423,
  ".`": 4424,
  "\u2581nimeni": 4425,
  "\u2581numai": 4426,
  "\u2581omul": 4427,
  "\u2581primit": 4428,
  "\u2581Se": 4429,
  "\u2581credin\u0163\u0103": 4430,
  "\u2581casa": 4431,
  "\u2581omului": 4432,
  "\u2581singur": 4433,
  "\u2581oamenii": 4434,
  "ile": 4435,
  "\u2581Cuv\u00eentul": 4436,
  "\u2581mea": 4437,
  "\u2581zile": 4438,
  "\u2581g\u0103sit": 4439,
  "Nu": 4440,
  "\u2581spune": 4441,
  "\u2581iat\u0103": 4442,
  "\u2581vine": 4443,
  "\u2581d\u0103": 4444,
  "\u2581vostru": 4445,
  "\u2581plecat": 4446,
  "\u2581trupul": 4447,
  "\u2581s\u0103u": 4448,
  "\u2581voastre": 4449,
  "\u2581bun": 4450,
  "\u2581doi": 4451,
  "\u2581spre": 4452,
  "\u2581atunci": 4453,
  "vom": 4454,
  "\u2581fiecare": 4455,
  "\u2581s\u00eentem": 4456,
  "\u2581cunoscut": 4457,
  "\u2581\u00cemp\u0103r\u0103\u0163ia": 4458,
  "rii": 4459,
  "\u2581ori": 4460,
  "\u2581\u00eenc\u0103": 4461,
  "\u2581Sf\u00eent": 4462,
  "\u2581credin\u0163a": 4463,
  "\u2581aici": 4464,
  "\u2581putere": 4465,
  "\u2581putea": 4466,
  "\u2581dint\u00eei": 4467,
  "\u2581\u015fti\u0163i": 4468,
  "\u2581n\u0103scut": 4469,
  "\u2581ajuns": 4470,
  "\u2581intrat": 4471,
  "\u2581urm\u0103": 4472,
  "\u2581noastr\u0103": 4473,
  "\u2581\u00eemprejur": 4474,
  ".\u201d": 4475,
  "\u2581pune": 4476,
  "\u2581fii": 4477,
  "\u2581puterea": 4478,
  "\u2581ziceau": 4479,
  "\u2581\u015fapte": 4480,
  "\u2581bun\u0103": 4481,
  "\u2581pot": 4482,
  "\u2581nou": 4483,
  "\u2581inima": 4484,
  "\u2581oamenilor": 4485,
  "\u2581ele": 4486,
  "\u2581Biblia": 4487,
  "\u2581m\u00eenile": 4488,
  "\u2581murit": 4489,
  "\u2581trei": 4490,
  "\u2581r\u0103m\u00eene": 4491,
  "\u2581face\u0163i": 4492,
  "\u2581vrea": 4493,
  "\u2581acestea": 4494,
  "\u2581lumea": 4495,
  "\u0163": 4496,
  "\u2581loc": 4497,
  "\u2581aruncat": 4498,
  "asc\u0103": 4499,
  "\u2581ar\u0103tat": 4500,
  "\u2581aproape": 4501,
  "\u2581numit": 4502,
  "\u2581faci": 4503,
  "\u2581chemat": 4504,
  "\u2581acest": 4505,
  "\u2581ochii": 4506,
  "\u2581moarte": 4507,
  "oarte": 4508,
  "\u2581vreme": 4509,
  "\u2581mijlocul": 4510,
  "urile": 4511,
  "\u2581vin\u0103": 4512,
  "\u2581vorbe": 4513,
  "\u2581crezut": 4514,
  "\u2581lumii": 4515,
  "\u2581iar\u0103\u015f": 4516,
  "\u2581Fiindc\u0103": 4517,
  "\u2581ceva": 4518,
  "zi": 4519,
  "\u2581norod": 4520,
  "\u2581seam\u0103": 4521,
  "\u2581fel": 4522,
  "\u2581altul": 4523,
  "\u2581Legea": 4524,
  "\u2581fi\u0163i": 4525,
  "\u2581Tot": 4526,
  "\u2581supt": 4527,
  "\u2581c\u00e2nd": 4528,
  "\u2581Mea": 4529,
  "\u2581dou\u0103": 4530,
  "\u2581Moise": 4531,
  "\u2581lucru": 4532,
  "\u2581vin": 4533,
  "\u2581mor\u0163i": 4534,
  "\u2581\u00eent\u00eei": 4535,
  "\u2581apoi": 4536,
  "\u2581jos": 4537,
  "\u2581fra\u0163ilor": 4538,
  "Doamne": 4539,
  "\u2581numele": 4540,
  "lui": 4541,
  "\u2581lume": 4542,
  "\u2581\u00eenviat": 4543,
  "\u2581vedea": 4544,
  "\u2581cuv\u00eentul": 4545,
  "ser\u0103": 4546,
  "\u2581prea": 4547,
  "Iat\u0103": 4548,
  "\u015fti": 4549,
  "ilor": 4550,
  "Ce": 4551,
  "m\u0103": 4552,
  "\u2581tuturor": 4553,
  "\u2581re": 4554,
  "\u2581S\u0103u": 4555,
  "\u2581zilele": 4556,
  "\u2581timp": 4557,
  "sc": 4558,
  "\u2581Iudeii": 4559,
  "\u2581co": 4560,
  "\u2581Avraam": 4561,
  "\u2581ceasul": 4562,
  "\u2581trup": 4563,
  "\u2581Am": 4564,
  "\u2581cetate": 4565,
  "\u2581aminte": 4566,
  "\u2581fusese": 4567,
  "\u2581r\u0103mas": 4568,
  "\u2581oricine": 4569,
  "\u2581fratele": 4570,
  "nd": 4571,
  "\u2581ani": 4572,
  "\u2581crede": 4573,
  "\u2581Templu": 4574,
  "\u2581aduce": 4575,
  "\u2581\u00eentors": 4576,
  "\u2581ia": 4577,
  "\u2581m\u0103car": 4578,
  "\u2581l\u0103sat": 4579,
  "\u2581tare": 4580,
  "\u2581ave\u0163i": 4581,
  "\u2581\u00eendat\u0103": 4582,
  "\u2581\u00eentrebat": 4583,
  "\u2581avem": 4584,
  "\u2581vremea": 4585,
  "\u2581Dumnezeul": 4586,
  "\u2581glas": 4587,
  "\u2581drept": 4588,
  "\u2581c\u0103zut": 4589,
  "\u2581Iacov": 4590,
  "\u2581\u00eensu\u015f": 4591,
  "\u2581N": 4592,
  "\u2581sus": 4593,
  "\u2581Au": 4594,
  "\u2581vorbit": 4595,
  "\u201d": 4596,
  "\u2581celui": 4597,
  "\u2581noastre": 4598,
  "\u2581unui": 4599,
  "\u2581cuvintele": 4600,
  "\u2581picioarele": 4601,
  "\u2581tr\u0103i": 4602,
  "\u2581g\u00eend": 4603,
  "\u2581duce": 4604,
  "\u2581S\u0103i": 4605,
  "\u2581Evanghelia": 4606,
  "\u2581aceia": 4607,
  "\u2581Prin": 4608,
  "\u2581mari": 4609,
  "\u2581c\u00eet": 4610,
  "\u2581Voi": 4611,
  "\u2581deci": 4612,
  "\u2581locul": 4613,
  "\u2581dintr": 4614,
  "\u2581dragostea": 4615,
  "\u2581partea": 4616,
  "\u2581poruncit": 4617,
  "tul": 4618,
  "\u2581ap\u0103": 4619,
  "\u2581alt\u0103": 4620,
  "\u2581fra\u0163ii": 4621,
  "\u2581Iat\u0103": 4622,
  "\u2581totdeauna": 4623,
  "\u2581ridicat": 4624,
  "\u2581C\u00e2nd": 4625,
  "\u2581Iudeilor": 4626,
  "\u2581aceast": 4627,
  "\u2581zicea": 4628,
  "\u2581li": 4629,
  "\u2581copiii": 4630,
  "Dac\u0103": 4631,
  "\u2581fiu": 4632,
  "\u2581picioare": 4633,
  "\u2581patru": 4634,
  "\u2581Pilat": 4635,
  "\u2581faptele": 4636,
  "\u2581domnie": 4637,
  "\u2581prooroci": 4638,
  "\u2581cas\u0103": 4639,
  "\u2581duhul": 4640,
  "\u2581preot": 4641,
  "\u2581bucurie": 4642,
  "\u2581norodului": 4643,
  "\u2581st\u0103tea": 4644,
  "\u2581c": 4645,
  "\u2581drum": 4646,
  "\u2581niciun": 4647,
  "eaz\u0103": 4648,
  "\u2581pu\u0163in": 4649,
  "\u2581doua": 4650,
  "ib\u0103": 4651,
  "\u2581rugat": 4652,
  "e\u015fti": 4653,
  "\u2581moartea": 4654,
  "\u2581nume": 4655,
  "\u2581fa\u0163a": 4656,
  "\u2581pace": 4657,
  "\u2581adev\u0103rul": 4658,
  "Eu": 4659,
  "\u2581duc": 4660,
  "ind": 4661,
  "\u2581v\u0103d": 4662,
  "\u2581\u00eenv\u0103\u0163a": 4663,
  "\u2581vo\u015ftri": 4664,
  "p\u0103": 4665,
  "\u2581pun": 4666,
  "\u2581p\u0103cat": 4667,
  "\u2581scaunul": 4668,
  "\u2581Lege": 4669,
  "\u2581g\u0103si": 4670,
  "\u2581iubit": 4671,
  "\u2581foc": 4672,
  "tor": 4673,
  "\u2581mult\u0103": 4674,
  "ine": 4675,
  "l\u00eeng\u0103": 4676,
  "ina": 4677,
  "\u2581Cu": 4678,
  "\u2581privir": 4679,
  "\u2581s\u00eengele": 4680,
  "\u2581dragoste": 4681,
  "\u2581\u0163inut": 4682,
  "\u2581alt": 4683,
  "\u2581sculat": 4684,
  "\u2581Deci": 4685,
  "\u2581p\u0103m\u00eentului": 4686,
  "\u2581zic": 4687,
  "\u2581cere": 4688,
  "S\u0103": 4689,
  "\u2581s\u0103n\u0103tate": 4690,
  "\u2581\u015fedea": 4691,
  "\u2581\u015ftie": 4692,
  "\u2581apropiat": 4693,
  "\u2581harul": 4694,
  "\u2581suit": 4695,
  "\u2581vrednic": 4696,
  "fi": 4697,
  "\u2581cuvinte": 4698,
  "\u2581Un": 4699,
  "\u2581Iuda": 4700,
  "\u2581mama": 4701,
  "\u2581Noi": 4702,
  "Unde": 4703,
  "\u2581vad\u0103": 4704,
  "\u2581Celui": 4705,
  "\u2581norodul": 4706,
  "\u2581rele": 4707,
  "\u0219i": 4708,
  "\u2581Iar": 4709,
  "\u2581duh": 4710,
  "\u2581primi": 4711,
  "\u2581ceruri": 4712,
  "\u2581merge": 4713,
  "\u2581po\u0163i": 4714,
  "\u2581vecinic\u0103": 4715,
  "\u2581ales": 4716,
  "\u2581totul": 4717,
  "ori": 4718,
  "\u2581at\u00eet": 4719,
  "\u2581putem": 4720,
  "\u2581via\u0163\u0103": 4721,
  "\u2581munte": 4722,
  "\u2581cetatea": 4723,
  "\u2581trecut": 4724,
  "\u2581ucenicilor": 4725,
  "\u2581\u0163i": 4726,
  "\u2581\u015ftiu": 4727,
  "\u25811": 4728,
  "\u2581deschis": 4729,
  "\u2581To\u0163i": 4730,
  "\u2581\u015fez": 4731,
  "\u2581tat\u0103l": 4732,
  "\u2581Pentru": 4733,
  "\u2581Drept": 4734,
  "\u2581adic\u0103": 4735,
  "\u2581p\u0103catele": 4736,
  "\u2581Din": 4737,
  "``": 4738,
  "Cine": 4739,
  "\u2581nou\u0103": 4740,
  "\u2581p\u0103m\u00e2nt": 4741,
  "\u2581femeie": 4742,
  "\u2581corabie": 4743,
  "\u2581departe": 4744,
  "\u2581gura": 4745,
  "\u2581fra\u0163i": 4746,
  "\u2581lumina": 4747,
  "\u2581propov\u0103dui": 4748,
  "\u2581drumul": 4749,
  "s\u0103": 4750,
  "\u2581dup\u0103ce": 4751,
  "\u2581ascuns": 4752,
  "\u2581Galilea": 4753,
  "\u2581Irod": 4754,
  "\u2581copii": 4755,
  "\u2581Adev\u0103rat": 4756,
  "\u2581lua": 4757,
  "\u2581Hristosul": 4758,
  "Du": 4759,
  "\u2581cinci": 4760,
  "\u2581dinainte": 4761,
  "\u2581rog": 4762,
  "\u2581totu\u015f": 4763,
  "\u2581Ucenicii": 4764,
  "\u2581scos": 4765,
  "rul": 4766,
  "\u2581Pentruc\u0103": 4767,
  "\u2581mele": 4768,
  "rile": 4769,
  "\u2581plin": 4770,
  "\u2581ascult\u0103": 4771,
  "\u2581mii": 4772,
  "\u2581cartea": 4773,
  "\u015ei": 4774,
  "\u2581ar\u0103ta": 4775,
  "\u2581\u00eengeri": 4776,
  "\u2581no\u015ftri": 4777,
  "\u2581vie\u0163ii": 4778,
  "\u2581cumva": 4779,
  "\u2581acelea": 4780,
  "\u2581crede\u0163i": 4781,
  "\u2581neam": 4782,
  "\u2581robi": 4783,
  "\u2581vorbea": 4784,
  "\u2581ie\u015fi": 4785,
  "\u2581prooroc": 4786,
  "\u2581felul": 4787,
  "\u2581avut": 4788,
  "\u2581mil\u0103": 4789,
  "\u2581mie": 4790,
  "\u2581\u00eentoarce": 4791,
  "\u2581capul": 4792,
  "\u2581apostoli": 4793,
  "\u2581Fariseii": 4794,
  "\u2581ace\u015ftia": 4795,
  "\u2581tale": 4796,
  "\u2581cunoa\u015fte": 4797,
  "\u2581\u00eens\u0103": 4798,
  "\u2581asemenea": 4799,
  "\u2581neprih\u0103nit": 4800,
  "\u2581Astfel": 4801,
  "\u00cenv\u0103\u0163\u0103torule": 4802,
  "\u2581locui": 4803,
  "\u2581\u00eenger": 4804,
  "\u2581p\u0103rin\u0163ii": 4805,
  "oare": 4806,
  "\u2581glasul": 4807,
  "\u2581trebui": 4808,
  "\u25812": 4809,
  "\u2581Cei": 4810,
  "ndu": 4811,
  "as\u0103": 4812,
  "\u2581bea": 4813,
  "\u2581Legii": 4814,
  "\u2581mers": 4815,
  "\u2581Tine": 4816,
  "\u2581trece": 4817,
  "?`": 4818,
  "\u2581Tat\u0103lui": 4819,
  "\u2581ochi": 4820,
  "\u2581Dumnezeului": 4821,
  "ic": 4822,
  "\u2581chip": 4823,
  "\u2581da\u0163i": 4824,
  "\u0163\u0103": 4825,
  "\u2581doar": 4826,
  "\u2581b\u0103rba\u0163i": 4827,
  "\u2581r\u0103spunde": 4828,
  "\u2581a\u015ftept": 4829,
  "\u2581\u015ftim": 4830,
  "\u2581mas\u0103": 4831,
  "\u2581vie": 4832,
  "\u2581m\u0103n\u00eenc\u0103": 4833,
  "!`": 4834,
  "\u2581preo\u0163ii": 4835,
  "irea": 4836,
  "\u00eendu": 4837,
  "\u2581fim": 4838,
  "\u2581V\u0103": 4839,
  "\u2581m\u0103rturis": 4840,
  "\u2581asupr": 4841,
  "\u2581morm\u00eent": 4842,
  "\u2581\u00eenapoi": 4843,
  "\u2581T\u0103u": 4844,
  "\u2581doisprezece": 4845,
  "\u2581vorbe\u015fte": 4846,
  "\u2581lumin\u0103": 4847,
  "\u2581Amin": 4848,
  "\u2581ru\u015fine": 4849,
  "\u2581bune": 4850,
  "\u2581A\u015fa": 4851,
  "\u2581calea": 4852,
  ".)": 4853,
  "d\u0103": 4854,
  "\u0219": 4855,
  "\u2581treia": 4856,
  "\u2581aduc": 4857,
  "\u2581intra": 4858,
  "\u2581du": 4859,
  "\u2581frate": 4860,
  "\u2581cea": 4861,
  "\u2581Doamne": 4862,
  "\u2581cunosc": 4863,
  "\u2581veac": 4864,
  "\u2581st\u0103": 4865,
  "\u2581inimile": 4866,
  "\u2581vrut": 4867,
  "\u2581slav\u0103": 4868,
  "\u2581altora": 4869,
  "\u2581lege": 4870,
  "\u2581alte": 4871,
  "\u2581iube\u015fte": 4872,
  "\u2581folos": 4873,
  "g\u0103": 4874,
  "\u2581vestit": 4875,
  "\u2581acas\u0103": 4876,
  "\u0163a": 4877,
  "\u2581prime\u015fte": 4878,
  "\u2581vorbeasc\u0103": 4879,
  "\u2581temni\u0163\u0103": 4880,
  "\u2581vorbesc": 4881,
  "\u2581\u00eencredere": 4882,
  "\u2581Acum": 4883,
  "\u2581zic\u00eend": 4884,
  "\u2581viu": 4885,
  "\u2581arunc": 4886,
  "\u2581dat\u0103": 4887,
  "\u2581Iudei": 4888,
  "toare": 4889,
  "\u2581p\u0103m\u00eentul": 4890,
  "\u2581con": 4891,
  "\u2581Ne": 4892,
  "\u2581Iosif": 4893,
  "\u2581nevasta": 4894,
  "\u2581legat": 4895,
  ":1": 4896,
  "\u2581p\u0103r": 4897,
  "\u2581auzi": 4898,
  "`,": 4899,
  "\u2581\u00eemp": 4900,
  "\u2581duc\u0103": 4901,
  "\u2581aveau": 4902,
  "\u2581cred": 4903,
  "\u2581\u00eenvia": 4904,
  "\u2581fric\u0103": 4905,
  "\u2581Totu\u015f": 4906,
  "\u2581pute\u0163i": 4907,
  "\u2581Ilie": 4908,
  "\u2581arat\u0103": 4909,
  "\u2581uitat": 4910,
  "\u2581cerurilor": 4911,
  "\u2581Mele": 4912,
  "\u2581mul\u0163ime": 4913,
  "\u2581Duhului": 4914,
  "\u2581Ci": 4915,
  "\u2581spun\u0103": 4916,
  "\u2581eram": 4917,
  "\u2581rob": 4918,
  "\u2581c\u00eete": 4919,
  "ute": 4920,
  "ar\u0103": 4921,
  "\u2581corabia": 4922,
  "\u2581niciodat\u0103": 4923,
  "\u2581Acela": 4924,
  "\u2581\u00cemp\u0103ratul": 4925,
  "\u2581omoare": 4926,
  "\u2581Neamurilor": 4927,
  "\u2581m\u0103n\u00eence": 4928,
  "\u2581Sau": 4929,
  "\u2581mei": 4930,
  "\u2581teme": 4931,
  "\u2581vreau": 4932,
  "\u2581st\u0103p\u00eenire": 4933,
  "\u2581cinste": 4934,
  "\u2581sfin\u0163i": 4935,
  "\u2581bucur": 4936,
  "\u2581\u00eengerii": 4937,
  "e\u0163i": 4938,
  "\u2581ajuta": 4939,
  "\u2581\u00eenve\u0163e": 4940,
  "\u2581puternic": 4941,
  "Mi": 4942,
  "\u2581Sabatului": 4943,
  "\u2581fapte": 4944,
  "\u2581pogor\u00eet": 4945,
  "\u2581judecat\u0103": 4946,
  "\u2581Unul": 4947,
  "oc": 4948,
  "\u2581vii": 4949,
  "\u2581semn": 4950,
  "\u2581vindec": 4951,
  "\u2581ucenici": 4952,
  "\u2581afla": 4953,
  "al\u0103": 4954,
  "\u2581s\u00eenge": 4955,
  "\u2581aur": 4956,
  "\u2581ridic": 4957,
  "\u2581c\u00ee\u015ftig": 4958,
  "\u2581Iudea": 4959,
  "\u2581Timotei": 4960,
  "\u2581piatr\u0103": 4961,
  "\u2581prive\u015fte": 4962,
  "\u2581via\u021b\u0103": 4963,
  "\u2581\u00eendurare": 4964,
  "\u2581\u00eenv\u0103\u0163\u0103tura": 4965,
  "\u2581inim\u0103": 4966,
  "Ferice": 4967,
  "\u2581iubi\u0163i": 4968,
  "\u2581r\u0103m\u00een\u0103": 4969,
  "Da": 4970,
  "\u2581t\u0103i": 4971,
  "cum": 4972,
  "\u2581b\u0103rbatul": 4973,
  "\u2581femei": 4974,
  "\u2581in": 4975,
  "``.": 4976,
  "\u2581ruga": 4977,
  "\u2581\u00eenv\u0103\u0163at": 4978,
  "\u2581noaptea": 4979,
  "\u2581femeia": 4980,
  "\u2581Barnaba": 4981,
  "\u2581dreapta": 4982,
  "\u2581neprih\u0103ni\u0163i": 4983,
  "\u2581\u00eemplineasc\u0103": 4984,
  "\u2581pierde": 4985,
  "\u2581putut": 4986,
  "\u2581r\u0103stignit": 4987,
  "\u2581st\u0103p\u00eenul": 4988,
  "\u2581\u00eencredin\u0163at": 4989,
  "\u2581p\u0103m\u00eente\u015fti": 4990,
  "\u2581strigat": 4991,
  "\u2581Neamurile": 4992,
  "\u2581robul": 4993,
  "\u2581nevoie": 4994,
  "\u2581mor\u0163ii": 4995,
  "\u2581p\u0103catul": 4996,
  "\u2581acestuia": 4997,
  "\u2581darul": 4998,
  "\u2581sluji": 4999,
  "eze": 5000,
  "\u2581oare": 5001,
  "\u2581familie": 5002,
  "torul": 5003,
  "\u2581Da": 5004,
  "\u2581nor": 5005,
  "pt": 5006,
  "\u2581\u00eentunerec": 5007,
  "\u2581acela\u015f": 5008,
  "\u2581zice\u0163i": 5009,
  "\u2581porunca": 5010,
  "\u2581semin\u0163i": 5011,
  "\u2581credincios": 5012,
  "cu": 5013,
  "\u2581pietre": 5014,
  "\u2581Unii": 5015,
  "\u2581hainele": 5016,
  "\u2581seama": 5017,
  "\u2581vestea": 5018,
  "\u2581neprih\u0103nire": 5019,
  "\u2581vede\u0163i": 5020,
  "\u2581intre": 5021,
  "\u2581aduc\u0103": 5022,
  "\u2581prieteni": 5023,
  "\u2581b\u0103rbat": 5024,
  "odi": 5025,
  "nu": 5026,
  "\u2581\u00eemplini": 5027,
  "\u2581Al": 5028,
  "\u2581sf\u00eent": 5029,
  "\u2581har": 5030,
  "\u2581unor": 5031,
  "\u2581p\u00eeni": 5032,
  "\u2581umbl\u0103": 5033,
  "\u2581muri": 5034,
  "\u2581\u015ftia": 5035,
  "\u2581timpul": 5036,
  "\u2581nevast\u0103": 5037,
  "\u2581limbi": 5038,
  "\u2581vou\u0103": 5039,
  "\u2581zece": 5040,
  "\u2581arate": 5041,
  "ze": 5042,
  "\u2581vreo": 5043,
  "\u2581p\u0103m\u00e2ntul": 5044,
  "\u2581Oric": 5045,
  "coal\u0103": 5046,
  "\u2581sufletul": 5047,
  "\u2581m\u00eencat": 5048,
  "\u2581neamul": 5049,
  "p\u0103r": 5050,
  "\u2581vede": 5051,
  "\u2581\u00eendemn": 5052,
  "up": 5053,
  "\u2581prieten": 5054,
  "\u2581\u00eeng\u0103duit": 5055,
  "Adev\u0103rat": 5056,
  "\u2581n\u0103dejdea": 5057,
  "\u2581pricin\u0103": 5058,
  "\u2581trebuia": 5059,
  "`": 5060,
  "\u2581Tr": 5061,
  "\u2581Acest": 5062,
  "\u2581curat": 5063,
  "\u2581Egipt": 5064,
  "\u2581credincio\u015fi": 5065,
  "\u2581potrivit": 5066,
  "\u2581prilej": 5067,
  "\u2581pustie": 5068,
  "\u2581ceilal\u0163i": 5069,
  "\u2581Martori": 5070,
  "\u2581c\u0103ror": 5071,
  "\u2581caut\u0103": 5072,
  "\u00e2nd": 5073,
  "\u2581iubesc": 5074,
  "\u2581r\u0103s": 5075,
  "\u2581judec": 5076,
  "\u2581ape": 5077,
  "\u2581acestor": 5078,
  "\u2581c\u0103p\u0103tat": 5079,
  "\u2581r\u0103bdare": 5080,
  "\u2581st\u0103p\u00eeni": 5081,
  "\u2581sine": 5082,
  "colo": 5083,
  "\u2581faptul": 5084,
  "\u2581m\u00eentuit": 5085,
  "\u2581bani": 5086,
  "\u2581\u00eentreb": 5087,
  "tele": 5088,
  "\u00cen": 5089,
  "\u2581trimet": 5090,
  "\u2581neprih\u0103nirea": 5091,
  "\u2581plini": 5092,
  "\u2581Neamuri": 5093,
  "\u2581singuri": 5094,
  "Grec": 5095,
  "hiar": 5096,
  "\u2581ast\u0103zi": 5097,
  "\u2581pild\u0103": 5098,
  "\u2581roage": 5099,
  "\u2581rug\u0103m": 5100,
  "\u2581s\u0103m\u00een\u0163a": 5101,
  "Psalm": 5102,
  "\u2581c\u00eenta": 5103,
  "\u2581leg\u0103tur": 5104,
  "\u2581socotit": 5105,
  "\u2581Nimeni": 5106,
  "\u2581orb": 5107,
  "\u2581Sine": 5108,
  "\u2581vezi": 5109,
  "gh": 5110,
  "\u2581sale": 5111,
  "\u2581ascultat": 5112,
  "\u2581adunat": 5113,
  "\u2581\u00eenchinare": 5114,
  "\u2581c\u0103ruia": 5115,
  "nul": 5116,
  "\u2581Biblie": 5117,
  "\u2581Ba": 5118,
  "\u2581t\u0103iat": 5119,
  "\u2581sf\u00eer\u015fit": 5120,
  "\u2581facem": 5121,
  "\u2581\u00cem": 5122,
  "\u2581f\u0103cea": 5123,
  "\u2581Fi": 5124,
  "\u2581Biserica": 5125,
  "\u2581asculte": 5126,
  "\u2581pl\u0103cut": 5127,
  "\u2581trebuin\u0163\u0103": 5128,
  "\u2581odat\u0103": 5129,
  "\u2581privi": 5130,
  "\u2581sfin\u0163ilor": 5131,
  "a\u015f": 5132,
  "\u2581\u015ftii": 5133,
  "\u2581venea": 5134,
  "\u2581laud\u0103": 5135,
  "\u2581adev\u0103rului": 5136,
  "\u2581mic": 5137,
  "\u2581\u00eembr\u0103cat": 5138,
  "\u2581noapte": 5139,
  "\u2581\u00eemplinit": 5140,
  "\u2581botezat": 5141,
  "\u2581lucrarea": 5142,
  "\u2581pacea": 5143,
  "e\u0219ti": 5144,
  "\u015fte": 5145,
  "\u2581intr\u0103": 5146,
  "\u2581c\u0103uta": 5147,
  "ura": 5148,
  "\u2581Nazaret": 5149,
  "\u2581cheam\u0103": 5150,
  "\u2581gur\u0103": 5151,
  "\u2581poporul": 5152,
  "\u2581slavei": 5153,
  "\u2581capitol": 5154,
  "\u2581m\u00een\u0103": 5155,
  "\u2581altuia": 5156,
  "\u2581capete": 5157,
  "\u2581des\u0103v\u00eer\u015fit": 5158,
  "\u2581Regatul": 5159,
  "\u2581propov\u0103duit": 5160,
  "\u2581jertf\u0103": 5161,
  "Lua\u0163i": 5162,
  "\u2581cerut": 5163,
  "\u2581scrie": 5164,
  "\u2581ur": 5165,
  "erea": 5166,
  "\u2581cerului": 5167,
  "\u2581n\u0103dejde": 5168,
  "\u2581bolnav": 5169,
  "\u2581lep\u0103dat": 5170,
  "\u2581c\u0103rturarii": 5171,
  "\u2581a\u0219a": 5172,
  ",``": 5173,
  "\u2581pat": 5174,
  "\u2581urma": 5175,
  "\u2581dori": 5176,
  "\u2581nicio": 5177,
  "\u2581fiind": 5178,
  "\u2581c\u0103rturari": 5179,
  "\u2581vederea": 5180,
  "\u2581b\u0103tr\u00eeni": 5181,
  "\u2581\u00eemp\u0103r\u0103\u0163i": 5182,
  "ezi": 5183,
  "\u2581veste": 5184,
  "am\u0103n\u0103": 5185,
  "tri": 5186,
  "\u2581Deaceea": 5187,
  "\u2581obicei": 5188,
  "\u2581rug\u0103ciune": 5189,
  "\u2581\u0163ara": 5190,
  "\u2581T\u0103i": 5191,
  "\u2581bucuria": 5192,
  "\u2581p\u0103rin\u0163ilor": 5193,
  "\u2581dis": 5194,
  "Sau": 5195,
  "\u2581G": 5196,
  "\u2581omor\u00eet": 5197,
  "\u2581Toat": 5198,
  "\u2581C\u00eet": 5199,
  "mea": 5200,
  "\u2581\u00eengerul": 5201,
  "torii": 5202,
  "\u2581r": 5203,
  "\u2581tr\u0103im": 5204,
  "\u2581semne": 5205,
  "az\u0103": 5206,
  "\u2581ajunge": 5207,
  "\u2581venire": 5208,
  "\u2581copil": 5209,
  "\u2581Templul": 5210,
  "\u2581preg\u0103tit": 5211,
  "\u2581aud\u0103": 5212,
  "\u2581slujba": 5213,
  "\u2581aud": 5214,
  "\u2581m\u0103rturisi": 5215,
  "\u2581printr": 5216,
  "\u2581binele": 5217,
  "\u2581schimb": 5218,
  "\u2581slujitor": 5219,
  "\u2581citit": 5220,
  "sta": 5221,
  "\u2581jur": 5222,
  "\u2581a\u015f": 5223,
  "\u2581suflet": 5224,
  "\u2581m\u00eeni": 5225,
  "cat": 5226,
  "\u2581important": 5227,
  "\u2581sinagog\u0103": 5228,
  "\u2581Iudeu": 5229,
  "\u2581\u00cendat\u0103": 5230,
  "\u2581joc": 5231,
  "\u2581cur\u00eend": 5232,
  "\u2581urm\u0103toare": 5233,
  "\u2581lucr\u0103rile": 5234,
  "ce\u0163i": 5235,
  "\u2581viitor": 5236,
  "\u2581stare": 5237,
  "\u2581porunci": 5238,
  "\u2581Fiului": 5239,
  "\u2581altar": 5240,
  "\u2581p\u00eene": 5241,
  "\u2581carte": 5242,
  "\u2581num\u0103rul": 5243,
  "\u2581uit": 5244,
  "\u2581bolnavi": 5245,
  "\u2581merg": 5246,
  "\u2581\u00een\u0163elepciunea": 5247,
  "\u2581slujitori": 5248,
  "\u2581dator": 5249,
  "\u2581cap": 5250,
  "M\u0103": 5251,
  "\u2581Duh": 5252,
  "\u2581vreun": 5253,
  "\u2581rug\u0103ciuni": 5254,
  "\u2581lucreaz\u0103": 5255,
  "\u2581umplut": 5256,
  "Fra\u0163ilor": 5257,
  "\u2581lupta": 5258,
  "\u2581scoate": 5259,
  "\u2581\u00een\u0163eles": 5260,
  "\u2581r\u00eenduit": 5261,
  "\u2581tr\u0103iasc\u0103": 5262,
  "\u2581Regatului": 5263,
  "\u2581judeca\u0163i": 5264,
  "\u2581iubim": 5265,
  "\u2581minuni": 5266,
  "\u2581poruncile": 5267,
  "tocmai": 5268,
  "\u2581asculta\u0163i": 5269,
  "\u2581aflat": 5270,
  "\u2581proorocul": 5271,
  "\u2581vrei": 5272,
  "\u2581judecat": 5273,
  "\u2581c\u00e2t": 5274,
  "\u2581tain": 5275,
  "urat": 5276,
  "\u2581descoperit": 5277,
  "\u2581Farisei": 5278,
  "\u2581datori": 5279,
  "\u2581vrem": 5280,
  "\u2581Ve": 5281,
  "\u0219te": 5282,
  "\u2581iert": 5283,
  "\u2581\u00eent\u00eemplat": 5284,
  "alt": 5285,
  "\u2581suferi": 5286,
  "\u2581orbi": 5287,
  "\u2581p\u0103c\u0103to\u015fi": 5288,
  "\u2581C\u00e2t": 5289,
  "\u2581Isaac": 5290,
  "\u2581Scriptura": 5291,
  "\u2581\u00eensu\u0163i": 5292,
  "\u2581moar\u0103": 5293,
  "\u2581credin\u0163ei": 5294,
  "\u2581tr\u0103ie\u015fte": 5295,
  "\u2581Isaia": 5296,
  "\u2581c\u0103utau": 5297,
  "\u2581rug\u0103ciunile": 5298,
  "Pentruce": 5299,
  "\u2581boteza\u0163i": 5300,
  "\u2581stric": 5301,
  "\u2581Prea": 5302,
  "\u2581c\u0103uta\u0163i": 5303,
  "\u2581necaz": 5304,
  "\u2581azi": 5305,
  "\u2581stau": 5306,
  "\u2581sui": 5307,
  "\u2581trimete": 5308,
  "\u021b": 5309,
  "\u2581m\u00eentuirea": 5310,
  "\u2581f\u0103cute": 5311,
  "oase": 5312,
  "\u2581\u00een\u0163elepciune": 5313,
  "\u2581vedere": 5314,
  "\u2581birui": 5315,
  "\u2581chema": 5316,
  "\u2581lep\u0103da": 5317,
  "\u2581r\u00ee": 5318,
  "\u2581t\u0103ia": 5319,
  "\u2581vecinic": 5320,
  "\u2581prim": 5321,
  "\u2581ajutorul": 5322,
  "\u2581sl\u0103v": 5323,
  "\u2581dreapt\u0103": 5324,
  "\u2581f\u0103g\u0103duin\u0163a": 5325,
  "\u2581limba": 5326,
  "\u2581pl\u0103ti": 5327,
  "\u2581\u00eenva\u0163\u0103": 5328,
  "\u2581st\u0103rui": 5329,
  "\u2581Oamenii": 5330,
  "\u2581vorb\u0103": 5331,
  "\u2581chinui": 5332,
  "\u2581opr": 5333,
  "\u2581scriu": 5334,
  "\u2581prigoni": 5335,
  "\u2581Trebuie": 5336,
  "\u2581Vai": 5337,
  "\u2581sf\u00eer\u015fitul": 5338,
  "\u2581m\u0103r": 5339,
  "\u2581tari": 5340,
  "\u2581casei": 5341,
  "\u2581Bisericii": 5342,
  "\u2581vecii": 5343,
  "\u2581firii": 5344,
  "\u2581pu\u0163in\u0103": 5345,
  "\u2581judec\u0103tor": 5346,
  "aba": 5347,
  "\u2581\u00eencolo": 5348,
  "\u2581\u00eenvierea": 5349,
  "\u2581l\u0103sa": 5350,
  "\u2581judecata": 5351,
  "\u2581sinagogi": 5352,
  "\u2581singur\u0103": 5353,
  "\u2581p\u0103zit": 5354,
  "\u2581daruri": 5355,
  "m\u00e2n": 5356,
  "e\u0219te": 5357,
  "\u2581deplin": 5358,
  "\u2581asculta": 5359,
  "\u2581haine": 5360,
  "\u2581\u015eti": 5361,
  "\u2581biblice": 5362,
  "\u2581cuno\u015ftin\u0163\u0103": 5363,
  "\u2581m\u0103rturia": 5364,
  "\u2581porunc\u0103": 5365,
  "\u2581\u00eenseamn\u0103": 5366,
  "\u2581poat\u0103": 5367,
  "\u2581slujeasc\u0103": 5368,
  "\u2581frica": 5369,
  "\u2581treac\u0103": 5370,
  "\u2581po\u021bi": 5371,
  "\u2581\u015fad": 5372,
  "\u2581voin\u021ba": 5373,
  "\u2581patruzeci": 5374,
  "\u2581\u00een\u015fiv\u0103": 5375,
  "\u2581vestesc": 5376,
  "\u2581fiarei": 5377,
  "\u2581vecilor": 5378,
  "\u2581gr": 5379,
  "\u2581dreptate": 5380,
  "\u2581\u00een\u0103l\u0163at": 5381,
  "\u2581binecuv\u00eentat": 5382,
  "\u2581tr\u0103iesc": 5383,
  "\u2581socot": 5384,
  "\u2581p\u0103catului": 5385,
  "\u2581acesteia": 5386,
  "\u2581mor\u0163ilor": 5387,
  "\u2581fiec\u0103ruia": 5388,
  "\u2581semnul": 5389,
  "\u2581rea": 5390,
  "\u2581Era": 5391,
  "\u2581c\u0103dea": 5392,
  "\u2581oar\u0103": 5393,
  "\u2581f\u0103cut\u0103": 5394,
  "\u2581martori": 5395,
  "\u2581Omul": 5396,
  "\u2581sat": 5397,
  "\u2581atins": 5398,
  "\u25816": 5399,
  "\u2581mod": 5400,
  "\u2581pre\u0163": 5401,
  "\u2581\u00centr": 5402,
  "\u2581binecuv\u00eent": 5403,
  "\u2581zic\u0103": 5404,
  "\u2581m\u00eentui": 5405,
  "\u2581Bibliei": 5406,
  "\u2581iubirea": 5407,
  "\u2581osta\u015fi": 5408,
  "\u2581Satana": 5409,
  "\u2581Mare": 5410,
  "c\u00e2t": 5411,
  "Acest": 5412,
  "\u2581supus": 5413,
  "Cum": 5414,
  "\u2581necazuri": 5415,
  "zul": 5416,
  "\u2581f\u0103": 5417,
  "\u2581m\u00eenie": 5418,
  "\u2581fug": 5419,
  "\u2581apa": 5420,
  "\u2581f\u0103cuse": 5421,
  "\u2581\u015fase": 5422,
  "\u2581at\u00e2t": 5423,
  "\u2581hain\u0103": 5424,
  "\u2581m\u0103rturie": 5425,
  "\u2581pilda": 5426,
  "\u2581respect": 5427,
  "\u2581roade": 5428,
  "\u2581road\u0103": 5429,
  "\u2581r\u00eevn\u0103": 5430,
  "\u2581slujesc": 5431,
  "\u2581smochin": 5432,
  "\u2581\u00eensumi": 5433,
  "\u2581\u00eentoarc\u0103": 5434,
  "\u2581anume": 5435,
  "Vino": 5436,
  "\u2581cutremur": 5437,
  "\u2581poticnire": 5438,
  "\u2581sim\u0163i": 5439,
  "\u2581deoarece": 5440,
  "\u2581Mul\u0163i": 5441,
  "\u2581scump": 5442,
  "\u2581munc": 5443,
  "\u2581Acolo": 5444,
  "\u2581r\u0103i": 5445,
  "\u2581ajutor": 5446,
  "\u2581cugetul": 5447,
  "\u2581vindecat": 5448,
  "\u2581hot\u0103r\u00eet": 5449,
  "\u2581spusese": 5450,
  "\u2581\u00cens\u0103": 5451,
  "\u2581\u00eenchinat": 5452,
  "\u2581bun\u0103tate": 5453,
  "care": 5454,
  "\u2581sor": 5455,
  "\u2581Mei": 5456,
  "\u2581Spune\u0163i": 5457,
  "\u2581teme\u0163i": 5458,
  "\u2581\u00eentreb\u0103ri": 5459,
  "\u2581\u0219ti": 5460,
  "\u2581sf\u00eent\u0103": 5461,
  "\u2581cuv\u00eent": 5462,
  "\u2581Efes": 5463,
  "\u2581cunoa\u015fte\u0163i": 5464,
  "\u2581umbla": 5465,
  "\u2581locuitori": 5466,
  "\u2581dracii": 5467,
  "opi": 5468,
  "\u2581mort": 5469,
  "\u2581vesti": 5470,
  "\u2581aduce\u0163i": 5471,
  "\u2581prins": 5472,
  "\u2581\u00eenviere": 5473,
  "\u2581vr\u0103jma\u015fi": 5474,
  "sprezece": 5475,
  "\u2581proorocii": 5476,
  "\u2581sfin\u0163ii": 5477,
  "\u2581botezul": 5478,
  "\u2581oile": 5479,
  "\u2581m\u00eenia": 5480,
  "\u2581preo\u0163i": 5481,
  "\u2581robii": 5482,
  "n\u021b": 5483,
  "\u2581domni": 5484,
  "Un": 5485,
  "\u2581necurat": 5486,
  "\u2581\u00een\u015fel": 5487,
  "\u2581vechi": 5488,
  "\u2581bel\u015fug": 5489,
  "\u2581grij\u0103": 5490,
  "\u2581mincino\u015fi": 5491,
  "\u2581pilde": 5492,
  "\u2581s\u0103m\u0103nat": 5493,
  "\u2581curvie": 5494,
  "\u2581\u00eentruniri": 5495,
  "\u2581v\u0103rsa": 5496,
  "zeci": 5497,
  "\u2581cerceta": 5498,
  "\u2581precum": 5499,
  "\u2581av\u00eend": 5500,
  "\u2581prosl\u0103vit": 5501,
  "\u2581apucat": 5502,
  "\u2581a\u015fezat": 5503,
  "\u2581poftele": 5504,
  "\u2581sil": 5505,
  "\u2581noroadele": 5506,
  "\u2581iubi\u0163ilor": 5507,
  "\u2581Templului": 5508,
  "Matei": 5509,
  "in\u0163\u0103": 5510,
  "\u2581p\u0103c\u0103tuit": 5511,
  "\u2581m\u00eenca\u0163i": 5512,
  "\u2581pricepere": 5513,
  "\u2581m\u0103sura": 5514,
  "\u2581mut": 5515,
  "\u2581cerul": 5516,
  "\u2581Sale": 5517,
  "\u2581alb": 5518,
  "\u2581ceea": 5519,
  "alitate": 5520,
  "\u2581\u00eengrij": 5521,
  "\u2581lua\u0163i": 5522,
  "\u2581\u00eent\u0103ri": 5523,
  "\u2581suferit": 5524,
  "\u2581mo\u015fteni": 5525,
  "\u2581purta": 5526,
  "urilor": 5527,
  "Cel": 5528,
  "\u2581citi": 5529,
  "ou\u0103sprezece": 5530,
  "\u2581c\u0103rui": 5531,
  "avea": 5532,
  "\u2581copilul": 5533,
  "\u2581p\u0103str": 5534,
  "\u2581scrise": 5535,
  "\u2581ajung": 5536,
  "\u2581cur\u0103\u0163i": 5537,
  "\u2581jertfe": 5538,
  "\u2581\u00eenchina": 5539,
  "Cu": 5540,
  "\u2581\u0163in": 5541,
  "\u2581paharul": 5542,
  "\u2581botez": 5543,
  "duc": 5544,
  "\u2581pedeps": 5545,
  "\u2581nedrept": 5546,
  "\u2581nebun": 5547,
  "\u2581apropie": 5548,
  "\u2581epistol": 5549,
  "\u2581spurc": 5550,
  "\u2581\u00eentristare": 5551,
  "\u2581inimii": 5552,
  "\u2581cre\u015fte": 5553,
  "\u2581Pa\u015ftele": 5554,
  "\u2581b\u0103ga": 5555,
  "\u2581crezi": 5556,
  "\u2581g\u0103sesc": 5557,
  "t\u00eer": 5558,
  "\u2581pie": 5559,
  "\u2581greu": 5560,
  "\u2581Cezarului": 5561,
  "\u2581Ana": 5562,
  "\u2581minunat": 5563,
  "\u2581primeasc\u0103": 5564,
  "\u2581socoti\u0163i": 5565,
  "\u2581vorbind": 5566,
  "\u2581Ace\u015ftia": 5567,
  "\u2581moare": 5568,
  "\u2581neprih\u0103nirii": 5569,
  "\u2581\u00eencet": 5570,
  "v\u00eer": 5571,
  "\u2581sufere": 5572,
  "\u2581tat\u0103lui": 5573,
  "\u2581fericit\u0103": 5574,
  "\u2581idoli": 5575,
  "\u2581p\u0103m\u00eenteasc\u0103": 5576,
  "\u2581mul\u0163\u0103miri": 5577,
  "\u2581vedem": 5578,
  "\u2581plece": 5579,
  "\u2581chema\u0163i": 5580,
  "\u2581vorbim": 5581,
  "\u2581pl\u0103cere": 5582,
  "ns": 5583,
  "\u2581\u00eemp\u0103r\u0163it": 5584,
  "\u0163ele": 5585,
  "\u2581r\u0103scump\u0103rare": 5586,
  "\u2581firea": 5587,
  "\u2581scot": 5588,
  "\u2581pare": 5589,
  "\u2581\u00eent\u00eempla": 5590,
  "\u2581venind": 5591,
  "\u2581mintea": 5592,
  "\u2581num\u0103r": 5593,
  "\u2581ies": 5594,
  "tur\u0103": 5595,
  "\u2581Biserici": 5596,
  "\u00ce": 5597,
  "\u2581Evanghelie": 5598,
  "\u2581adev\u0103rat\u0103": 5599,
  "\u015e": 5600,
  "cine": 5601,
  "\u2581tem": 5602,
  "Ioan": 5603,
  "Domnul": 5604,
  "\u2581\u00eenchin\u0103": 5605,
  "Dumnezeu": 5606,
  "Omul": 5607,
  "Voi": 5608,
  "\u2581omor\u00ee": 5609,
  "Dar": 5610,
  "nici": 5611,
  "\u2581clip": 5612,
  "\u2581v\u00eent": 5613,
  "\u2581batjocor": 5614,
  "\u2581\u00eemp\u0103rat": 5615,
  "\u2581Scripturi": 5616,
  "\u2581urechi": 5617,
  "\u2581puteri": 5618,
  "\u2581alerg": 5619,
  "\u2581Antiohia": 5620,
  "\u2581blestem": 5621,
  "\u2581bogat": 5622,
  "\u2581b\u0103teau": 5623,
  "\u2581cealalt\u0103": 5624,
  "\u2581cuno\u015ftin\u0163a": 5625,
  "\u2581haina": 5626,
  "\u2581istorisi": 5627,
  "\u2581nim\u0103nui": 5628,
  "\u2581poart\u0103": 5629,
  "\u2581putin\u0163\u0103": 5630,
  "\u2581risip": 5631,
  "\u2581vreodat\u0103": 5632,
  "\u2581\u00eent\u00eemple": 5633,
  "\u2581\u00eenvinui": 5634,
  "\u2581\u00een\u0163elep\u0163i": 5635,
  "\u2581ajut\u0103": 5636,
  "\u2581ating": 5637,
  "\u2581pagin": 5638,
  "\u2581religi": 5639,
  "\u2581lan\u0163uri": 5640,
  "\u2581partenerul": 5641,
  "\u2581f\u0103pturi": 5642,
  "\u2581lupt\u0103": 5643,
  "\u2581suta\u015f": 5644,
  "\u2581Vre": 5645,
  "\u2581iube\u015fti": 5646,
  "\u2581pornit": 5647,
  "\u2581sut\u0103": 5648,
  "\u2581oprit": 5649,
  "\u2581Greci": 5650,
  "\u2581pieri": 5651,
  "\u2581pl\u00eenge": 5652,
  "\u2581p\u0103ze\u015fte": 5653,
  "\u2581g\u00eendurile": 5654,
  "\u2581Eva": 5655,
  "\u2581\u00eembr\u0103ca\u0163i": 5656,
  "\u2581\u00eentrebare": 5657,
  "\u2581Laz\u0103r": 5658,
  "\u2581Nici": 5659,
  "\u2581t\u0103iere": 5660,
  "El": 5661,
  "\u2581femeile": 5662,
  "\u2581l\u0103sa\u0163i": 5663,
  "\u2581vinul": 5664,
  "\u2581iertare": 5665,
  "\u2581m\u0103rturisit": 5666,
  "\u2581\u00eentreg": 5667,
  "\u2581trupului": 5668,
  "\u2581stele": 5669,
  "\u2581m\u00eencare": 5670,
  "\u0103toare": 5671,
  "\u2581judec\u0103": 5672,
  "\u2581m\u0103rturisirea": 5673,
  "\u2581par": 5674,
  "\u2581alta": 5675,
  "\u2581lucrurilor": 5676,
  "\u2581b\u0103tr\u00eenii": 5677,
  "\u2581las\u0103": 5678,
  "\u2581\u00eenv\u0103\u0163": 5679,
  "\u2581ni": 5680,
  "\u2581vorbire": 5681,
  "\u2581r\u0103ul": 5682,
  "\u2581m\u00eenca": 5683,
  "\u2581duhuri": 5684,
  "\u2581cur\u0103\u0163it": 5685,
  "\u2581p\u00eenea": 5686,
  "tins": 5687,
  "\u2581mor": 5688,
  "\u2581dorm": 5689,
  "\u2581\u00eenv\u0103\u0163\u0103turi": 5690,
  "t\u00eend": 5691,
  "\u2581cinstea": 5692,
  "\u2581\u00eencredin\u0163": 5693,
  "\u2581str\u00eens": 5694,
  "impotriv\u0103": 5695,
  "\u2581Biseric\u0103": 5696,
  "\u2581Damasc": 5697,
  "\u2581exemplu": 5698,
  "\u2581prezent": 5699,
  "\u2581prihan\u0103": 5700,
  "\u2581primejdi": 5701,
  "\u2581u\u015for": 5702,
  "\u2581\u00eenchis": 5703,
  "\u2581\u00eenva\u021b\u0103": 5704,
  "\u2581aprins": 5705,
  "\u2581pr\u0103p\u0103d": 5706,
  "\u2581\u00eentruc\u00eet": 5707,
  "\u2581ie\u015fea": 5708,
  "\u2581cortul": 5709,
  "\u2581am\u0103gi": 5710,
  "\u2581b\u0103ut": 5711,
  "\u2581Roma": 5712,
  "\u2581plan": 5713,
  "\u2581mearg\u0103": 5714,
  "\u2581\u0163ine": 5715,
  "\u2581luni": 5716,
  "\u2581rupt": 5717,
  "\u2581dispre\u0163ui": 5718,
  "\u2581Aici": 5719,
  "\u2581gust": 5720,
  "\u2581alergat": 5721,
  "\u2581r\u00eendu": 5722,
  "\u2581be\u0163i": 5723,
  "\u2581so\u0163i": 5724,
  "\u2581Sunt": 5725,
  "\u2581iubi": 5726,
  "\u2581ucide": 5727,
  "\u2581bate": 5728,
  "\u2581aduna\u0163i": 5729,
  "\u2581tovar\u0103\u015fi": 5730,
  "\u2581zidit": 5731,
  "\u2581Aceasta": 5732,
  "\u2581proorocilor": 5733,
  "\u2581\u0163inea": 5734,
  "\u2581Tat\u0103": 5735,
  "\u2581os\u00eendit": 5736,
  "\u2581ruga\u0163i": 5737,
  "\u2581p\u0103zi": 5738,
  "\u2581ceresc": 5739,
  "\u2581ale\u015fi": 5740,
  "\u2581chipul": 5741,
  "\u2581caute": 5742,
  "\u2581primi\u0163i": 5743,
  "\u2581Evangheliei": 5744,
  "\u2581iub": 5745,
  "\u2581stea": 5746,
  "\u2581urmat": 5747,
  "\u2581apostol": 5748,
  "\u2581M\u00eentuitorul": 5749,
  "\u2581fapt": 5750,
  "\u2581pline": 5751,
  "\u2581c\u00eet\u0103": 5752,
  "col": 5753,
  "\u2581p\u0103cate": 5754,
  "\u2581biruit": 5755,
  "Pro": 5756,
  "\u2581spune\u0163i": 5757,
  "tare": 5758,
  "\u2581iubire": 5759,
  "voi": 5760,
  "\u2581iubitor": 5761,
  "\u2581minte": 5762,
  "\u2581pom": 5763,
  "oarea": 5764,
  "\u2581str\u00eenge": 5765,
  "avem": 5766,
  "\u2581c\u0103p\u0103ta": 5767,
  "\u2581zici": 5768,
  "\u2581p\u0103c\u0103tui": 5769,
  "\u2581era\u0163i": 5770,
  "\u2581draci": 5771,
  "\u2581Domn": 5772,
  "\u2581scula": 5773,
  "\u2581cuget": 5774,
  "\u2581Mielul": 5775,
  "rat": 5776,
  "\u2581Botez\u0103torul": 5777,
  "\u2581Diavolul": 5778,
  "\u2581Rahav": 5779,
  "\u2581b\u0103tut": 5780,
  "\u2581c\u00eemp": 5781,
  "\u2581p\u0103r\u0103sit": 5782,
  "\u2581r\u0103splata": 5783,
  "\u2581\u00eenl\u0103untru": 5784,
  "\u2581cread\u0103": 5785,
  "\u2581tulbur": 5786,
  "\u2581ajute": 5787,
  "\u2581neveste": 5788,
  "\u2581\u00eenviaz\u0103": 5789,
  "\u2581plat\u0103": 5790,
  "\u2581fr\u00eent": 5791,
  "\u2581f\u0103c\u00eend": 5792,
  "\u2581v\u00eendut": 5793,
  "\u2581judec\u0103\u0163ii": 5794,
  "\u2581lung": 5795,
  "\u2581\u00een\u015fine": 5796,
  "\u2581oric\u0103r": 5797,
  "\u2581rost": 5798,
  "\u2581viitoare": 5799,
  "\u2581alege": 5800,
  "\u2581team\u0103": 5801,
  "\u2581scap": 5802,
  "\u2581Mielului": 5803,
  "\u2581\u0163int\u0103": 5804,
  "\u2581st\u0103t": 5805,
  "\u2581veacului": 5806,
  "supra": 5807,
  "Am": 5808,
  "\u2581m\u00eentui\u0163i": 5809,
  ":3": 5810,
  "de\u0163i": 5811,
  "\u2581c\u0103utat": 5812,
  "\u2581dovedi": 5813,
  "\u2581deplin\u0103": 5814,
  "\u2581Tale": 5815,
  "\u2581s\u0103raci": 5816,
  "\u2581\u00eenv\u0103\u0163\u0103tori": 5817,
  "\u2581opt": 5818,
  "\u2581curat\u0103": 5819,
  "\u2581Ori": 5820,
  "\u2581scut": 5821,
  "\u2581l\u0103uda": 5822,
  "\u2581laud": 5823,
  "\u2581locuie\u015ft": 5824,
  "unat": 5825,
  "\u2581t\u0103m\u0103duit": 5826,
  "\u2581mici": 5827,
  "\u2581t\u0103m\u0103dui": 5828,
  "\u2581case": 5829,
  "\u2581ace\u015fti": 5830,
  "\u2581slobozi": 5831,
  "\u2581aude": 5832,
  "\u2581neamuri": 5833,
  "\u2581c\u00eermui": 5834,
  "\u2581mijloc": 5835,
  "Tat\u0103": 5836,
  "\u2581r\u0103bdarea": 5837,
  "Oric": 5838,
  "\u2581poc\u0103i": 5839,
  "\u2581pogor\u00ee": 5840,
  "\u2581apropia": 5841,
  "\u2581pleca": 5842,
  "\u2581diavolul": 5843,
  "\u2581\u00een\u0163elege": 5844,
  "\u2581voiesc": 5845,
  "\u2581\u00eendeplin": 5846,
  "aharia": 5847,
  "\u2581Galileii": 5848,
  "\u2581Iordan": 5849,
  "\u2581al\u0103turi": 5850,
  "\u2581asem\u0103na": 5851,
  "\u2581dovad": 5852,
  "\u2581exist\u0103": 5853,
  "\u2581frumos": 5854,
  "\u2581limb\u0103": 5855,
  "\u2581oaspe\u0163i": 5856,
  "\u2581piatra": 5857,
  "\u2581pierdut": 5858,
  "\u2581presbiter": 5859,
  "\u2581r\u0103spl\u0103ti": 5860,
  "\u2581r\u0103zvr\u0103ti": 5861,
  "\u2581slobod": 5862,
  "\u2581slujb\u0103": 5863,
  "\u2581trime\u015fi": 5864,
  "\u2581\u00eemb\u0103rb\u0103t": 5865,
  "\u2581\u00eendelung": 5866,
  "\u2581Fiecare": 5867,
  "\u2581congrega\u021bie": 5868,
  "\u2581p\u0103cii": 5869,
  "\u2581spini": 5870,
  "\u2581u\u015f\u0103": 5871,
  "ltfel": 5872,
  "\u2581uscat": 5873,
  "\u2581v\u0103duve": 5874,
  "\u2581\u00een\u0163elept": 5875,
  "\u2581c\u00ee\u0163i": 5876,
  "\u2581\u00eentemei": 5877,
  "\u2581p\u0103rta\u015f": 5878,
  "\u2581scoat\u0103": 5879,
  "\u2581\u00eendr\u0103zneal\u0103": 5880,
  "\u2581\u00eensemneaz\u0103": 5881,
  "\u2581creat": 5882,
  "\u2581Iona": 5883,
  "\u2581\u00een\u015fi\u015fi": 5884,
  "\u2581doilea": 5885,
  "\u2581Sila": 5886,
  "\u2581fugit": 5887,
  "\u2581sufletele": 5888,
  "\u2581mor\u021bi": 5889,
  "\u2581p\u0103catelor": 5890,
  "sigur": 5891,
  "\u2581Fariseilor": 5892,
  "\u2581c\u0103rei": 5893,
  "\u2581urmare": 5894,
  "\u2581mul\u0163\u0103mit": 5895,
  "\u2581vesel": 5896,
  "\u2581pe\u015fti": 5897,
  "\u2581legi": 5898,
  "\u2581Harul": 5899,
  "\u2581neamurile": 5900,
  "\u2581locurile": 5901,
  "\u2581Lucru": 5902,
  "\u2581r\u0103utate": 5903,
  "\u2581p\u0103zi\u0163i": 5904,
  "\u2581\u00eenchine": 5905,
  "\u00eencetat": 5906,
  "\u2581place": 5907,
  "\u2581ajutat": 5908,
  "\u2581prind\u0103": 5909,
  "\u2581adu": 5910,
  "\u2581Do": 5911,
  "Pace": 5912,
  "unde": 5913,
  "rin": 5914,
  "\u2581vino": 5915,
  "\u0219ti": 5916,
  "\u2581persoane": 5917,
  "\u2581str\u0103in": 5918,
  "\u2581duce\u0163i": 5919,
  "\u2581vinde": 5920,
  "\u2581mustra": 5921,
  "\u2581carnea": 5922,
  "\u2581intr": 5923,
  "Se": 5924,
  "\u0103rile": 5925,
  "\u2581n\u0103d\u0103jdui": 5926,
  "\u2581cade": 5927,
  "\u2581cruce": 5928,
  "\u2581carne": 5929,
  "\u2581ucenic": 5930,
  "\u2581lucrare": 5931,
  "\u2581feric": 5932,
  "\u2581sc\u0103pa": 5933,
  "\u2581arde": 5934,
  "\u2581vrednici": 5935,
  "\u2581\u00eenf\u0103\u0163i\u015fa": 5936,
  "adev\u0103r": 5937,
  "Noi": 5938,
  "\u2581studi": 5939,
  "\u2581plac": 5940,
  "\u2581frunta\u015f": 5941,
  "\u2581noroade": 5942,
  "\u2581gr\u00eeu": 5943,
  "\u2581Har": 5944,
  "\u2581tovar\u0103\u015f": 5945,
  "\u015etiu": 5946,
  "\u2581preacurv": 5947,
  "\u2581veghe": 5948,
  "reo\u0163ii": 5949,
  "\u2581Saduchei": 5950,
  "\u2581continu": 5951,
  "\u2581crescut": 5952,
  "\u2581deschide": 5953,
  "\u2581dinl\u0103untru": 5954,
  "\u2581p\u00e2n\u0103": 5955,
  "\u2581p\u0103c\u0103tos": 5956,
  "\u2581r\u0103zboi": 5957,
  "\u2581t\u00eengui": 5958,
  "\u2581\u00eentotdeauna": 5959,
  "\u2581\u00eentristat": 5960,
  "\u2581a\u015fteapt\u0103": 5961,
  "\u2581sl\u0103b\u0103nog": 5962,
  "\u2581uimi\u0163i": 5963,
  "\u2581anumit": 5964,
  "\u2581felurite": 5965,
  "\u2581ve\u0219nic": 5966,
  "\u2581smulg": 5967,
  "\u2581amestec": 5968,
  "\u2581p\u0103r\u0163ile": 5969,
  "\u2581por\u0163i": 5970,
  "\u2581soarele": 5971,
  "\u2581Noe": 5972,
  "\u2581Cezarea": 5973,
  "\u2581mam\u0103": 5974,
  "\u2581profe\u021bi": 5975,
  "\u2581deasupra": 5976,
  "\u2581\u00cengerul": 5977,
  "\u2581Spune": 5978,
  "\u2581noroadelor": 5979,
  "\u2581celalt": 5980,
  "\u2581grab\u0103": 5981,
  "\u2581fa\u021b\u0103": 5982,
  "\u2581neputin\u0163\u0103": 5983,
  "\u2581strigau": 5984,
  "\u2581pas\u0103": 5985,
  "\u2581bucurat": 5986,
  "arc\u0103": 5987,
  "\u2581gloat\u0103": 5988,
  "\u2581urechile": 5989,
  "\u2581Bisericile": 5990,
  "\u2581bucur\u0103m": 5991,
  "\u2581cere\u015fti": 5992,
  "\u2581apostolilor": 5993,
  "\u2581cap\u0103t\u0103": 5994,
  "9)": 5995,
  "\u2581vreunul": 5996,
  "tate": 5997,
  "\u2581potir": 5998,
  "\u2581patul": 5999,
  "\u2581m\u0103rii": 6000,
  "\u0103rii": 6001,
  "\u2581preg\u0103ti": 6002,
  "\u2581c\u0103pitanul": 6003,
  "\u2581folosul": 6004,
  "\u2581cet\u0103\u0163ii": 6005,
  "\u2581multor": 6006,
  "\u2581boteza": 6007,
  "\u2581supuse": 6008,
  "\u2581focul": 6009,
  "\u2581\u00eent\u00eemplate": 6010,
  "\u2581mergeau": 6011,
  "\u2581plin\u0103": 6012,
  "i\u015fte": 6013,
  "\u2581ho\u0163": 6014,
  "\u2581nimicit": 6015,
  "\u2581lauda": 6016,
  "\u2581purtare": 6017,
  "\u2581ar\u0103t": 6018,
  "\u2581nume\u015ft": 6019,
  "nic\u0103": 6020,
  "ustra\u0163i": 6021,
  "\u2581c\u0103lca": 6022,
  "\u2581fire": 6023,
  "c\u0103ci": 6024,
  "\u2581plec": 6025,
  "bil": 6026,
  "\u2581S\u00eent": 6027,
  "e\u0163e": 6028,
  "\u2581\u00eencerc": 6029,
  "pus": 6030,
  "\u2581g\u00e2nd": 6031,
  "\u2581folosi": 6032,
  "\u2581iertat": 6033,
  "\u2581strig\u0103": 6034,
  "\u2581\u00eent\u00e2mpl": 6035,
  "\u2581privin\u0163": 6036,
  "\u2581g\u0103se": 6037,
  "\u00cemp\u0103rat": 6038,
  "Bucur": 6039,
  "\u2581Fariseu": 6040,
  "\u2581cuno\u015ftea": 6041,
  "\u2581g\u0103zdui": 6042,
  "\u2581t\u0103g\u0103dui": 6043,
  "\u2581Andrei": 6044,
  "\u2581Ieremia": 6045,
  "\u2581c\u0103l\u0103uz": 6046,
  "\u2581fl\u0103m\u00eenzi": 6047,
  "\u2581f\u0103ptur\u0103": 6048,
  "\u2581f\u0103r\u0103delege": 6049,
  "\u2581informa\u0163ii": 6050,
  "\u2581ispitit": 6051,
  "\u2581jur\u0103m\u00eent": 6052,
  "\u2581lucrez": 6053,
  "\u2581morminte": 6054,
  "\u2581m\u00eeng\u00eeia": 6055,
  "\u2581pizm\u0103": 6056,
  "\u2581s\u0103m\u00een\u0163\u0103": 6057,
  "\u2581s\u0103n\u0103tos": 6058,
  "\u2581umbr": 6059,
  "\u2581untdelemn": 6060,
  "\u2581\u00eenv\u0103\u0163\u0103tur\u0103": 6061,
  "\u2581\u00een\u0163eleag\u0103": 6062,
  "\u2581ur\u0103\u015fte": 6063,
  "\u2581\u00cemp\u0103r\u0103\u0163iei": 6064,
  "\u2581Marta": 6065,
  "\u2581c\u0103l\u0103tori": 6066,
  "\u2581ad\u00eenc": 6067,
  "\u2581u\u015fa": 6068,
  "\u2581z\u0103cea": 6069,
  "\u2581rrom": 6070,
  "\u2581vinovat": 6071,
  "\u2581Iov": 6072,
  "\u2581cuvine": 6073,
  "\u2581trag": 6074,
  "\u2581min\u0163i": 6075,
  "\u2581ceart\u0103": 6076,
  "\u2581fum": 6077,
  "\u2581g\u0103se\u015fte": 6078,
  "\u2581spui": 6079,
  "\u2581s\u0103turat": 6080,
  "\u2581via\u021ba": 6081,
  "\u2581odai": 6082,
  "poli": 6083,
  "\u2581treilea": 6084,
  "\u2581deslegat": 6085,
  "\u2581Tit": 6086,
  "\u2581p\u0103rere": 6087,
  "\u2581cet\u0103\u0163ile": 6088,
  "\u2581lovit": 6089,
  "\u2581ceas": 6090,
  "tatea": 6091,
  "n\u021b\u0103": 6092,
  "\u2581copiilor": 6093,
  "\u2581mirat": 6094,
  "\u2581sp\u0103lat": 6095,
  "\u2581\u015ftiau": 6096,
  "\u2581dreptul": 6097,
  "V\u0103": 6098,
  "\u2581\u00eencepe": 6099,
  "\u2581\u0163in\u0103": 6100,
  "\u2581chem": 6101,
  "\u2581na\u015ftere": 6102,
  "\u2581\u00eempietr": 6103,
  "\u2581laude": 6104,
  "\u2581bucur\u0103": 6105,
  "\u2581so\u021b": 6106,
  "rtur": 6107,
  "\u2581m\u00eeng\u00eeiere": 6108,
  "\u2581auzi\u0163i": 6109,
  "\u2581Cred": 6110,
  "\u2581sc\u0103pat": 6111,
  "\u2581credem": 6112,
  "\u2581\u00eentrebe": 6113,
  "B\u0103rba\u0163i": 6114,
  "\u2581f\u0103g\u0103duit": 6115,
  "?\u201d": 6116,
  "\u2581duceau": 6117,
  "\u2581m\u0103sur\u0103": 6118,
  "\u2581credeau": 6119,
  "\u2581crucea": 6120,
  "Il": 6121,
  "\u2581banii": 6122,
  "\u2581mo\u015ftenire": 6123,
  "dar": 6124,
  "\u2581familiei": 6125,
  "\u2581m\u0103dulare": 6126,
  "\u2581U": 6127,
  "\u2581gol": 6128,
  "\u0103rit": 6129,
  "\u2581\u00eenchin": 6130,
  "\u2581copila\u015fi": 6131,
  "\u2581\u00eent\u0103rit": 6132,
  "\u2581lucra": 6133,
  "Isus": 6134,
  "Fiul": 6135,
  "\u2581scaune": 6136,
  "\u2581na\u015fte": 6137,
  "\u2581cap\u0103t": 6138,
  "\u2581sf\u0103tui": 6139,
  "\u2581nevoi": 6140,
  "\u2581deoseb": 6141,
  "\u2581\u00eentorc": 6142,
  "\u2581apuc": 6143,
  "\u2581Cezar": 6144,
  "\u2581Sobor": 6145,
  "\u2581lip": 6146,
  "\u2581ostene": 6147,
  "\u2581slujea": 6148,
  "\u2581Atotputernic": 6149,
  "\u2581Betania": 6150,
  "\u2581Paradis": 6151,
  "\u2581argint": 6152,
  "\u2581boga\u0163i": 6153,
  "\u2581cheltui": 6154,
  "\u2581conduc\u0103tor": 6155,
  "\u2581deodat\u0103": 6156,
  "\u2581deoparte": 6157,
  "\u2581duhovnice\u015fti": 6158,
  "\u2581frunte": 6159,
  "\u2581informa\u021bii": 6160,
  "\u2581mincinos": 6161,
  "\u2581nelegiuire": 6162,
  "\u2581odinioar\u0103": 6163,
  "\u2581pl\u00eens": 6164,
  "\u2581prisos": 6165,
  "\u2581sabie": 6166,
  "\u2581sf\u00e2nt": 6167,
  "\u2581s\u00e2nge": 6168,
  "\u2581fecioar": 6169,
  "\u2581f\u0103\u0163arnici": 6170,
  "\u2581ispr\u0103vit": 6171,
  "\u2581nespus": 6172,
  "\u2581Iosia": 6173,
  "\u2581t\u0103rie": 6174,
  "\u2581porci": 6175,
  "\u2581frig": 6176,
  "\u2581v\u0103duv\u0103": 6177,
  "\u2581discut": 6178,
  "\u2581spiritual": 6179,
  "\u2581suferin\u0163e": 6180,
  "\u2581mun\u0163i": 6181,
  "\u2581d\u0103duse": 6182,
  "\u2581sunet": 6183,
  "\u2581r\u0103s\u0103rit": 6184,
  "\u2581ziu\u0103": 6185,
  "\u2581lips\u0103": 6186,
  "\u2581deloc": 6187,
  "\u2581simt": 6188,
  "\u2581rege": 6189,
  "\u2581dou\u0103zeci": 6190,
  "\u2581pecete": 6191,
  "\u2581\u015ftire": 6192,
  "\u2581leg\u0103m\u00eentul": 6193,
  "\u2581cuiva": 6194,
  "\u2581ucis": 6195,
  "Fapt": 6196,
  "\u2581singurul": 6197,
  "\u2581\u00eemp\u0103ra\u0163ilor": 6198,
  "\u2581jertfit": 6199,
  "\u2581praznicului": 6200,
  "\u0103rui": 6201,
  "\u2581\u00eens\u0103\u015f": 6202,
  "\u2581preo\u0163ilor": 6203,
  "\u2581d\u0103dea": 6204,
  "\u2581\u00eenve\u021b": 6205,
  "\u2581p\u0103strat": 6206,
  "\u2581certuri": 6207,
  "\u2581tat\u0103": 6208,
  "atea": 6209,
  "\u2581f\u0103ceau": 6210,
  "\u2581harului": 6211,
  "\u2581bat\u0103": 6212,
  "\u2581purta\u0163i": 6213,
  "\u2581st\u0103p\u00een": 6214,
  "\u2581semnele": 6215,
  "\u2581beau": 6216,
  "\u2581iertate": 6217,
  "\u2581zidire": 6218,
  "\u2581cunoa\u015ftem": 6219,
  "!\u201d": 6220,
  "\u2581icoane": 6221,
  "\u2581necurate": 6222,
  "Locul": 6223,
  "\u2581drac": 6224,
  "\u2581aducem": 6225,
  "\u2581pl\u00eeng": 6226,
  "\u2581Aceste": 6227,
  "\u2581tr\u0103it": 6228,
  "\u2581lucr\u0103tori": 6229,
  "\u2581sinagogii": 6230,
  "\u2581dorit": 6231,
  "\u2581vieri": 6232,
  "\u2581m\u0103dularel": 6233,
  "\u2581femeii": 6234,
  "\u2581vre": 6235,
  "\u2581trec": 6236,
  "\u2581sfat": 6237,
  "\u2581\u00eeng\u0103dui": 6238,
  "itate": 6239,
  "\u2581str\u0103ini": 6240,
  "\u2581mul\u0163\u0103mi": 6241,
  "\u2581Fii": 6242,
  "nt\u0103": 6243,
  "\u2581ascultare": 6244,
  "\u2581modul": 6245,
  "venit": 6246,
  "\u2581m\u00eentuire": 6247,
  "\u2581m\u0103sur": 6248,
  "\u2581os\u00eendi": 6249,
  "\u2581cet\u0103\u0163i": 6250,
  "\u2581ur\u00ee": 6251,
  "\u2581acele": 6252,
  "\u021bine": 6253,
  "\u2581r\u0103t\u0103c": 6254,
  "\u2581pofti": 6255,
  "\u2581lucr\u0103ri": 6256,
  "\u2581\u00eemp\u0103ra\u0163i": 6257,
  "\u2581vame\u015f": 6258,
  "\u2581spirit": 6259,
  "\u2581drag": 6260,
  "\u2581sfe\u015fnic": 6261,
  "Binecuv\u00eentat": 6262,
  "ebedei": 6263,
  "ul\u0163\u0103mesc": 6264,
  "\u2581Cristos": 6265,
  "\u2581Cuv\u00e2nt": 6266,
  "\u2581Ierihon": 6267,
  "\u2581M\u0103slinilor": 6268,
  "\u2581ad\u0103uga": 6269,
  "\u2581burdufuri": 6270,
  "\u2581celelalte": 6271,
  "\u2581cl\u0103tina": 6272,
  "\u2581degrab\u0103": 6273,
  "\u2581desbinat": 6274,
  "\u2581domnul": 6275,
  "\u2581explic": 6276,
  "\u2581m\u0103g\u0103ru\u015f": 6277,
  "\u2581paradis": 6278,
  "\u2581rudele": 6279,
  "\u2581r\u0103splat\u0103": 6280,
  "\u2581r\u0103zboaie": 6281,
  "\u2581talan\u0163i": 6282,
  "\u2581Baraba": 6283,
  "\u2581activit": 6284,
  "\u2581p\u0103zeasc\u0103": 6285,
  "\u2581surori": 6286,
  "\u2581\u00eenainta": 6287,
  "\u2581cinsti": 6288,
  "\u2581promis": 6289,
  "\u00cenainte": 6290,
  "\u2581temelia": 6291,
  "\u2581f\u0103r\u0103mituri": 6292,
  "\u2581p\u0103stor": 6293,
  "\u2581interes": 6294,
  "\u2581pu\u021bin": 6295,
  "\u2581curvar": 6296,
  "\u2581sosit": 6297,
  "\u2581grec": 6298,
  "\u2581cadou": 6299,
  "\u2581\u0163ar\u0103": 6300,
  "\u2581dorin\u0163": 6301,
  "\u2581m\u00eene": 6302,
  "\u2581slov": 6303,
  "\u2581r\u00eenduial": 6304,
  "Veni\u0163i": 6305,
  "\u2581net\u0103ia": 6306,
  "\u2581adun\u0103": 6307,
  "\u2581Al\u0163ii": 6308,
  "\u2581ramuri": 6309,
  "\u2581Dimpotriv\u0103": 6310,
  "\u2581socoteal": 6311,
  "\u2581sub": 6312,
  "\u2581\u015fterg": 6313,
  "\u2581Pot": 6314,
  "\u2581suntem": 6315,
  "\u2581acoperit": 6316,
  "\u2581iubea": 6317,
  "\u2581tunet": 6318,
  "\u2581\u00eemp\u0103c": 6319,
  "\u2581locuri": 6320,
  "\u2581\u00eengrijora\u0163i": 6321,
  "\u2581coco\u015ful": 6322,
  "\u2581umbl\u00eend": 6323,
  "\u2581p\u0103s\u0103rile": 6324,
  "\u2581\u00eent\u00e2mplat": 6325,
  "\u2581foamete": 6326,
  "\u2581p\u0103c\u0103tuie\u015fte": 6327,
  "\u2581sol": 6328,
  "\u2581dore\u0219te": 6329,
  "\u2581persoan\u0103": 6330,
  "\u2581trupurile": 6331,
  "\u2581petrecut": 6332,
  "\u2581dumnezei": 6333,
  "\u2581Fiu": 6334,
  "\u2581ierta\u0163i": 6335,
  "\u2581urechea": 6336,
  "\u2581Nicidecum": 6337,
  "\u2581\u00eencercare": 6338,
  "\u2581sf\u0103tuit": 6339,
  "\u2581bucura\u0163i": 6340,
  "\u2581Scripturile": 6341,
  "\u2581puterile": 6342,
  "\u2581\u015etim": 6343,
  "\u2581\u00een\u0163elege\u0163i": 6344,
  "\u2581hot\u0103r\u00eere": 6345,
  "\u2581purtat": 6346,
  "\u2581petrece": 6347,
  "\u2581nunt\u0103": 6348,
  "\u2581deveni": 6349,
  "\u2581vis": 6350,
  "\u2581mergem": 6351,
  "\u2581chin": 6352,
  "\u2581lucrat": 6353,
  "\u2581descoperi": 6354,
  "\u2581temeau": 6355,
  "\u2581\u00een\u015fele": 6356,
  "\u2581tinere": 6357,
  "\u2581vorbi\u0163i": 6358,
  "\u2581cad\u0103": 6359,
  "\u2581iubitul": 6360,
  "\u2581v\u00eentul": 6361,
  "\u2581e\u0219ti": 6362,
  "\u2581m\u00eeniei": 6363,
  "\u2581aten": 6364,
  "``;": 6365,
  "\u2581sloboz": 6366,
  "\u2581izb\u0103vit": 6367,
  "\u2581izb\u0103vi": 6368,
  "\u00cenv\u0103\u0163\u0103torul": 6369,
  "\u2581fal": 6370,
  "ver": 6371,
  "\u2581g\u00eendea": 6372,
  "\u2581bog\u0103\u0163ii": 6373,
  "\u2581oferi": 6374,
  "uz": 6375,
  "c\u00eet": 6376,
  "bui": 6377,
  "rezi": 6378,
  "\u2581r\u0103scump\u0103ra": 6379,
  "\u2581vorbiri": 6380,
  "\u2581str\u00eeng": 6381,
  "\u2581p\u0103rin\u0163i": 6382,
  "en\u021bi": 6383,
  "Pentru": 6384,
  "\u2581v\u00eenturi": 6385,
  "\u2581s\u0103rac": 6386,
  "\u2581doved": 6387,
  "Din": 6388,
  "ocmai": 6389,
  "socote\u015fte": 6390,
  "\u2581gre\u015f": 6391,
  "\u2581striga": 6392,
  "\u2581fericit": 6393,
  "\u2581afl\u0103": 6394,
  "\u2581f\u0103g\u0103duin\u0163e": 6395,
  "\u2581foame": 6396,
  "\u2581r\u0103stign": 6397,
  "Oameni": 6398,
  "Ast\u0103zi": 6399,
  "\u2581cuno\u015fti": 6400,
  "\u2581\u00eembog\u0103\u0163": 6401,
  "\u2581Agripa": 6402,
  "\u2581Apolo": 6403,
  "\u2581Betleem": 6404,
  "\u2581Iscarioteanul": 6405,
  "\u2581Magdalina": 6406,
  "\u2581Preot": 6407,
  "\u2581Prooroci": 6408,
  "\u2581Pruncul": 6409,
  "\u2581P\u0103rin\u0163i": 6410,
  "\u2581cor\u0103bii": 6411,
  "\u2581cre\u0219tin": 6412,
  "\u2581cunoasc\u0103": 6413,
  "\u2581diferit": 6414,
  "\u2581discipoli": 6415,
  "\u2581dobitoace": 6416,
  "\u2581frumoase": 6417,
  "\u2581frumoas\u0103": 6418,
  "\u2581gre\u0219it": 6419,
  "\u2581lacr\u0103mi": 6420,
  "\u2581laolalt\u0103": 6421,
  "\u2581necredincio\u015fi": 6422,
  "\u2581nelegiui\u0163i": 6423,
  "\u2581pedeapsa": 6424,
  "\u2581piciorul": 6425,
  "\u2581poc\u0103in\u0163\u0103": 6426,
  "\u2581pogoare": 6427,
  "\u2581st\u00eenc\u0103": 6428,
  "\u2581st\u00eenga": 6429,
  "\u2581umple": 6430,
  "\u2581\u00eembr\u0103c\u0103minte": 6431,
  "\u2581\u00eenchipui": 6432,
  "\u2581\u00eenc\u0103l\u0163\u0103minte": 6433,
  "\u2581\u00eentemni\u0163at": 6434,
  "\u2581\u015etefan": 6435,
  "\u2581\u015fchiop": 6436,
  "\u2581Apostol": 6437,
  "\u2581Poate": 6438,
  "\u2581b\u0103iat": 6439,
  "\u2581Rege": 6440,
  "\u2581doresc": 6441,
  "\u2581plata": 6442,
  "\u2581prefac": 6443,
  "\u2581supu\u015fi": 6444,
  "\u2581gre\u015feli": 6445,
  "\u2581t\u00eer\u00ee": 6446,
  "\u2581afli": 6447,
  "Evrei": 6448,
  "\u2581izvo": 6449,
  "\u2581to\u021bi": 6450,
  "\u2581pustiu": 6451,
  "\u2581vedenie": 6452,
  "\u2581St\u0103p\u00eenul": 6453,
  "\u2581piar\u0103": 6454,
  "\u2581ocar\u0103": 6455,
  "\u2581certat": 6456,
  "\u2581A\u0219a": 6457,
  "raducere": 6458,
  "\u2581somn": 6459,
  "\u2581scopul": 6460,
  "Marcu": 6461,
  "\u2581repede": 6462,
  "\u2581l\u0103ud\u0103m": 6463,
  "\u2581pustii": 6464,
  "\u2581c\u00ee\u015ftiga": 6465,
  "\u2581lemn": 6466,
  "\u2581deosebire": 6467,
  "\u2581gr\u0103i": 6468,
  "\u2581m\u00eentuirii": 6469,
  "\u2581u\u015fi": 6470,
  "\u2581Norodul": 6471,
  "\u2581taie": 6472,
  "\u2581\u00eencercat": 6473,
  "\u2581\u00eemp\u0103ratului": 6474,
  "\u2581z\u0103darnic": 6475,
  "\u2581p\u00eentecele": 6476,
  "\u2581despart\u0103": 6477,
  "\u2581praznicul": 6478,
  "\u2581idolilor": 6479,
  "\u2581Aduce\u0163i": 6480,
  "\u2581afl\u0103m": 6481,
  "\u2581minciun\u0103": 6482,
  "\u2581b\u0103tr\u00eenilor": 6483,
  "\u2581ascultau": 6484,
  "apt\u0103": 6485,
  "D\u0103": 6486,
  "\u2581\u00eengerilor": 6487,
  "\u2581frunta\u015fi": 6488,
  "\u2581umble": 6489,
  "\u2581privito": 6490,
  "\u2581auzul": 6491,
  "\u2581slujim": 6492,
  "\u2581umbl\u0103m": 6493,
  "\u2581clip\u0103": 6494,
  "\u2581umbla\u0163i": 6495,
  "\u2581rodul": 6496,
  "\u2581\u00eentunerecul": 6497,
  "\u2581sam\u0103n\u0103": 6498,
  "\u2581jur\u0103": 6499,
  "\u2581ucenicul": 6500,
  "\u2581t\u00eelhari": 6501,
  "\u2581albe": 6502,
  "\u2581mirau": 6503,
  "\u2581mo\u015ftenitori": 6504,
  "enilor": 6505,
  "\u2581cerurile": 6506,
  "Bine": 6507,
  "\u2581judece": 6508,
  "Vezi": 6509,
  "\u00eenc": 6510,
  "\u2581spunem": 6511,
  "tro": 6512,
  "lim": 6513,
  "\u2581umbl": 6514,
  "\u2581vr\u0103jma\u015f": 6515,
  "\u2581uit\u0103": 6516,
  "\u2581arunc\u0103": 6517,
  "\u2581sufl": 6518,
  "\u2581ho": 6519,
  "\u2581aduna": 6520,
  "\u2581\u00eembr\u0103ca": 6521,
  "\u2581pofte": 6522,
  "\u2581r\u0103m\u00een": 6523,
  "\u2581desp\u0103r\u0163i": 6524,
  "\u2581scri": 6525,
  "\u2581b\u0103tr\u00een": 6526,
  "Acum": 6527,
  "Dup\u0103": 6528,
  "\u2581ru\u015fin": 6529,
  "\u2581pricepe": 6530,
  "\u2581uci": 6531,
  "\u2581temni\u0163": 6532,
  "\u2581praznic": 6533,
  "\u2581\u00eencep": 6534,
  "\u2581probleme": 6535,
  "\u2581str\u0103lucit": 6536,
  "\u2581cuno\u0219ti": 6537,
  "\u2581adever": 6538,
  "\u2581sf\u00eer\u015f": 6539,
  "\u2581prosl\u0103v": 6540,
  "o\u0163ul": 6541,
  "St\u0103p\u00een": 6542,
  "\u2581public": 6543,
  "\u2581odihni": 6544,
  "\u2581Fra\u0163ii": 6545,
  "\u2581Locuin\u0163": 6546,
  "\u2581Mesia": 6547,
  "\u2581Osta\u015fii": 6548,
  "\u2581Tesalonic": 6549,
  "\u2581acoperi\u015ful": 6550,
  "\u2581cel\u0103lalt": 6551,
  "\u2581cunoa\u0219te": 6552,
  "\u2581deam\u0103runtul": 6553,
  "\u2581desbr\u0103cat": 6554,
  "\u2581f\u00eent\u00een": 6555,
  "\u2581genunchi": 6556,
  "\u2581hran\u0103": 6557,
  "\u2581membri": 6558,
  "\u2581perfect": 6559,
  "\u2581poarta": 6560,
  "\u2581poruncesc": 6561,
  "\u2581porunce\u015ft": 6562,
  "\u2581posibil": 6563,
  "\u2581pretutindeni": 6564,
  "\u2581pr\u00eenz": 6565,
  "\u2581p\u00eenz\u0103": 6566,
  "\u2581roag\u0103": 6567,
  "\u2581seceri\u015ful": 6568,
  "\u2581strige": 6569,
  "\u2581supune": 6570,
  "\u2581toiag": 6571,
  "\u2581trestie": 6572,
  "\u2581tr\u00eembi\u0163\u0103": 6573,
  "\u2581\u00eempiedic": 6574,
  "\u2581ajutoare": 6575,
  "\u2581celorlal\u0163i": 6576,
  "\u2581cobor\u00ee": 6577,
  "\u2581cuprins": 6578,
  "\u2581mereu": 6579,
  "\u2581necredincios": 6580,
  "\u2581pecetlui": 6581,
  "\u2581protivnic": 6582,
  "\u2581prunci": 6583,
  "\u2581sarcin": 6584,
  "\u2581Ad\u00eenc": 6585,
  "\u2581ascul\u0163i": 6586,
  "\u2581semin\u0163e": 6587,
  "\u2581Robul": 6588,
  "\u2581cercetez": 6589,
  "\u2581coarne": 6590,
  "\u2581acord": 6591,
  "\u2581am\u00eendoi": 6592,
  "\u2581bun\u0103voin\u0163": 6593,
  "\u2581urgii": 6594,
  "\u2581scurt": 6595,
  "\u2581\u0219coal\u0103": 6596,
  "\u2581strop": 6597,
  "\u2581loial": 6598,
  "\u2581pomeni": 6599,
  "\u2581Toma": 6600,
  "\u2581adormit": 6601,
  "\u2581cur\u00e2nd": 6602,
  "\u2581sup\u0103r": 6603,
  "\u2581vechime": 6604,
  "\u2581famen": 6605,
  "\u2581dureril": 6606,
  "\u2581urmeaz\u0103": 6607,
  "\u2581secer\u0103": 6608,
  "\u2581\u015faselea": 6609,
  "\u2581des\u0103v\u00eer\u015fi\u0163i": 6610,
  "\u2581\u00eempart": 6611,
  "\u258122": 6612,
  "\u2581al\u021bii": 6613,
  "\u2581treizeci": 6614,
  "\u2581m\u00eentuiasc\u0103": 6615,
  "\u2581predicare": 6616,
  "\u2581smerit": 6617,
  "\u2581privin\u0163ele": 6618,
  "\u2581secera": 6619,
  "\u2581hule": 6620,
  "\u2581loca\u015f": 6621,
  "\u2581turnat": 6622,
  "\u2581urme": 6623,
  "\u2581grele": 6624,
  "\u2581diavolului": 6625,
  "\u2581silit": 6626,
  "\u2581propov\u0103duiasc\u0103": 6627,
  "\u2581leg\u0103m\u00eentului": 6628,
  "\u2581\u0163\u0103rm": 6629,
  "\u2581bir": 6630,
  "Hai": 6631,
  "\u2581acopere": 6632,
  "\u2581nuiele": 6633,
  "\u2581s\u0103racilor": 6634,
  "\u2581dracilor": 6635,
  "\u2581sl\u0103vit": 6636,
  "rbele": 6637,
  "\u2581uita\u0163i": 6638,
  "\u2581deja": 6639,
  "\u2581\u00cencolo": 6640,
  "\u2581\u00eenv\u0103\u0163\u0103turile": 6641,
  "\u2581arunca\u0163i": 6642,
  "\u2581focului": 6643,
  "\u2581\u00eemp\u0103ratul": 6644,
  "\u2581robului": 6645,
  "\u2581mal": 6646,
  "\u2581Uit": 6647,
  "\u2581vindeau": 6648,
  "\u00e2ndu": 6649,
  "\u2581pahar": 6650,
  "\u2581Vreau": 6651,
  "\u2581\u00eenv\u0103\u021bat": 6652,
  "tic\u0103": 6653,
  "\u2581p\u00eenile": 6654,
  "\u2581sor\u0163i": 6655,
  "\u2581suferi\u0163i": 6656,
  "\u2581studie": 6657,
  "\u2581cheme": 6658,
  "\u2581primise": 6659,
  "\u2581propov\u0103duim": 6660,
  "\u2581cereasc\u0103": 6661,
  "\u2581izb\u0103v": 6662,
  "\u2581\u00eenf\u0103\u0163i\u015fare": 6663,
  "\u2581nasc\u0103": 6664,
  "\u2581\u015ftiut": 6665,
  "\u2581a\u015fez": 6666,
  "\u2581\u00eemp\u0103r\u0103\u0163ie": 6667,
  "\u2581\u021bin": 6668,
  "\u2581copila\u015f": 6669,
  "\u2581apostolul": 6670,
  "\u2581acel": 6671,
  "\u2581ofer": 6672,
  "\u2581calc": 6673,
  "\u2581preg\u0103t": 6674,
  "\u2581m\u0103rturise\u015ft": 6675,
  "\u2581balaurul": 6676,
  "\u2581dracul": 6677,
  "\u2581\u0163ip": 6678,
  "\u2581pl\u0103ce": 6679,
  "\u2581pomul": 6680,
  "\u2581martor": 6681,
  "\u2581m\u0103rturisire": 6682,
  "\u2581ur\u00eet": 6683,
  "\u2581m\u00eeng\u00eeie": 6684,
  "\u2581acestui": 6685,
  "\u2581m\u0103n\u00eenc": 6686,
  "earg\u0103": 6687,
  "Toat": 6688,
  "\u00cemp\u0103r\u0103\u0163ia": 6689,
  "C\u00eet": 6690,
  "pentru": 6691,
  "\u2581folosit": 6692,
  "Spune\u0163i": 6693,
  "\u2581omor": 6694,
  "\u2581p\u0103rul": 6695,
  "\u2581gloat": 6696,
  "\u2581desleg": 6697,
  "\u2581p\u00eentece": 6698,
  "\u2581r\u0103bda": 6699,
  "mpreun\u0103": 6700,
  "\u2581turn": 6701,
  "\u2581\u00eenfr\u00een": 6702,
  "\u2581turb": 6703,
  "\u2581\u00eens\u0103rcin": 6704,
  "\u2581\u00eendr\u0103znea": 6705,
  "Asculta\u0163i": 6706,
  "\u2581asem\u0103n\u0103to": 6707,
  "\u2581imagin": 6708,
  "\u2581r\u0103bd\u0103to": 6709,
  "\u2581r\u0103zbun": 6710,
  "\u2581vicle\u015fug": 6711,
  "\u2581vr\u0103jitor": 6712,
  "iminea\u0163a": 6713,
  "\u2581Caiafa": 6714,
  "\u2581Chifa": 6715,
  "\u2581Lumina": 6716,
  "\u2581Melhisedec": 6717,
  "\u2581Mul\u0163\u0103mi": 6718,
  "\u2581Roag\u0103": 6719,
  "\u2581Veghea\u0163i": 6720,
  "\u2581b\u0103rb\u0103teasc\u0103": 6721,
  "\u2581congres": 6722,
  "\u2581deschid\u0103": 6723,
  "\u2581deslu\u015fit": 6724,
  "\u2581diminea\u0163\u0103": 6725,
  "\u2581evlavia": 6726,
  "\u2581evlavie": 6727,
  "\u2581gr\u0103unte": 6728,
  "\u2581hrana": 6729,
  "\u2581ispit\u0103": 6730,
  "\u2581israeli\u0163i": 6731,
  "\u2581m\u00eehn": 6732,
  "\u2581nop\u0163ii": 6733,
  "\u2581odihn\u0103": 6734,
  "\u2581pl\u0103cu\u0163i": 6735,
  "\u2581pofta": 6736,
  "\u2581pruncul": 6737,
  "\u2581pr\u0103bu\u015fi": 6738,
  "\u2581scr\u00ee\u015fn": 6739,
  "\u2581scuipa": 6740,
  "\u2581sl\u0103biciuni": 6741,
  "\u2581s\u0103n\u0103toas\u0103": 6742,
  "\u2581uciga\u015f": 6743,
  "\u2581v\u0103zuser\u0103": 6744,
  "\u2581zeciuial\u0103": 6745,
  "\u2581\u00eendrepta": 6746,
  "\u2581\u00eeng\u00eemf": 6747,
  "\u2581\u00eentrista\u0163i": 6748,
  "Revela": 6749,
  "\u2581avu\u0163i": 6750,
  "\u2581p\u0103g\u00een": 6751,
  "\u2581str\u0103b\u0103t": 6752,
  "\u2581t\u00eelm\u0103cit": 6753,
  "\u2581comoar": 6754,
  "\u2581partid": 6755,
  "\u2581publica\u021bii": 6756,
  "\u2581sincer": 6757,
  "\u2581s\u0103pt\u0103m\u00een": 6758,
  "\u2581altmint": 6759,
  "\u2581conduce": 6760,
  "\u2581cru\u0163": 6761,
  "\u2581fluier": 6762,
  "\u2581omene\u015fti": 6763,
  "\u2581boli": 6764,
  "\u2581sim\u021bi": 6765,
  "\u2581jug": 6766,
  "\u2581nec\u0103j": 6767,
  "\u2581\u00eencins": 6768,
  "\u2581\u00eenso\u0163it": 6769,
  "\u2581p\u0103zea": 6770,
  "\u2581animal": 6771,
  "\u2581oricui": 6772,
  "\u2581Iope": 6773,
  "\u2581acelora": 6774,
  "\u2581bl\u00eend": 6775,
  "\u2581aceluia": 6776,
  "\u2581dorea": 6777,
  "\u2581juca": 6778,
  "\u2581fidel": 6779,
  "\u2581form": 6780,
  "\u2581dreg\u0103torilor": 6781,
  "\u2581\u00een\u015ftiin\u0163": 6782,
  "\u2581cauza": 6783,
  "\u2581at\u00eern": 6784,
  "\u2581r\u0103ni": 6785,
  "\u2581c\u0103r\u021bi": 6786,
  "\u2581preacurve\u015fti": 6787,
  "\u2581ap\u0103rare": 6788,
  "\u2581nebunie": 6789,
  "\u2581nou\u0103lea": 6790,
  "\u2581\u00eent\u0103rea": 6791,
  "\u2581r\u00e2nd": 6792,
  "\u2581na\u015fterii": 6793,
  "\u2581curte": 6794,
  "\u2581dore\u015ft": 6795,
  "\u2581trimis": 6796,
  "\u2581\u00eenconjurat": 6797,
  "\u2581\u00eengropat": 6798,
  "\u2581privea": 6799,
  "\u2581vame\u015fii": 6800,
  "\u2581st\u0103p\u00eenit": 6801,
  "\u2581P\u0103storul": 6802,
  "\u2581adunarea": 6803,
  "\u2581zisese": 6804,
  "\u2581r\u0103scoal\u0103": 6805,
  "\u2581strig\u0103t": 6806,
  "\u2581ro\u015f": 6807,
  "\u2581Capul": 6808,
  "nor": 6809,
  "\u2581avere": 6810,
  "\u2581\u00eentrebuin\u0163are": 6811,
  "\u2581fiara": 6812,
  "\u2581p\u00eer\u00ee\u015f": 6813,
  "\u2581mirele": 6814,
  "\u2581zidi\u0163i": 6815,
  "\u2581problemele": 6816,
  "\u2581trez": 6817,
  "\u2581f\u0103g\u0103duin\u0163ele": 6818,
  "\u2581r\u0103t\u0103cire": 6819,
  "\u2581\u00cenalt": 6820,
  "\u2581b\u0103tr\u00e2n": 6821,
  "IA": 6822,
  "\u2581propov\u0103duiesc": 6823,
  "\u2581minune": 6824,
  "\u2581m\u00eencau": 6825,
  "\u2581Satanei": 6826,
  "\u2581r\u0103m\u00e2ne": 6827,
  "\u2581propov\u0103duie\u015fte": 6828,
  "\u2581schimbat": 6829,
  "\u2581os\u00eendi\u0163i": 6830,
  "\u2581Israeli\u0163i": 6831,
  "\u2581gr\u00eeul": 6832,
  "\u2581asi": 6833,
  "\u2581poc\u0103it": 6834,
  "\u2581furi": 6835,
  "\u2581minunile": 6836,
  "\u2581\u0163ine\u0163i": 6837,
  "\u2581picioarelor": 6838,
  "\u2581omor\u00ee\u0163i": 6839,
  "\u2581pl\u00eenge\u0163i": 6840,
  "\u2581cur\u0103\u0163i\u0163i": 6841,
  "\u2581l\u0103s": 6842,
  "\u2581sco": 6843,
  "\u2581curs": 6844,
  "\u2581fapt\u0103": 6845,
  "\u2581schimb\u0103ri": 6846,
  "\u2581batjocorit": 6847,
  "oritate": 6848,
  "\u2581m\u00eeniat": 6849,
  "\u2581desp\u0103r\u0163it": 6850,
  "\u2581pl\u0103ceri": 6851,
  "eace": 6852,
  "\u2581str\u0103lucire": 6853,
  "\u2581descoperire": 6854,
  "\u2581ispravnic": 6855,
  "10": 6856,
  "\u2581mint": 6857,
  "\u2581sfaturi": 6858,
  "\u2581c\u0103lcat": 6859,
  "ific": 6860,
  "\u2581dedic": 6861,
  "lips": 6862,
  "\u2581poruncise": 6863,
  "Do": 6864,
  "S\u00eent": 6865,
  "\u2581cinste\u015ft": 6866,
  "\u2581scaun": 6867,
  "\u2581str\u0103luci": 6868,
  "\u2581sfin\u0163it": 6869,
  "inc": 6870,
  "Atunci": 6871,
  "A\u015fa": 6872,
  "\u2581Numel": 6873,
  "\u2581f\u0103cu": 6874,
  "\u2581luna": 6875,
  "\u2581lovi": 6876,
  "\u2581Regat": 6877,
  "\u2581\u00een\u0103l\u0163a": 6878,
  "\u2581prigonit": 6879,
  "\u2581\u00eengrijor": 6880,
  "\u2581Corint": 6881,
  "mprejur": 6882,
  "\u2581\u00eengrop": 6883,
  "\u2581putrezi": 6884,
  "\u2581\u00eenmul\u0163": 6885,
  "nsemnat": 6886,
  "\u00cendr\u0103zn": 6887,
  "\u2581alc\u0103tui": 6888,
  "\u2581instrui": 6889,
  "\u2581j\u0103fui": 6890,
  "\u2581t\u0103m\u00eeie": 6891,
  "Femeie": 6892,
  "deamn\u0103": 6893,
  "dinadinsul": 6894,
  "\u2581Corneliu": 6895,
  "\u2581Elisaveta": 6896,
  "\u2581Noroadele": 6897,
  "\u2581Sfinte": 6898,
  "\u2581aprozii": 6899,
  "\u2581ascu\u0163it": 6900,
  "\u2581a\u0163\u00ee\u0163": 6901,
  "\u2581crezuser\u0103": 6902,
  "\u2581c\u0103s\u0103toreasc\u0103": 6903,
  "\u2581c\u0103s\u0103torie": 6904,
  "\u2581deasemenea": 6905,
  "\u2581descopere": 6906,
  "\u2581dob\u00eend": 6907,
  "\u2581duhovniceasc\u0103": 6908,
  "\u2581duhovnicesc": 6909,
  "\u2581fierbinte": 6910,
  "\u2581foloase": 6911,
  "\u2581furtun": 6912,
  "\u2581gr\u0103dina": 6913,
  "\u2581ispiteasc\u0103": 6914,
  "\u2581margine": 6915,
  "\u2581ml\u0103di\u0163": 6916,
  "\u2581mrejile": 6917,
  "\u2581nev\u0103zut": 6918,
  "\u2581n\u0103scu\u0163i": 6919,
  "\u2581piard\u0103": 6920,
  "\u2581poc\u0103in\u0163a": 6921,
  "\u2581purpur\u0103": 6922,
  "\u2581r\u0103spunzi": 6923,
  "\u2581r\u0103sp\u00eendit": 6924,
  "\u2581sfin\u0163enie": 6925,
  "\u2581slobozenia": 6926,
  "\u2581slujnic": 6927,
  "\u2581straj\u0103": 6928,
  "\u2581veche": 6929,
  "\u2581v\u00eerst\u0103": 6930,
  "\u2581\u00eemplinesc": 6931,
  "\u2581\u00eempline\u015ft": 6932,
  "\u2581\u00eemprejurimile": 6933,
  "\u2581\u00eempr\u0103\u015ftia": 6934,
  "\u2581\u00eenchide": 6935,
  "\u2581\u00eendruma": 6936,
  "\u2581\u00eenduplec": 6937,
  "\u2581\u00eenf\u0103\u015f": 6938,
  "\u2581\u00eent\u00eelni": 6939,
  "\u2581c\u00eertea": 6940,
  "\u2581invit\u0103": 6941,
  "\u2581roada": 6942,
  "\u2581r\u0103m\u0103\u015fi\u0163": 6943,
  "\u2581Cipru": 6944,
  "\u2581P\u00eenea": 6945,
  "\u2581turma": 6946,
  "\u2581altceva": 6947,
  "\u2581cunun\u0103": 6948,
  "\u2581nicidecum": 6949,
  "\u2581\u00eenl\u0103tur": 6950,
  "\u2581b\u0103utur\u0103": 6951,
  "\u2581credin\u021b\u0103": 6952,
  "\u2581p\u0103rt\u0103\u015fi": 6953,
  "\u2581cur\u0103\u0163e\u015ft": 6954,
  "\u2581a\u0219tept": 6955,
  "L\u0103sa\u0163i": 6956,
  "\u2581cununa": 6957,
  "\u2581Pa\u015ftelor": 6958,
  "\u2581magi": 6959,
  "\u2581omenesc": 6960,
  "\u2581Siria": 6961,
  "\u2581\u00eenvieze": 6962,
  "\u2581regat": 6963,
  "\u2581stinge": 6964,
  "\u2581vars\u0103": 6965,
  "\u2581f\u0103c\u0103tor": 6966,
  "\u2581lesne": 6967,
  "\u2581g\u00e2ndim": 6968,
  "\u2581masa": 6969,
  "\u2581tem\u0103tor": 6970,
  "\u2581zdr": 6971,
  "\u2581v\u00eend\u0103": 6972,
  "\u2581s\u0103dit": 6973,
  "Putem": 6974,
  "\u2581ucizi": 6975,
  "\u2581cump\u0103r\u0103": 6976,
  "\u2581tras": 6977,
  "\u2581p\u0103timeasc\u0103": 6978,
  "\u2581ex": 6979,
  "\u2581firesc": 6980,
  "\u2581clar": 6981,
  "\u2581m\u00e2nca": 6982,
  "\u2581des\u0103v\u00eer\u015fire": 6983,
  "\u2581nedreptate": 6984,
  "\u2581\u00eent\u0103r\u00eetat": 6985,
  "\u2581sf\u0103tuiesc": 6986,
  "Ferici": 6987,
  "\u2581p\u00eer\u00eet": 6988,
  "\u2581ascult\u0103tori": 6989,
  "\u2581\u00eenmul\u0163it": 6990,
  "\u2581uci\u015fi": 6991,
  "\u2581negre\u015fit": 6992,
  "\u2581dreg\u0103torul": 6993,
  "\u2581f\u0103cuser\u0103": 6994,
  "Pa\u015fte": 6995,
  "\u2581veghea\u0163i": 6996,
  "\u2581aluatul": 6997,
  "\u2581p\u0103c\u0103tuire": 6998,
  "\u2581\u00een\u0219el": 6999,
  "\u2581deosebit": 7000,
  "\u2581vaz\u0103": 7001,
  "\u2581Corinteni": 7002,
  "\u2581duhurilor": 7003,
  "\u2581privirile": 7004,
  "\u2581p\u0103c\u0103to\u015filor": 7005,
  "\u2581r\u0103t\u0103cit": 7006,
  "\u2581m\u00eenilor": 7007,
  "\u2581c\u00eent\u0103ri": 7008,
  "\u2581lini\u015fte": 7009,
  "\u2581sfin\u0163irea": 7010,
  "\u2581\u00eentunerecului": 7011,
  "\u2581site": 7012,
  "\u2581proorociei": 7013,
  "Vede\u0163i": 7014,
  "\u2581pofti\u0163i": 7015,
  "Frate": 7016,
  "\u2581mira\u0163i": 7017,
  "\u2581proorocului": 7018,
  "\u2581unge": 7019,
  "\u2581\u00eengerului": 7020,
  "\u2581unsprezece": 7021,
  "\u2581p\u0103rinte": 7022,
  "\u2581datin": 7023,
  "\u2581jertf": 7024,
  "\u2581guri": 7025,
  "\u2581c\u00eermuitor": 7026,
  "\u2581baz": 7027,
  "medi": 7028,
  "pede": 7029,
  "\u2581\u00eenv\u0103\u0163\u0103torul": 7030,
  "\u2581st\u0103p\u00eenitor": 7031,
  "\u2581str\u00eengere": 7032,
  "\u2581cur\u0103\u0163ire": 7033,
  "\u2581\u00eent\u00eemplase": 7034,
  "tima": 7035,
  "\u2581f\u0103g\u0103dui": 7036,
  "\u2581cereri": 7037,
  "din": 7038,
  "\u2581g\u00eenduri": 7039,
  "\u2581\u00eengrije\u015ft": 7040,
  "\u2581c\u0103pitan": 7041,
  "\u2581urm\u0103tor": 7042,
  "Spune": 7043,
  "\u2581sp\u0103la": 7044,
  "\u2581\u00eencrede": 7045,
  "Isaia": 7046,
  "\u2581\u00een\u0163eleg": 7047,
  "Vai": 7048,
  "\u2581minciun": 7049,
  "egre\u015fit": 7050,
  "\u2581\u00eent\u0103r\u00eet": 7051,
  "\u2581s\u0103ruta": 7052,
  "\u2581c\u00eerm": 7053,
  "\u2581p\u0103tim": 7054,
  "\u0103zi\u0163i": 7055,
  "\u2581oridec\u00eete": 7056,
  "\u2581temnicerul": 7057,
  "Niciodat\u0103": 7058,
  "\u2581Ahaia": 7059,
  "\u2581Beelzebul": 7060,
  "\u2581Femeia": 7061,
  "\u2581Iconia": 7062,
  "\u2581Samariteni": 7063,
  "\u2581analiz": 7064,
  "\u2581bizui": 7065,
  "\u2581bog\u0103\u0163ia": 7066,
  "\u2581cl\u0103d": 7067,
  "\u2581cre\u015ftin": 7068,
  "\u2581cuv\u00e2ntul": 7069,
  "\u2581deopotriv\u0103": 7070,
  "\u2581de\u015fert": 7071,
  "\u2581distrus": 7072,
  "\u2581d\u0103inui": 7073,
  "\u2581evreie\u015fte": 7074,
  "\u2581feti\u0163": 7075,
  "\u2581fr\u00eenge": 7076,
  "\u2581f\u0103g\u0103duin\u0163\u0103": 7077,
  "\u2581jum\u0103tate": 7078,
  "\u2581lucr\u0103m": 7079,
  "\u2581l\u0103untru": 7080,
  "\u2581mesaj": 7081,
  "\u2581neascultare": 7082,
  "\u2581necurmat": 7083,
  "\u2581necur\u0103\u0163ie": 7084,
  "\u2581nelegiuiri": 7085,
  "\u2581ne\u00een\u0163elegeri": 7086,
  "\u2581n\u0103p\u00eerc": 7087,
  "\u2581pogoar\u0103": 7088,
  "\u2581purt\u0103m": 7089,
  "\u2581p\u0103zesc": 7090,
  "\u2581roabe": 7091,
  "\u2581r\u00eevna": 7092,
  "\u2581r\u0103d\u0103cina": 7093,
  "\u2581r\u0103d\u0103cin\u0103": 7094,
  "\u2581sinagoga": 7095,
  "\u2581speran\u0163\u0103": 7096,
  "\u2581str\u0103puns": 7097,
  "\u2581s\u0103n\u0103to\u015fi": 7098,
  "\u2581s\u0103rb\u0103toare": 7099,
  "\u2581trimeat\u0103": 7100,
  "\u2581t\u00een\u0103r": 7101,
  "\u2581unghiului": 7102,
  "\u2581vistieria": 7103,
  "\u2581vuietul": 7104,
  "\u2581\u00eembrac": 7105,
  "\u2581\u00eemprumut": 7106,
  "\u2581\u00eemp\u0103r\u0103teas": 7107,
  "\u2581\u00eenfrico\u015fat": 7108,
  "\u2581\u00eenf\u0103\u0163i\u015fez": 7109,
  "\u2581\u00een\u021belege": 7110,
  "S\u0103m\u00een\u0163a": 7111,
  "\u2581consider": 7112,
  "\u2581corect": 7113,
  "\u2581doftor": 7114,
  "\u2581f\u0103r\u0103delegii": 7115,
  "\u2581leap\u0103d\u0103": 7116,
  "\u2581material": 7117,
  "\u2581miaz\u0103zi": 7118,
  "\u2581m\u00eenc\u0103m": 7119,
  "\u2581neascult\u0103tori": 7120,
  "\u2581ocroti": 7121,
  "\u2581osp\u0103\u0163": 7122,
  "\u2581ostrov": 7123,
  "\u2581piron": 7124,
  "\u2581p\u0103rin\u021bi": 7125,
  "\u2581roman": 7126,
  "\u2581sfinte": 7127,
  "\u2581t\u00e2n\u0103r": 7128,
  "\u2581\u00eembulz": 7129,
  "\u2581\u00een\u0103l\u0163ime": 7130,
  "\u2581Betsaid": 7131,
  "\u2581gospod": 7132,
  "\u2581m\u0103slin": 7133,
  "\u2581patriarh": 7134,
  "\u2581treji": 7135,
  "\u2581c\u0103ma\u015fa": 7136,
  "\u2581hulit": 7137,
  "\u2581os\u00eend\u0103": 7138,
  "\u2581prezis": 7139,
  "\u2581\u00eent\u0103reasc\u0103": 7140,
  "\u2581\u0163arin": 7141,
  "\u2581hul\u0103": 7142,
  "\u2581Corpul": 7143,
  "\u2581c\u00eente": 7144,
  "\u2581\u00eencuiat": 7145,
  "\u2581soarelui": 7146,
  "\u2581turm\u0103": 7147,
  "\u2581os\u00eenda": 7148,
  "\u2581Ruga\u0163i": 7149,
  "\u2581creasc\u0103": 7150,
  "\u2581templu": 7151,
  "\u2581P\u0103cat": 7152,
  "\u2581lipse\u015fte": 7153,
  "\u2581Pont": 7154,
  "\u2581existe": 7155,
  "\u2581Face\u0163i": 7156,
  "\u2581corp": 7157,
  "\u2581\u00eens\u0103rcinat\u0103": 7158,
  "\u2581martur": 7159,
  "\u2581Copila\u015fi": 7160,
  "\u2581mu\u015f": 7161,
  "\u2581cununi": 7162,
  "\u2581m\u00eendri": 7163,
  "\u2581Via\u0163": 7164,
  "\u2581potop": 7165,
  "\u2581buze": 7166,
  "\u2581Spre": 7167,
  "\u2581lumineze": 7168,
  "\u2581cuvenit\u0103": 7169,
  "Ridic": 7170,
  "\u2581Numai": 7171,
  "\u2581plin\u0103tatea": 7172,
  "\u2581ora\u015f": 7173,
  "\u2581c\u0103dere": 7174,
  "\u2581auzeau": 7175,
  "Poc\u0103i": 7176,
  "\u2581ogor": 7177,
  "\u2581suferin\u021b\u0103": 7178,
  "\u2581urmeze": 7179,
  "\u2581v\u00eenz\u0103torul": 7180,
  "\u2581a\u015fternut": 7181,
  "\u2581locuin\u0163": 7182,
  "\u2581potol": 7183,
  "\u2581v\u0103t\u0103ma": 7184,
  "\u2581con\u0219ti": 7185,
  "\u2581str\u0103lucitoare": 7186,
  "\u2581G\u00e2nd": 7187,
  "\u2581iarba": 7188,
  "\u2581piept": 7189,
  "\u2581t\u0103cea": 7190,
  "\u2581luminii": 7191,
  "\u2581cincizeci": 7192,
  "\u2581smeri\u0163i": 7193,
  "\u2581\u00eenecat": 7194,
  "\u2581\u00eenalte": 7195,
  "\u2581patrusprezece": 7196,
  "\u2581fata": 7197,
  "g\u0103torii": 7198,
  "\u2581salva": 7199,
  "\u2581coast": 7200,
  "\u2581dreg\u0103torii": 7201,
  "\u2581M\u0103car": 7202,
  "Luca": 7203,
  "\u2581r\u0103stigni\u0163i": 7204,
  "\u2581putrezirea": 7205,
  "\u2581cura\u0163i": 7206,
  "\u2581s\u0103rutare": 7207,
  "\u2581voin\u0163": 7208,
  "\u2581temut": 7209,
  "\u2581patra": 7210,
  "\u2581boi": 7211,
  "\u2581s\u00eengelui": 7212,
  "\u2581Soborului": 7213,
  "\u2581ferici\u0163i": 7214,
  "\u2581din\u0163ilor": 7215,
  "\u2581dreg\u0103torului": 7216,
  "\u2581rostit": 7217,
  "\u2581deslega\u0163i": 7218,
  "\u2581aceleia": 7219,
  "\u2581preacurve\u015fte": 7220,
  "\u2581fete": 7221,
  "\u2581satele": 7222,
  "\u2581lume\u015fti": 7223,
  "\u2581r\u0103pit": 7224,
  "\u2581Adu": 7225,
  "\u2581jurat": 7226,
  "5:2": 7227,
  "\u2581sus\u021bin": 7228,
  "\u2581mul\u021b": 7229,
  "\u2581pie\u0163e": 7230,
  "\u2581gre\u015fal": 7231,
  "\u2581urma\u015f": 7232,
  "leag\u0103": 7233,
  "\u2581mo\u015ftenitor": 7234,
  "\u2581necredin\u0163": 7235,
  "\u2581p\u0103strez": 7236,
  "\u2581valuri": 7237,
  "\u2581vremuril": 7238,
  "\u2581p\u00eende": 7239,
  "suflat": 7240,
  "Bun": 7241,
  "pusti": 7242,
  "\u2581vorbe\u0219t": 7243,
  "rdeau": 7244,
  "\u2581osta\u015f": 7245,
  "\u2581Babilonul": 7246,
  "\u2581cuprind": 7247,
  "\u2581\u00eendemnuri": 7248,
  "\u2581sufer": 7249,
  "\u2581M\u00eentuitor": 7250,
  "Simone": 7251,
  "mpli": 7252,
  "\u2581\u00eensura": 7253,
  "\u2581idol": 7254,
  "Lucr": 7255,
  "Nici": 7256,
  "Laz\u0103r": 7257,
  "C\u0103ci": 7258,
  "vin\u0103": 7259,
  "s\u00eent": 7260,
  "Pentruc\u0103": 7261,
  "Cred": 7262,
  "bat\u0103": 7263,
  "\u2581r\u0103m\u00e2n": 7264,
  "Uit": 7265,
  "surat": 7266,
  "\u2581r\u0103p": 7267,
  "\u2581dreg\u0103tor": 7268,
  "\u2581leg\u0103m\u00eent": 7269,
  "\u2581\u00eentrebuin\u0163": 7270,
  "\u2581aluat": 7271,
  "\u2581Fer": 7272,
  "\u2581smer": 7273,
  "\u2581\u00eenconjur": 7274,
  "\u2581trimi": 7275,
  "aprind": 7276,
  "ragostea": 7277,
  "\u2581porn": 7278,
  "\u2581curaj": 7279,
  "mbla\u0163i": 7280,
  "adormi": 7281,
  "\u2581transf": 7282,
  "\u2581armoni": 7283,
  "\u2581construi": 7284,
  "\u2581eliber": 7285,
  "\u2581m\u00e2in": 7286,
  "\u2581prigone\u015fti": 7287,
  "fin\u0163easc\u0103": 7288,
  "\u2581Acuila": 7289,
  "\u2581Alexandru": 7290,
  "\u2581Azimilor": 7291,
  "\u2581Femeile": 7292,
  "\u2581Galileeni": 7293,
  "\u2581Guvernare": 7294,
  "\u2581Natanael": 7295,
  "\u2581Ochi": 7296,
  "\u2581P\u00e2n": 7297,
  "\u2581Scriptur\u0103": 7298,
  "\u2581Sf\u00eer\u015fitul": 7299,
  "\u2581Suta\u015ful": 7300,
  "\u2581am\u00eendou\u0103": 7301,
  "\u2581anevoie": 7302,
  "\u2581argin\u0163i": 7303,
  "\u2581aspru": 7304,
  "\u2581auxiliar": 7305,
  "\u2581cet\u0103\u0163uie": 7306,
  "\u2581crucii": 7307,
  "\u2581cuno\u015ftin\u0163ei": 7308,
  "\u2581c\u0103l\u0103re\u0163i": 7309,
  "\u2581desf\u0103\u0219oar": 7310,
  "\u2581desvinov\u0103\u0163": 7311,
  "\u2581de\u015fteptat": 7312,
  "\u2581disponibil": 7313,
  "\u2581farfuri": 7314,
  "\u2581fl\u0103m\u00eend": 7315,
  "\u2581gheenei": 7316,
  "\u2581goale": 7317,
  "\u2581groap\u0103": 7318,
  "\u2581metod": 7319,
  "\u2581milostenie": 7320,
  "\u2581mincinoas\u0103": 7321,
  "\u2581moment": 7322,
  "\u2581mul\u0163umi": 7323,
  "\u2581mustr\u0103": 7324,
  "\u2581nechibzuit": 7325,
  "\u2581nevinovat": 7326,
  "\u2581nisip": 7327,
  "\u2581pagub": 7328,
  "\u2581particip": 7329,
  "\u2581pierzare": 7330,
  "\u2581pierz\u0103rii": 7331,
  "\u2581ploaie": 7332,
  "\u2581porumbei": 7333,
  "\u2581postesc": 7334,
  "\u2581pridvor": 7335,
  "\u2581progres": 7336,
  "\u2581pucioas\u0103": 7337,
  "\u2581rezolv": 7338,
  "\u2581siguran\u021b\u0103": 7339,
  "\u2581sl\u0103biciune": 7340,
  "\u2581smerenie": 7341,
  "\u2581spioni": 7342,
  "\u2581sprijin": 7343,
  "\u2581str\u00eemtorare": 7344,
  "\u2581s\u0103v\u00eer\u015fesc": 7345,
  "\u2581tabernacol": 7346,
  "\u2581traist\u0103": 7347,
  "\u2581tr\u00eembi\u0163a": 7348,
  "\u2581tr\u0103gea": 7349,
  "\u2581t\u00e2rziu": 7350,
  "\u2581v\u00e2rst": 7351,
  "\u2581zdrobit": 7352,
  "\u2581zilnic": 7353,
  "\u2581z\u0103bove\u015ft": 7354,
  "\u2581\u00eembr\u0103c\u0103m": 7355,
  "\u2581\u00eencoace": 7356,
  "\u2581\u00eendoial\u0103": 7357,
  "\u2581\u00eendr\u0103cit": 7358,
  "\u2581\u00eendr\u0103ci\u0163i": 7359,
  "\u2581\u00eendr\u0103zni": 7360,
  "\u2581\u00eentunecat": 7361,
  "\u2581\u00een\u015fel\u0103ciune": 7362,
  "\u2581\u015faizeci": 7363,
  "Suflet": 7364,
  "\u2581Noapte": 7365,
  "\u2581Priscil": 7366,
  "\u2581dep\u0103rtat": 7367,
  "\u2581dep\u0103rta\u0163i": 7368,
  "\u2581margini": 7369,
  "drep\u021bi": 7370,
  "\u2581Preg\u0103tirii": 7371,
  "\u2581ancor": 7372,
  "\u2581m\u00eenc\u0103ri": 7373,
  "\u2581oric\u00e2nd": 7374,
  "\u2581pia\u0163\u0103": 7375,
  "\u2581cucernic": 7376,
  "\u2581neghina": 7377,
  "\u2581poruncea": 7378,
  "\u2581Robi": 7379,
  "\u2581exact": 7380,
  "\u2581net\u0103iere": 7381,
  "\u2581bucat": 7382,
  "Osana": 7383,
  "\u2581dep\u0103rtez": 7384,
  "cheia": 7385,
  "coala": 7386,
  "\u2581degetul": 7387,
  "\u2581promite": 7388,
  "\u2581ur\u0103sc": 7389,
  "\u2581mreaj": 7390,
  "\u2581o\u0163et": 7391,
  "\u2581Ace\u0219ti": 7392,
  "\u2581\u00eengenuncheat": 7393,
  "\u2581cump\u0103rat": 7394,
  "\u2581comori": 7395,
  "\u2581t\u0103ria": 7396,
  "\u2581propri": 7397,
  "\u2581ocazi": 7398,
  "\u2581lacrim": 7399,
  "\u2581soart": 7400,
  "\u2581fe\u0163ele": 7401,
  "\u2581pre\u0163uit": 7402,
  "sias": 7403,
  "\u2581verde": 7404,
  "\u2581gr\u00eenar": 7405,
  "\u2581Abia": 7406,
  "\u2581uimit": 7407,
  "\u2581rupe": 7408,
  "\u2581desbin\u0103ri": 7409,
  "\u2581C\u0103uta": 7410,
  "\u2581pescari": 7411,
  "\u2581suspin": 7412,
  "\u2581ne\u015ftiin\u0163\u0103": 7413,
  "\u2581pe\u015fter\u0103": 7414,
  "\u2581micu\u0163i": 7415,
  "\u2581lacom": 7416,
  "\u2581verse": 7417,
  "\u2581fure": 7418,
  "\u2581m\u0103rit\u0103": 7419,
  "\u2581Ciren": 7420,
  "\u2581\u00eenv\u0103\u021b\u0103turi": 7421,
  "\u2581cite\u015fti": 7422,
  "\u2581sem\u0103na": 7423,
  "\u2581inter": 7424,
  "\u2581ave\u021bi": 7425,
  "\u2581turburat": 7426,
  "\u2581Calea": 7427,
  "\u2581greutate": 7428,
  "\u2581lumineaz\u0103": 7429,
  "\u2581culcat": 7430,
  "\u2581principii": 7431,
  "\u2581doarme": 7432,
  "\u00cen\u0163eleg": 7433,
  "\u2581curajos": 7434,
  "\u2581curve": 7435,
  "\u2581teasc": 7436,
  "\u2581petrec": 7437,
  "\u2581r\u0103sp\u00eendea": 7438,
  "\u2581povest": 7439,
  "\u2581lun\u0103": 7440,
  "\u2581s\u0103bii": 7441,
  "\u2581f\u0103\u015fii": 7442,
  "\u2581folose\u0219te": 7443,
  "\u2581mijlocitor": 7444,
  "\u2581punct": 7445,
  "\u2581osteneli": 7446,
  "\u2581lupi": 7447,
  "\u2581m\u00eencaser\u0103": 7448,
  "\u2581p\u0103c\u0103tuiasc\u0103": 7449,
  "\u2581fireasc\u0103": 7450,
  "\u2581lovituri": 7451,
  "\u2581\u015faptelea": 7452,
  "\u2581s\u0103pat": 7453,
  "\u2581c\u0103lare": 7454,
  "\u2581adeverit": 7455,
  "\u2581\u00eempin": 7456,
  "\u2581predicat": 7457,
  "\u2581pedepsit": 7458,
  "\u2581cumper": 7459,
  "\u2581Sara": 7460,
  "\u2581\u00eentreag": 7461,
  "\u2581util": 7462,
  "\u2581cuptor": 7463,
  "\u2581\u00eengrijor\u0103ril": 7464,
  "\u2581\u00eentorcea": 7465,
  "\u2581Cap": 7466,
  "Rug": 7467,
  "\u2581\u00eencerc\u0103ri": 7468,
  "\u2581dormea": 7469,
  "\u2581lapte": 7470,
  "sp\u0103im\u00eenta\u0163i": 7471,
  "\u2581\u00eenchin\u0103tori": 7472,
  "\u2581\u0163\u0103r": 7473,
  "\u2581hot\u0103r\u00eeri": 7474,
  "dic\u0103": 7475,
  "m\u0103ritat\u0103": 7476,
  "\u2581Caut": 7477,
  "\u2581sco\u0163": 7478,
  "olog": 7479,
  "\u00eentem": 7480,
  "lipit": 7481,
  "\u2581l\u0103ud": 7482,
  "\u2581Cuv\u00eent": 7483,
  "\u2581lucr\u0103tor": 7484,
  "\u2581lumin": 7485,
  "Marto": 7486,
  "ediat": 7487,
  "\u2581minun": 7488,
  "\u2581m\u0103rita": 7489,
  "\u2581mo\u015ften": 7490,
  "\u2581icoan": 7491,
  "\u2581t\u00eelhar": 7492,
  "\u2581\u00eempietrir": 7493,
  "\u2581p\u0103rintel": 7494,
  "\u2581fiec\u0103rui": 7495,
  "\u2581\u00eenv\u0103\u021ba": 7496,
  "lec\u0103ciune": 7497,
  "\u0163elepciunea": 7498,
  "Prietene": 7499,
  "Trebuie": 7500,
  "Nimeni": 7501,
  "Fiindc\u0103": 7502,
  "ajuns": 7503,
  "Amin": 7504,
  "m\u0103car": 7505,
  "fes": 7506,
  "\u2581c\u00eent\u0103": 7507,
  "\u2581despart": 7508,
  "\u2581neputin\u0163": 7509,
  "\u2581fa\u021b": 7510,
  "\u2581z\u0103dar": 7511,
  "\u2581p\u0103s\u0103ri": 7512,
  "\u2581grab": 7513,
  "\u2581profe": 7514,
  "\u2581Ucenic": 7515,
  "redin\u0163a": 7516,
  "redincios": 7517,
  "\u2581\u00eenv\u0103\u021b\u0103": 7518,
  "\u0103stign": 7519,
  "\u2581buc\u0103": 7520,
  "Hristo": 7521,
  "\u2581Botez": 7522,
  "\u2581apropii": 7523,
  "\u2581neclintit": 7524,
  "Cuvintele": 7525,
  "PUNE": 7526,
  "cuviincios": 7527,
  "tr\u0103jeri": 7528,
  "\u0103m\u0103n\u0103torul": 7529,
  "\u2581Alfeu": 7530,
  "\u2581Aristarh": 7531,
  "\u2581Continu": 7532,
  "\u2581Edenului": 7533,
  "\u2581Faraon": 7534,
  "\u2581Nicodim": 7535,
  "\u2581Pamfilia": 7536,
  "\u2581Probabil": 7537,
  "\u2581Samaritean": 7538,
  "\u2581Tihic": 7539,
  "\u2581anatema": 7540,
  "\u2581asprime": 7541,
  "\u2581atmosfer": 7542,
  "\u2581batjocur": 7543,
  "\u2581bibliotec": 7544,
  "\u2581bog\u0103\u0163ie": 7545,
  "\u2581boteaz\u0103": 7546,
  "\u2581b\u00eern": 7547,
  "\u2581candelele": 7548,
  "\u2581ciomege": 7549,
  "\u2581c\u00e2\u015ftig": 7550,
  "\u2581desbinare": 7551,
  "\u2581destr\u0103b\u0103l": 7552,
  "\u2581dezv\u0103lui": 7553,
  "\u2581f\u0103r\u0103delegil": 7554,
  "\u2581gheen\u0103": 7555,
  "\u2581hr\u0103nit": 7556,
  "\u2581ispr\u0103vnicia": 7557,
  "\u2581lepro\u015fi": 7558,
  "\u2581loveasc\u0103": 7559,
  "\u2581l\u0103comie": 7560,
  "\u2581merit\u0103": 7561,
  "\u2581me\u015fte\u015fug": 7562,
  "\u2581mistui": 7563,
  "\u2581mondial": 7564,
  "\u2581mo\u0219teni": 7565,
  "\u2581m\u00e2ng\u00e2iere": 7566,
  "\u2581m\u0103g\u0103ri\u0163": 7567,
  "\u2581m\u0103hram": 7568,
  "\u2581nedrep\u0163i": 7569,
  "\u2581nelegiuit": 7570,
  "\u2581nenorocir": 7571,
  "\u2581ne\u00een\u0163elegere": 7572,
  "\u2581pedeaps\u0103": 7573,
  "\u2581plato\u015f": 7574,
  "\u2581ploua": 7575,
  "\u2581pl\u0103m\u0103deal": 7576,
  "\u2581poc\u0103in\u0163ei": 7577,
  "\u2581pomenesc": 7578,
  "\u2581practice": 7579,
  "\u2581practic\u0103": 7580,
  "\u2581priveli\u015ft": 7581,
  "\u2581program": 7582,
  "\u2581pr\u0103znui": 7583,
  "\u2581pururea": 7584,
  "\u2581p\u00eerasc\u0103": 7585,
  "\u2581regularitate": 7586,
  "\u2581roab\u0103": 7587,
  "\u2581r\u0103m\u00eei": 7588,
  "\u2581sc\u0103ld\u0103toare": 7589,
  "\u2581slujbe": 7590,
  "\u2581spaim\u0103": 7591,
  "\u2581struguri": 7592,
  "\u2581suf\u0103r": 7593,
  "\u2581sup\u0163ire": 7594,
  "\u2581tr\u00eembi\u0163e": 7595,
  "\u2581t\u0103lm\u0103c": 7596,
  "\u2581umfl": 7597,
  "\u2581viclean": 7598,
  "\u2581vi\u0163el": 7599,
  "\u2581z\u0103bovi": 7600,
  "\u2581\u00eemp\u0103rt\u0103\u015fire": 7601,
  "\u2581\u00eencinge": 7602,
  "\u2581\u00eendrepte": 7603,
  "\u2581\u00eent\u00e2i": 7604,
  "\u2581\u00een\u0163elepciunii": 7605,
  "\u2581\u015ferpi": 7606,
  "tocmit": 7607,
  "\u2581Asiei": 7608,
  "\u2581Eliezer": 7609,
  "\u2581Iason": 7610,
  "\u2581aspect": 7611,
  "\u2581basme": 7612,
  "\u2581cercet\u0103ri": 7613,
  "\u2581col\u0163uri": 7614,
  "\u2581congrega\u021biil": 7615,
  "\u2581c\u00e2nta": 7616,
  "\u2581dinafar\u0103": 7617,
  "\u2581dinapoi": 7618,
  "\u2581du\u015fman": 7619,
  "\u2581episcop": 7620,
  "\u2581gr\u0103din\u0103": 7621,
  "\u2581isp\u0103\u015fir": 7622,
  "\u2581mesele": 7623,
  "\u2581milostenii": 7624,
  "\u2581neputrezire": 7625,
  "\u2581oc\u0103r\u00ee": 7626,
  "\u2581slobozenie": 7627,
  "\u2581str\u00e2ns": 7628,
  "\u2581uimire": 7629,
  "\u2581\u00centreab\u0103": 7630,
  "\u2581\u00eenadins": 7631,
  "\u2581bl\u00eende\u0163a": 7632,
  "\u2581mi\u015fcare": 7633,
  "\u2581m\u00eenc\u00eend": 7634,
  "\u2581pleac\u0103": 7635,
  "\u2581turburare": 7636,
  "omplet": 7637,
  "\u2581Nimic": 7638,
  "\u2581asoci": 7639,
  "\u2581blid": 7640,
  "\u2581bl\u00eende\u0163\u0103": 7641,
  "\u2581clatin": 7642,
  "\u2581repezi": 7643,
  "\u2581s\u0103v\u00eer\u015fit": 7644,
  "\u2581vultur": 7645,
  "\u2581Atena": 7646,
  "\u2581haide": 7647,
  "\u2581liber": 7648,
  "\u2581talant": 7649,
  "\u2581temelie": 7650,
  "\u2581unelti": 7651,
  "\u2581c\u0103rnii": 7652,
  "\u2581iveal\u0103": 7653,
  "\u2581nemurire": 7654,
  "\u2581solda\u0163i": 7655,
  "\u2581vi\u0163ei": 7656,
  "\u2581\u00eendoit": 7657,
  "\u2581\u0163\u00ee\u0163": 7658,
  "\u2581p\u0103dur": 7659,
  "\u2581sticl": 7660,
  "\u2581st\u00eenci": 7661,
  "\u2581c\u0103mil\u0103": 7662,
  "\u2581geme": 7663,
  "\u2581tab\u0103r": 7664,
  "\u2581Gaiu": 7665,
  "\u2581p\u00eer\u0103": 7666,
  "\u2581suferin\u021ba": 7667,
  "\u2581ascunde": 7668,
  "\u2581necesar": 7669,
  "\u2581u\u015fura": 7670,
  "\u2581durere": 7671,
  "\u2581\u00eempodobit\u0103": 7672,
  "eilal\u0163i": 7673,
  "\u2581organiza\u021bi": 7674,
  "\u2581b\u0103ie\u0163el": 7675,
  "\u2581premiul": 7676,
  "\u2581ob\u015fte": 7677,
  "\u2581Tars": 7678,
  "\u2581c\u0103ldur": 7679,
  "Scrie": 7680,
  "\u2581ocara": 7681,
  "\u2581treburi": 7682,
  "\u2581adaug": 7683,
  "\u2581moli": 7684,
  "\u2581bra\u0163e": 7685,
  "\u2581lipsit": 7686,
  "\u2581spal\u0103": 7687,
  "\u2581treaba": 7688,
  "\u2581comun": 7689,
  "\u2581os\u00eende\u015ft": 7690,
  "\u2581Copil": 7691,
  "\u2581aripi": 7692,
  "\u2581Dian": 7693,
  "\u2581\u00eenserat": 7694,
  "\u2581hr\u0103ne\u015fte": 7695,
  "\u2581c\u0103ut\u0103m": 7696,
  "\u2581Matat": 7697,
  "\u2581filial": 7698,
  "\u2581b\u0103t\u0103": 7699,
  "Rabi": 7700,
  "\u2581ne\u00eensemna": 7701,
  "\u2581\u00eencep\u0103toare": 7702,
  "\u2581poal": 7703,
  ":6)": 7704,
  "\u2581rela\u0163i": 7705,
  "\u2581Moartea": 7706,
  "\u2581glori": 7707,
  "\u2581Turn": 7708,
  "\u2581vizit": 7709,
  "\u2581cite\u015fte": 7710,
  "ceap\u0103": 7711,
  "\u2581Iose": 7712,
  "\u2581spic": 7713,
  "\u2581predic": 7714,
  "\u2581sf\u00e2r\u0219itul": 7715,
  "\u2581aram\u0103": 7716,
  "\u2581mani": 7717,
  "\u2581ocup": 7718,
  "\u2581\u00eent\u00e2ln": 7719,
  "\u2581pre\u021bio": 7720,
  "\u2581str\u00eensese": 7721,
  "\u2581atac": 7722,
  "abia": 7723,
  "\u2581\u00eempodob": 7724,
  "pu\u015fi": 7725,
  "\u2581Mult": 7726,
  "\u2581plec\u0103ciun": 7727,
  "\u2581preg\u0103te\u0219t": 7728,
  "sum\u0103": 7729,
  "Note": 7730,
  "\u2581satur": 7731,
  "\u2581pusese": 7732,
  "folositoare": 7733,
  "\u2581cuv\u00eent\u0103ri": 7734,
  "\u2581contr": 7735,
  "fericire": 7736,
  "su\u015f": 7737,
  "\u2581Ome": 7738,
  "\u2581trec\u0103to": 7739,
  "prind\u0103": 7740,
  "\u2581balaur": 7741,
  "scult\u0103tor": 7742,
  "\u2581bog\u0103\u0163iil": 7743,
  "\u2581obicinui": 7744,
  "\u2581\u00eenv\u0103\u0163\u0103tor": 7745,
  "\u2581necinst": 7746,
  "\u2581persoan": 7747,
  "\u2581hot\u0103r\u00ee": 7748,
  "Efeseni": 7749,
  "\u2581\u00eemp\u0103r\u0163i": 7750,
  "\u2581acuza": 7751,
  "Nicidecum": 7752,
  "vorbesc": 7753,
  "Drept": 7754,
  "n\u0103scut": 7755,
  "Cuv\u00eentul": 7756,
  "\u2581p\u0103ze\u015ft": 7757,
  "\u2581Dumneze": 7758,
  "gust\u0103": 7759,
  "\u2581coco\u015f": 7760,
  "\u2581\u00cenger": 7761,
  "\u2581dispre\u0163": 7762,
  "\u2581sf\u00e2r\u0219i": 7763,
  "\u2581\u015fter": 7764,
  "rednic": 7765,
  "ia\u021ba": 7766,
  "\u2581v\u00eenz\u0103to": 7767,
  "\u0103rturarii": 7768,
  "\u2581hr\u0103ne": 7769,
  "\u2581\u00cemp\u0103r\u0103": 7770,
  "\u2581Gali": 7771,
  "\u2581organiz": 7772,
  "genunche": 7773,
  "\u2581str\u00eemb": 7774,
  "P\u0103str": 7775,
  "\u2581Instrui": 7776,
  "\u2581poticn": 7777,
  "\u2581\u00cempotriv": 7778,
  "\u2581\u00eemb\u0103t": 7779,
  "Cunoa\u015fte": 7780,
  "bastru": 7781,
  "lizeaz\u0103": 7782,
  "stoinic": 7783,
  "\u015eapte": 7784,
  "\u2581Alexandri": 7785,
  "\u2581Bartolomeu": 7786,
  "\u2581Beniamin": 7787,
  "\u2581Dreg\u0103torul": 7788,
  "\u2581Goliat": 7789,
  "\u2581Irodiadei": 7790,
  "\u2581Neprih\u0103nit": 7791,
  "\u2581Prea\u00eenalt": 7792,
  "\u2581R\u0103m\u00eene": 7793,
  "\u2581R\u0103s\u0103rit": 7794,
  "\u2581Samariei": 7795,
  "\u2581Sf\u00e2nt": 7796,
  "\u2581Silvan": 7797,
  "\u2581am\u0103r\u0103ciune": 7798,
  "\u2581avertiz": 7799,
  "\u2581avusese": 7800,
  "\u2581cerceteaz\u0103": 7801,
  "\u2581co\u015fni\u0163e": 7802,
  "\u2581credincioas": 7803,
  "\u2581crezare": 7804,
  "\u2581cump\u0103n\u0103": 7805,
  "\u2581c\u0103rticic": 7806,
  "\u2581dep\u0103rteaz\u0103": 7807,
  "\u2581deschiz": 7808,
  "\u2581diaconi": 7809,
  "\u2581domnesc": 7810,
  "\u2581drep\u0163i": 7811,
  "\u2581fr\u0103\u0163easc\u0103": 7812,
  "\u2581galben": 7813,
  "\u2581gelozi": 7814,
  "\u2581grindin": 7815,
  "\u2581hot\u0103r\u00e2": 7816,
  "\u2581iaspis": 7817,
  "\u2581insulei": 7818,
  "\u2581izgoni": 7819,
  "\u2581junghi": 7820,
  "\u2581lepros": 7821,
  "\u2581l\u0103ud\u0103ro\u015fi": 7822,
  "\u2581milostiv": 7823,
  "\u2581mireasm\u0103": 7824,
  "\u2581miresme": 7825,
  "\u2581moart\u0103": 7826,
  "\u2581m\u00eer\u015fav": 7827,
  "\u2581m\u0103r\u0103cini": 7828,
  "\u2581nea\u015fteptate": 7829,
  "\u2581neclinti\u0163i": 7830,
  "\u2581necredincioas\u0103": 7831,
  "\u2581nego\u0163": 7832,
  "\u2581neor\u00eenduial\u0103": 7833,
  "\u2581nepref\u0103cut\u0103": 7834,
  "\u2581neputincio": 7835,
  "\u2581neroditor": 7836,
  "\u2581nesocoti": 7837,
  "\u2581nestatornic": 7838,
  "\u2581nesupu\u015fi": 7839,
  "\u2581netrebnic": 7840,
  "\u2581nezguduit": 7841,
  "\u2581ne\u015ftiutori": 7842,
  "\u2581nimerit": 7843,
  "\u2581numaidec\u00eet": 7844,
  "\u2581n\u0103scuse": 7845,
  "\u2581oboseal\u0103": 7846,
  "\u2581obosit": 7847,
  "\u2581ospe\u0163e": 7848,
  "\u2581personal": 7849,
  "\u2581pionier": 7850,
  "\u2581ploaia": 7851,
  "\u2581porumbel": 7852,
  "\u2581pref\u0103cut": 7853,
  "\u2581pricepu\u0163i": 7854,
  "\u2581prigonea": 7855,
  "\u2581prive\u0219t": 7856,
  "\u2581probabil": 7857,
  "\u2581pr\u0103v\u0103lit": 7858,
  "\u2581p\u0103trunde": 7859,
  "\u2581recunoa\u015fte": 7860,
  "\u2581recunosc\u0103tor": 7861,
  "\u2581ru\u0219ine": 7862,
  "\u2581r\u0103bd\u0103m": 7863,
  "\u2581r\u0103bd\u0103ri": 7864,
  "\u2581r\u0103m\u0103sese": 7865,
  "\u2581satisfac": 7866,
  "\u2581scurgere": 7867,
  "\u2581special": 7868,
  "\u2581spurc\u0103ciun": 7869,
  "\u2581stacojie": 7870,
  "\u2581strig\u00eend": 7871,
  "\u2581str\u0103mo\u0219i": 7872,
  "\u2581st\u00eelp": 7873,
  "\u2581supraveghe": 7874,
  "\u2581surzi": 7875,
  "\u2581s\u0103lbatic": 7876,
  "\u2581s\u0103n\u0103toase": 7877,
  "\u2581s\u0103pt\u0103m\u00e2n\u0103": 7878,
  "\u2581testament": 7879,
  "\u2581tic\u0103los": 7880,
  "\u2581trufa\u015f": 7881,
  "\u2581turmei": 7882,
  "\u2581t\u00eerziu": 7883,
  "\u2581viclenia": 7884,
  "\u2581vistierie": 7885,
  "\u2581vr\u0103bii": 7886,
  "\u2581v\u0103zduh": 7887,
  "\u2581\u00eemp\u0103r\u0103te\u015fti": 7888,
  "\u2581\u00eemp\u0103r\u0163ea": 7889,
  "\u2581\u00eenchi\u015fi": 7890,
  "\u2581\u00eendep\u0103rt": 7891,
  "\u2581\u00eendr\u0103sneal\u0103": 7892,
  "\u2581\u00eenfrunz": 7893,
  "\u2581\u00eengreuia": 7894,
  "\u2581\u00eengrozit": 7895,
  "\u2581\u00eengr\u0103\u015fat": 7896,
  "\u2581\u00eenm\u0103rmuri\u0163i": 7897,
  "\u2581\u00eens\u0103n\u0103to\u015f": 7898,
  "M\u00eentui": 7899,
  "Trimete": 7900,
  "\u2581Aceluia": 7901,
  "\u2581Barbar": 7902,
  "\u2581Betel": 7903,
  "\u2581Purt": 7904,
  "\u2581Stabil": 7905,
  "\u2581Timp": 7906,
  "\u2581arz\u0103toare": 7907,
  "\u2581bra\u0163ul": 7908,
  "\u2581concret": 7909,
  "\u2581deprins": 7910,
  "\u2581eveniment": 7911,
  "\u2581frunze": 7912,
  "\u2581f\u0103cli": 7913,
  "\u2581grija": 7914,
  "\u2581g\u00eet": 7915,
  "\u2581necesit\u0103": 7916,
  "\u2581necunoscu": 7917,
  "\u2581nepotul": 7918,
  "\u2581obraz": 7919,
  "\u2581perzare": 7920,
  "\u2581serviciu": 7921,
  "\u2581sfetnic": 7922,
  "\u2581situa\u0163i": 7923,
  "\u2581situa\u021bi": 7924,
  "\u2581str\u0103mo\u015f": 7925,
  "\u2581st\u0103ruin\u0163\u0103": 7926,
  "\u2581televizor": 7927,
  "\u2581t\u0103cere": 7928,
  "6:10)": 7929,
  "\u2581Cercet": 7930,
  "\u2581Sluji\u0163i": 7931,
  "\u2581colabora": 7932,
  "\u2581de\u015fart\u0103": 7933,
  "\u2581meseri": 7934,
  "\u2581nerrom": 7935,
  "\u2581psalm": 7936,
  "\u2581r\u0103cor": 7937,
  "\u2581soacr": 7938,
  "\u2581tin\u0103": 7939,
  "\u2581perioad": 7940,
  "\u2581strecura": 7941,
  "\u2581urgie": 7942,
  "\u00cenapoi": 7943,
  "\u2581biruin\u0163\u0103": 7944,
  "\u2581cusur": 7945,
  "\u2581ori\u015ficine": 7946,
  "\u2581relatare": 7947,
  "\u2581\u00eenscrie": 7948,
  "\u2581b\u0103nu\u0163": 7949,
  "\u2581cuiburi": 7950,
  "\u2581holde": 7951,
  "\u2581\u00eentinat": 7952,
  "\u2581\u00eenvelit": 7953,
  "\u2581muzic": 7954,
  "\u2581cobora": 7955,
  "\u2581c\u0103lc\u0103tor": 7956,
  "\u2581sparg": 7957,
  "\u2581chivot": 7958,
  "\u2581stadii": 7959,
  "\u2581uman": 7960,
  "\u2581\u00eenc\u0103lzea": 7961,
  "\u2581Claud": 7962,
  "\u2581love\u015ft": 7963,
  "\u2581dosp": 7964,
  "\u2581gard": 7965,
  "\u2581adesea": 7966,
  "\u2581cosor": 7967,
  "\u2581\u0163es": 7968,
  "Pleac\u0103": 7969,
  "nfrunt": 7970,
  "\u2581revede": 7971,
  "\u2581vesteji": 7972,
  "ezerv\u0103": 7973,
  "\u2581v\u00eerf": 7974,
  "\u2581omeneasc\u0103": 7975,
  "\u2581sexual": 7976,
  "\u2581c\u0103snici": 7977,
  "\u2581ap\u0103sa\u0163i": 7978,
  "\u2581mirelui": 7979,
  "\u2581hula": 7980,
  "\u2581goi": 7981,
  "\u2581averile": 7982,
  "\u2581lupul": 7983,
  "\u2581priveghetor": 7984,
  "\u2581rup\u0103": 7985,
  "\u2581ogoare": 7986,
  "\u0103custe": 7987,
  "\u2581izb": 7988,
  ":26": 7989,
  "\u2581bun\u0103t\u0103\u0163i": 7990,
  "\u2581c\u0103r\u0103rile": 7991,
  "p\u0103t\u0103m": 7992,
  "rmis": 7993,
  "\u2581larg\u0103": 7994,
  "\u2581c\u0103\u0163ei": 7995,
  "\u2581st\u00eenco": 7996,
  "\u2581buc\u0103\u0163ic": 7997,
  "eaf\u0103r": 7998,
  "Pu\u0163in": 7999,
  "\u2581boci": 8000,
  "prindere": 8001,
  "\u2581r\u0103pire": 8002,
  "\u2581Creator": 8003,
  "\u2581lene\u015f": 8004,
  "Aceia": 8005,
  "F\u0103\u0163arnicilor": 8006,
  "\u2581So\u021b": 8007,
  "\u2581me\u015fter": 8008,
  "\u2581ar\u0103t\u0103ri": 8009,
  "\u2581Prieten": 8010,
  "rimin": 8011,
  "\u2581g\u00e2nde\u0219t": 8012,
  "ec\u0163ii": 8013,
  "cuza\u021bi": 8014,
  "\u2581str\u0103duie\u015ft": 8015,
  "\u2581pofte\u015ft": 8016,
  "dicat": 8017,
  "veste\u015fte": 8018,
  "folositor": 8019,
  "\u2581locuie\u0219t": 8020,
  "\u2581\u00cenv\u0103\u0163\u0103tor": 8021,
  "\u2581zide\u015ft": 8022,
  "cuv\u00eentarea": 8023,
  "st\u0103p\u00eenirii": 8024,
  "\u2581Porunc": 8025,
  "rm\u0103ri\u0163i": 8026,
  "\u2581\u00eensp\u0103im\u00eent": 8027,
  "\u2581Aceast": 8028,
  "toarce": 8029,
  "\u2581neprih\u0103niri": 8030,
  "\u2581p\u00eer\u00ee": 8031,
  "\u0103tr\u00e2ni": 8032,
  "Aduce\u0163i": 8033,
  "dumnezei": 8034,
  "Ace\u015ftia": 8035,
  "asculta\u0163i": 8036,
  "Iacov": 8037,
  "Avraam": 8038,
  "Iudeii": 8039,
  "fiindc\u0103": 8040,
  "Apoi": 8041,
  "Iehova": 8042,
  "\u2581acoper": 8043,
  "\u2581dore\u0219t": 8044,
  "\u2581des\u0103v\u00eer\u015f": 8045,
  "\u2581P\u0103stor": 8046,
  "\u00eent\u00e2lni": 8047,
  "Ascult\u0103": 8048,
  "uternic": 8049,
  "\u2581a\u015ftern": 8050,
  "chilo": 8051,
  "sting": 8052,
  "\u2581\u00eensemne": 8053,
  "Preg\u0103ti": 8054,
  "Feti\u0163": 8055,
  "\u2581Sf\u0103tuie": 8056,
  "\u2581b\u00eerf": 8057,
  "\u2581frumuse": 8058,
  "\u2581osp\u0103t": 8059,
  "\u2581suger": 8060,
  "Binecuv\u00e2nta": 8061,
  "Colose": 8062,
  "Golgota": 8063,
  "Piatra": 8064,
  "acheu": 8065,
  "cioplit": 8066,
  "clevetito": 8067,
  "cuviin\u0163a": 8068,
  "efania": 8069,
  "evlavio\u015fi": 8070,
  "orobabel": 8071,
  "ricepuse": 8072,
  "st\u00e2lp": 8073,
  "\u00eelcuie\u015fte": 8074,
  "\u2581Aminadab": 8075,
  "\u2581Aprozii": 8076,
  "\u2581Areopag": 8077,
  "\u2581Armaghedon": 8078,
  "\u2581Berenice": 8079,
  "\u2581Betfaghe": 8080,
  "\u2581Cincizecim": 8081,
  "\u2581Conduc\u0103tor": 8082,
  "\u2581C\u0103peteni": 8083,
  "\u2581Decapole": 8084,
  "\u2581Dimitrie": 8085,
  "\u2581Eliachim": 8086,
  "\u2581Epafra": 8087,
  "\u2581Esrom": 8088,
  "\u2581Fenicia": 8089,
  "\u2581Galatiei": 8090,
  "\u2581Gomora": 8091,
  "\u2581Lumin\u0103": 8092,
  "\u2581Naason": 8093,
[...]
