{
  "<pad>": 0,
  "<unk>": 1,
  "<s>": 2,
  "</s>": 3,
  "\u2581": 4,
  ",": 5,
  "\u2581del": 6,
  "-": 7,
  "\u2581Po": 8,
  "\u2581chavo": 9,
  ".": 10,
  "\u2581te": 11,
  "\u2581o": 12,
  "o": 13,
  "a": 14,
  "\u2581so": 15,
  "?": 16,
  "e": 17,
  "i": 18,
  "j": 19,
  "\u2581ko": 20,
  "\u2581ka": 21,
  "\u2581le": 22,
  "\u2581O": 23,
  "\u2581e": 24,
  "\u2581sar": 25,
  "\u2581(": 26,
  "\u2581a": 27,
  "\u2581na": 28,
  "hem": 29,
  "\u2581\u0161aj": 30,
  "s": 31,
  "\u2581\u201e": 32,
  "\u2581si": 33,
  "\u2581So": 34,
  "\u2581pal": 35,
  ":": 36,
  "\u2581ho": 37,
  "n": 38,
  "\u2581andr": 39,
  "\u2581Sar": 40,
  "\u2581the": 41,
  "as": 42,
  "\u2581pes": 43,
  "\u2581Del": 44,
  "\u2581ada": 45,
  "ja": 46,
  "\u2581amen": 47,
  ")": 48,
  "\u2581Jehovas": 49,
  "\u2581pre": 50,
  "!": 51,
  "l": 52,
  "\u2581hin": 53,
  "\u2581Te": 54,
  "\u2581i": 55,
  "\u2581Jehova": 56,
  "\u2581odova": 57,
  "\u2581Biblija": 58,
  "\u2581tut": 59,
  "ando": 60,
  "\u2581and": 61,
  "va": 62,
  "\u2581sa": 63,
  "\u201c": 64,
  "\u2581jekh": 65,
  "\u2581hine": 66,
  "\u2581Je\u017ei\u0161": 67,
  "tar": 68,
  "\u2581manu\u0161a": 69,
  "\u2581but": 70,
  "\u2581Ko": 71,
  "\u2581ki": 72,
  "en": 73,
  "\u2581ovel": 74,
  "\u2581kerel": 75,
  "\u2581sas": 76,
  "tano": 77,
  "\u2581phen\u010fa": 78,
  "\u2581A": 79,
  "na": 80,
  "\u2581la": 81,
  "ed": 82,
  "\u2581Isus": 83,
  "la": 84,
  "\u2581po": 85,
  "\u2581pe": 86,
  "\u2581kamel": 87,
  "\u2581k": 88,
  "\u2581E": 89,
  "\u2581kola": 90,
  "men": 91,
  "\u2581\u0161ukar": 92,
  "m": 93,
  "ha": 94,
  ".\u201c": 95,
  "\u2581ov": 96,
  "\u2581oda": 97,
  "ena": 98,
  "b": 99,
  "v": 100,
  "\u2581tu": 101,
  "al": 102,
  "\u2581avka": 103,
  "\u2581amend\u017ee": 104,
  "\u2581Na": 105,
  "\u2581furt": 106,
  "\u2581I": 107,
  "de": 108,
  "buter": 109,
  "mar": 110,
  "\u2581leske": 111,
  "\u2581les": 112,
  "\u2581phuv": 113,
  "\u2581valjani": 114,
  "\u2581el": 115,
  "\u2581\u2014": 116,
  "no": 117,
  "\u2581tumen": 118,
  "\u2581pro": 119,
  "av": 120,
  "\u2581d\u017eivipen": 121,
  "\u2581la\u010dho": 122,
  "\u2581M": 123,
  "\u2581bo": 124,
  "\u2581ela": 125,
  "\u2581ma": 126,
  "ija": 127,
  "\u2581duj": 128,
  "\u2581nane": 129,
  "\u2581ja": 130,
  "el": 131,
  "\u2581P": 132,
  "\u2581tir": 133,
  "\u2581\u010dera": 134,
  "\u2581K": 135,
  "\u2581\u010derd\u017ea": 136,
  "ar": 137,
  "\u2581Kada": 138,
  "\u0161": 139,
  "\u2581laska": 140,
  "\u2581tuke": 141,
  "\u2581pesker": 142,
  "\u2581S": 143,
  "\u2581va\u010deri": 144,
  "\u2581s": 145,
  "da": 146,
  "menge": 147,
  "\u2581diso": 148,
  "\u2581menos": 149,
  "O": 150,
  "ke": 151,
  "\u2581manu\u0161en": 152,
  "\u2581Devlesker": 153,
  "\u2581prekal": 154,
  "\u2581avri": 155,
  "\u2581ale": 156,
  "\u2581isi": 157,
  "pe": 158,
  "\u2581Vo": 159,
  "\u2581de": 160,
  "\u2581savore": 161,
  "\u2581man": 162,
  "\u2581Jehovaske": 163,
  "\u2581d\u017eivdipe": 164,
  "\u2581tumenge": 165,
  "\u2581bu\u010da": 166,
  "\u2581rom": 167,
  "\u2581Ov": 168,
  "\u2581mi": 169,
  "\u2581Me": 170,
  "ko": 171,
  "te": 172,
  ";": 173,
  "\u2581trin": 174,
  "\u2581phenel": 175,
  "\u2581mothovi": 176,
  "abo": 177,
  "\u2581B": 178,
  "re": 179,
  "tu": 180,
  "\u2581aven": 181,
  "to": 182,
  "\u2581manu\u0161": 183,
  "\u2581ad\u017eahar": 184,
  "\u2581rado": 185,
  "amari": 186,
  "ro": 187,
  "\u2581ta": 188,
  "ske": 189,
  "\u2581d\u017ei": 190,
  "\u2581[": 191,
  "\u2581primer": 192,
  "\u2581jilo": 193,
  "\u2581veci": 194,
  "\u0161\u0165i": 195,
  "J": 196,
  "A": 197,
  "\u25813": 198,
  "\u2581D": 199,
  "kava": 200,
  "star": 201,
  "\u2581bi": 202,
  "\u2581oljes": 203,
  "bor": 204,
  "pi": 205,
  "\u2581Phuv": 206,
  "\u2581fame\u013eija": 207,
  "\u2581amendar": 208,
  "\u2581savoro": 209,
  "\u2581amaro": 210,
  "\u2581hai": 211,
  "\u2581anel": 212,
  "\u2581mangela": 213,
  "\u2581min": 214,
  "ka": 215,
  "\u2581me": 216,
  "\u2581\u010di": 217,
  "u": 218,
  "\u25814": 219,
  ").": 220,
  "t": 221,
  "\u2581p": 222,
  "os": 223,
  "\u0148e": 224,
  "\u2581nek": 225,
  "es": 226,
  "\u2581Devljes": 227,
  "\u2581aver": 228,
  "\u2581amare": 229,
  "\u2581angl": 230,
  "\u2581sikavel": 231,
  "\u2581\u010derel": 232,
  "\u2581baro": 233,
  "\u2581hino": 234,
  "\u2581pomo\u017eini": 235,
  "\u2581Andre": 236,
  "\u2581nav": 237,
  "\u2581ber\u0161": 238,
  "]": 239,
  "\u2581ljen": 240,
  "\u25818": 241,
  "\u2581do": 242,
  "ki": 243,
  "\u2581Devel": 244,
  "\u2581haberi": 245,
  "\u2581Satan": 246,
  "alm": 247,
  "\u2581Ako": 248,
  "\u2581a\u0148i": 249,
  "\u2581\u010da\u010de": 250,
  "\u2581Beng": 251,
  "\u2581than": 252,
  "\u2581Devleske": 253,
  "se": 254,
  "\u2581Ka": 255,
  "r": 256,
  "le": 257,
  "\u2581d": 258,
  "\u2581manglj": 259,
  "\u2581tan": 260,
  ".)": 261,
  "\u2581\u0148ebos": 262,
  "\u2581ker\u010fa": 263,
  "\u2581kames": 264,
  "\u010fa": 265,
  "\u2581d\u017eanas": 266,
  "\u2581celo": 267,
  "\u0161ti": 268,
  "\u2581avela": 269,
  "\u2581dikha": 270,
  "\u2581sal": 271,
  "\u2581dikh": 272,
  "\u2581lje": 273,
  "\u2581Le": 274,
  "\u2581peske": 275,
  "ni": 276,
  "\u2581dad": 277,
  "\u25815": 278,
  "\u00e1": 279,
  "\u2581zor": 280,
  "ri": 281,
  "\u2581sam": 282,
  "\u03b8": 283,
  "\u2581go\u010fi": 284,
  "\u2581mi\u0161te": 285,
  "\u2581kra\u013ei\u0161agos": 286,
  "igen": 287,
  "\u2581d\u017eivel": 288,
  "\u2581va\u010derd\u017ea": 289,
  "\u2581pomo\u017einen": 290,
  "\u2581Ada": 291,
  "\u2581\u0161unen": 292,
  "8": 293,
  "\u25811.": 294,
  "\u2581da": 295,
  "\u2581Kaj": 296,
  "\u2581di\u0148a": 297,
  "\u2581cal": 298,
  "\u2581N": 299,
  "I": 300,
  "nes": 301,
  "\u2581daj": 302,
  "\u2581Jehovase": 303,
  "\u2581pan": 304,
  "\u2581keren": 305,
  "\u2581rom\u0148i": 306,
  "\u2581merel": 307,
  "\u2581mu\u013ea": 308,
  "\u2581biblick": 309,
  "\u2581bu\u0165i": 310,
  "3:1": 311,
  "\u2581kampel": 312,
  "\u2581upr": 313,
  "\u2581duma": 314,
  "\u2581aves": 315,
  "\u2581slu\u017eba": 316,
  "\u2581ajso": 317,
  "\u2581tumar": 318,
  "\u2581Kana": 319,
  "\u2581svetos": 320,
  "\u2581Va": 321,
  "\u2581pomo\u017einel": 322,
  "y": 323,
  "\u2581\u010deren": 324,
  "\u25812": 325,
  "sto": 326,
  "vo": 327,
  "\u2581h": 328,
  "\u2581kamen": 329,
  "ebe": 330,
  "\u2581kam": 331,
  "\u2581t": 332,
  "ma": 333,
  "\u010de": 334,
  "\u2581dikhel": 335,
  "\u2581drom": 336,
  "\u2581Va\u0161oda": 337,
  "\u00ec": 338,
  "\u2581biblijak": 339,
  "\u2581radi\u0161agos": 340,
  "\u2581vakti": 341,
  "\u2581dive": 342,
  "\u2581pa\u0165as": 343,
  "\u2581akor": 344,
  "10": 345,
  "\u2581lafija": 346,
  "\u2581ajse": 347,
  "\u2581Ale": 348,
  "\u2581rom\u0148a": 349,
  "\u2581angljeder": 350,
  "enca": 351,
  "\u2581lji": 352,
  "\u2581leste": 353,
  "the": 354,
  "\u2581san": 355,
  "\u258116": 356,
  "di": 357,
  "\u2581d\u017eal": 358,
  "ta": 359,
  "\u2581len": 360,
  "\u2581mange": 361,
  "\u2581phen": 362,
  "eder": 363,
  "aha": 364,
  "\u2581Da": 365,
  "ol": 366,
  "\u2581ode": 367,
  "?\u201c": 368,
  "ge": 369,
  "\u013ea": 370,
  "st": 371,
  "nas": 372,
  "\u2581pa": 373,
  "\u2581ca": 374,
  "\u2581manu\u0161es": 375,
  "leskere": 376,
  "\u2581d\u017eanel": 377,
  "\u2581\u010da": 378,
  "\u2581pa\u013ei": 379,
  "\u2581\u0160": 380,
  "\u2581David": 381,
  "\u2581hiros": 382,
  "\u2581vareko": 383,
  "\u2581disav": 384,
  "\u2581Jekh": 385,
  "\u2581Kraljevstvo": 386,
  "\u2581mule": 387,
  "\u258115": 388,
  "\u2581sveto": 389,
  "\u2581kereha": 390,
  "\u2581pharo": 391,
  "\u2581phral": 392,
  "\u2581amenca": 393,
  "\u258113": 394,
  "\u2581mek": 395,
  "\u2581meriben": 396,
  "\u2581god": 397,
  "\u2581lenge": 398,
  "\u2581aleha": 399,
  "\u2581nala\u010dho": 400,
  "so": 401,
  "\u2581savo": 402,
  "\u015bt": 403,
  "ljen": 404,
  "\u2581D\u017ea": 405,
  "0": 406,
  "\u2581Ma": 407,
  "\u2581pa\u0161": 408,
  "tane": 409,
  "\u2581Ama": 410,
  "ne": 411,
  "\u017d": 412,
  "\u2581H": 413,
  "jekh": 414,
  "\u2581sim": 415,
  "\u2581Th": 416,
  "aj": 417,
  "\u2581sh": 418,
  "ini": 419,
  "\u2581Jehovasker": 420,
  "\u2581ni": 421,
  "\u2581dar": 422,
  "\u2581\u0161": 423,
  "k": 424,
  "\u2581kerela": 425,
  "\u2581ne": 426,
  "\u2581la\u010dh": 427,
  "\u2581mir": 428,
  "d": 429,
  "\u2581Sav": 430,
  "mal": 431,
  "\u2581meribe": 432,
  "\u2581\u010dhib": 433,
  "\u2581sprav": 434,
  "\u2581d\u017eana": 435,
  "\u2581vareso": 436,
  "\u0148ig": 437,
  "gani": 438,
  "\u2581kamiben": 439,
  "\u2581keres": 440,
  "\u2581\u010da\u010dipen": 441,
  "Iza": 442,
  "\u2581oljend\u017ee": 443,
  "\u2581c": 444,
  "\u2581\u0161un": 445,
  "\u2581amende": 446,
  "\u2581keras": 447,
  "\u2581phenen": 448,
  "\u2581sikljova": 449,
  "\u2581kamelas": 450,
  "\u2581Dikh": 451,
  "\u25819": 452,
  "\u2581arakh": 453,
  "ca": 454,
  "iklji": 455,
  "klo": 456,
  "\u2581Devles": 457,
  "\u2581Pal": 458,
  "ste": 459,
  "U": 460,
  "\u2581romes": 461,
  "\u2581kur": 462,
  "Me": 463,
  "\u2581an": 464,
  "alo": 465,
  "\u2581b": 466,
  "akija": 467,
  "\u2581Pav": 468,
  "lo": 469,
  "\u2581va\u010dere": 470,
  "var": 471,
  "\u2581save": 472,
  "sa": 473,
  "\u2581ch": 474,
  "\u2581a\u010dhel": 475,
  "\u2581\u010fives": 476,
  "has": 477,
  "\u2581odo": 478,
  "\u2581u": 479,
  "au": 480,
  "\u2581chud": 481,
  "\u2581Mi": 482,
  "\u2581Devle\u00e7a": 483,
  "\u2581Prekal": 484,
  "\u2581stih": 485,
  "\u2581vizija": 486,
  "\u2581chud\u0148a": 487,
  "\u2581vlad\u0148inel": 488,
  "\u2581odoljestar": 489,
  "\u2581va\u0161": 490,
  "\u2581\u010dhavoro": 491,
  "\u2581Odolje": 492,
  "\u2581phenes": 493,
  "\u2581SO": 494,
  "\u2581manu\u0161enge": 495,
  "\u2581sikaven": 496,
  "\u2581pa\u0165al": 497,
  "\u2581d\u017eanelas": 498,
  "\u2581puti": 499,
  "\u2581bari": 500,
  "\u2581sako": 501,
  "IB": 502,
  "\u2581ola": 503,
  "\u2581va\u010dera": 504,
  "\u2581f": 505,
  "genel": 506,
  "\u2581n": 507,
  "\u2581ca\u013e": 508,
  "\u25817": 509,
  "klje": 510,
  "\u258112": 511,
  "\u2581akal": 512,
  "d\u017ea": 513,
  "\u2581pomo\u017eina": 514,
  "ut": 515,
  "\u2581ako": 516,
  "\u2581m": 517,
  "\u25811": 518,
  "\u2581mu\u0161ine": 519,
  "\u2581d\u017eivena": 520,
  "\u2581jekhe": 521,
  "H": 522,
  "do": 523,
  "\u2581presikave": 524,
  "me": 525,
  "mo": 526,
  "2.": 527,
  "\u2581den": 528,
  "\u2581dikhela": 529,
  "an": 530,
  "\u2581chi": 531,
  "li": 532,
  "\u2581ama": 533,
  "\u2581mangen": 534,
  "lje": 535,
  "\u010d": 536,
  "Sose": 537,
  "ti": 538,
  "dova": 539,
  "\u2581cha": 540,
  "\u2581phenela": 541,
  "\u2581lafi": 542,
  "\u2581problemi": 543,
  "\u2581\u010dhavo": 544,
  "\u2581lav": 545,
  "\u2581avel": 546,
  "S": 547,
  "\u2581z": 548,
  "/": 549,
  "\u2581dukh": 550,
  "\u2581mothod\u017e": 551,
  "\u2581pa\u0165iv": 552,
  "\u2581zapovestija": 553,
  "\u2581zna\u010dini": 554,
  "\u2581\u0292ene": 555,
  "\u2581mangipe": 556,
  "\u2581sastankija": 557,
  "\u2581varekas": 558,
  "\u2581Rachab": 559,
  "\u2581Akana": 560,
  "\u2581va\u0161oda": 561,
  "\u2581mishto": 562,
  "\u2581Kamel": 563,
  "\u2581smirom": 564,
  "\u2581\u010dasos": 565,
  "\u0148i\u010d": 566,
  "\u2581rajos": 567,
  "\u2581Avka": 568,
  "\u2581pheja": 569,
  "\u2581akana": 570,
  "\u2581d\u017eivas": 571,
  "\u2581kurko": 572,
  "\u2581d\u017eikas": 573,
  "\u010cer": 574,
  "\u2581stare\u0161ina": 575,
  "\u2581Petr": 576,
  "\u2581khal": 577,
  "\u2581televiz": 578,
  "\u2581dikhes": 579,
  "\u2581mod\u013einel": 580,
  "\u2581mur": 581,
  "\u258114": 582,
  "\u2581Hin": 583,
  "\u2581rroma": 584,
  "\u2581verno": 585,
  "am": 586,
  "\u2581slu\u017einel": 587,
  "\u2581oven": 588,
  "\u2581d\u017eanen": 589,
  "\u2581tha": 590,
  "\u2581mo\u0107": 591,
  ":4": 592,
  "\u2581dija": 593,
  "\u2581Ce": 594,
  "\u2581Isuses": 595,
  "\u2581d\u017ea": 596,
  "\u2581Devljese": 597,
  "\u2581sose": 598,
  "c": 599,
  "\u258110": 600,
  "\u2581anda": 601,
  "sko": 602,
  "ipe": 603,
  "\u2581oljese": 604,
  "oha": 605,
  "i\u0161": 606,
  "\u2581mothov": 607,
  "om": 608,
  "nd\u017ee": 609,
  "\u2581maj": 610,
  "ji": 611,
  "kija": 612,
  "\u2581sig": 613,
  "Z": 614,
  "\u2581pomo\u017ein": 615,
  "\u2581d\u017eiven": 616,
  "\u2581mu\u0161in": 617,
  "\u2581\u017d": 618,
  "\u2581li": 619,
  "\u010c": 620,
  "kero": 621,
  "\u2581L": 622,
  "nend\u017ee": 623,
  "\u2581\u010dhivel": 624,
  "Tu": 625,
  "gra": 626,
  "\u2581ke": 627,
  "\u2581phena": 628,
  "za": 629,
  "endar": 630,
  "ulo": 631,
  "\u2581Is": 632,
  "\u2581film": 633,
  "\u2581slu\u017eob\u0148ik": 634,
  "D": 635,
  "dava": 636,
  "\u2581th": 637,
  "inel": 638,
  "i\u0148i": 639,
  "f": 640,
  "oske": 641,
  "\u2581stran": 642,
  "go": 643,
  "\u258111": 644,
  "\u2581And": 645,
  "\u2581av\u013ea": 646,
  "\u2581Pre": 647,
  "\u2581d\u017eivip": 648,
  "\u01ce": 649,
  "pokojis": 650,
  "\u2581sastanko": 651,
  "\u2581Pa\u013eis": 652,
  "\u2581apostol": 653,
  "\u2581proroctvos": 654,
  "\u2581PAL": 655,
  "\u2581bi\u010dha": 656,
  "\u2581sika\u010fa": 657,
  "Zjave": 658,
  "\u2581odmukhel": 659,
  "J\u00e1n": 660,
  "\u2581ma\u0161kar": 661,
  "\u2581zakon": 662,
  "\u2581volja": 663,
  "\u2581averend\u017ee": 664,
  "\u2581pu\u010d": 665,
  "LI": 666,
  "\u2581tumendar": 667,
  "\u2581kadala": 668,
  "\u258118": 669,
  "\u2581Fal": 670,
  "\u2581mangaja": 671,
  "\u2581\u010dhaj": 672,
  "\u2581jakha": 673,
  "\u2581Devlestar": 674,
  "okim": 675,
  "\u2581dujto": 676,
  "\u2581muke": 677,
  "\u2581lila": 678,
  "\u2581vera": 679,
  "isto": 680,
  "\u2581Ca": 681,
  "\u2581anen": 682,
  "\u2581avke": 683,
  "ilo": 684,
  "\u2581rat": 685,
  "\u2581rodel": 686,
  "area": 687,
  "\u258120": 688,
  "\u2581\u0161unel": 689,
  "der": 690,
  "\u2581bare": 691,
  "\u2581daran": 692,
  "\u2581naj": 693,
  "ala": 694,
  "rimo": 695,
  "\u2581\u010dhave": 696,
  "TE": 697,
  "er": 698,
  "\u2581avera": 699,
  "\u2581Savor": 700,
  "\u2581Tu": 701,
  "odola": 702,
  "em": 703,
  "avav": 704,
  "ero": 705,
  "\u2581je": 706,
  "\u2581C": 707,
  "\u2581cu": 708,
  "\u015b": 709,
  "\u017ee": 710,
  "\u2581Man": 711,
  "Ps": 712,
  "\u0148i": 713,
  "\u2581Bar": 714,
  "\u2581mangel": 715,
  "is": 716,
  "\u2581buti": 717,
  "\u2581spl\u0148in": 718,
  "on": 719,
  "\u2581nik": 720,
  "L": 721,
  "\u2581Andr": 722,
  "ski": 723,
  "kri": 724,
  "\u2581va\u010deren": 725,
  "d\u017ei": 726,
  "Te": 727,
  "Ko": 728,
  "\u2581vakerel": 729,
  "miri": 730,
  "\u2581sav": 731,
  "ra": 732,
  "enge": 733,
  "\u2581sikljov": 734,
  "\u2581R": 735,
  "\u00e1r\u00e1": 736,
  "\u2581kas": 737,
  "\u2581ba": 738,
  "qe": 739,
  "\u2581nala\u010dh": 740,
  "Ka": 741,
  "\u2581vi": 742,
  "\u2581g": 743,
  "\u2581Savo": 744,
  "\u2581gr": 745,
  "\u2581va\u010der": 746,
  "\u2581grast": 747,
  "\u2581KO": 748,
  "\u25816": 749,
  "\u010der": 750,
  "\u2581a\u0161ar": 751,
  "lja": 752,
  "uri": 753,
  "savr\u0161en": 754,
  "\u2581Rebeka": 755,
  "\u2581SAR": 756,
  "\u2581Timotej": 757,
  "\u2581kapitola": 758,
  "\u2581kara\u010do\u0148a": 759,
  "\u2581man\u017eelstvo": 760,
  "\u2581mod\u013einas": 761,
  "\u2581otazki": 762,
  "\u2581prikazinel": 763,
  "\u2581zboros": 764,
  "\u2581davkerel": 765,
  "\u2581proro\u010danstv": 766,
  "\u2581protiv": 767,
  "\u2581bararen": 768,
  "\u2581pu\u010diba": 769,
  "\u2581Lazar": 770,
  "\u2581pisini": 771,
  "\u2581stvorin\u010fa": 772,
  "\u2581Izak": 773,
  "\u2581Romale": 774,
  "Mu\u0161in": 775,
  "\u2581mi\u015bto": 776,
  "\u010di\u0165e": 777,
  "\u2581pa\u010da": 778,
  "\u2581D\u017ei": 779,
  "\u2581neve": 780,
  "\u2581Petar": 781,
  "\u2581zoraljipe": 782,
  "\u2581Sako": 783,
  "\u2581manu\u0161end\u017ee": 784,
  "\u2581kra\u013eis": 785,
  "\u2581radisa\u013eo": 786,
  "\u2581zoralo": 787,
  "\u2581demonja": 788,
  "\u2581sikaves": 789,
  "\u2581pozna": 790,
  "\u2581phend\u017eas": 791,
  "\u2581asan": 792,
  "\u2581kamarata": 793,
  "\u2581romni": 794,
  "\u2581korkoro": 795,
  "\u2581\u010ditine": 796,
  "\u2581Adam": 797,
  "\u2581svetoske": 798,
  "stvo": 799,
  "hari": 800,
  "\u2581modlitbi": 801,
  "o\u017eno": 802,
  "\u2581sem": 803,
  "\u2581slava": 804,
  "\u2581lo\u0161no": 805,
  "\u2581pri": 806,
  "\u2581radi": 807,
  "LA": 808,
  "\u2581mangeja": 809,
  "\u258119": 810,
  "\u2581Fo": 811,
  "3": 812,
  "IK": 813,
  "\u2581Tir": 814,
  "\u2581pono": 815,
  "\u2581la\u010dhi": 816,
  "irija": 817,
  "\u2581dikhas": 818,
  "ay": 819,
  "\u2581Jov": 820,
  "\u2581\u010fivesa": 821,
  "\u2581ljese": 822,
  "lenca": 823,
  "ino": 824,
  "ovi": 825,
  "\u2581sprava": 826,
  "\u2581kerav": 827,
  "\u2581barola": 828,
  "lam": 829,
  "ehas": 830,
  "\u2581do\u013eiker": 831,
  "ind\u017ea": 832,
  "\u2581ade": 833,
  "\u2581vern": 834,
  "\u2581Sa": 835,
  "\u2581ber\u0161a": 836,
  "\u2581haljo": 837,
  "\u2581w": 838,
  "eri": 839,
  "je": 840,
  "\u2581vakerela": 841,
  "inen": 842,
  "\u2581\u010dhivker": 843,
  "res": 844,
  "\u2581Si": 845,
  "\u2581a\u0148jel": 846,
  "avas": 847,
  "\u2581manu\u0161eske": 848,
  "las": 849,
  "d\u017eal": 850,
  "\u2581\u010dhid": 851,
  "...": 852,
  "av\u013eal": 853,
  "\u2581ut": 854,
  "9": 855,
  "nen": 856,
  "\u2581ge": 857,
  "\u2581prv": 858,
  "\u2581\u010derav": 859,
  "\u2581bachtal": 860,
  "ce": 861,
  "\u2581gre": 862,
  "eta": 863,
  "zo": 864,
  "7": 865,
  "sala": 866,
  "\u2581Av": 867,
  "be": 868,
  "\u2581T": 869,
  "G": 870,
  "\u2581dara": 871,
  "\u2581koristi": 872,
  "po": 873,
  "\u2581mande": 874,
  "and": 875,
  "cen": 876,
  "\u2581V": 877,
  "ven": 878,
  "w": 879,
  "\u258123": 880,
  "\u2581dikhena": 881,
  "16": 882,
  "um": 883,
  "\u2581vi\u010din": 884,
  "\u2581\u010diti": 885,
  "\u2581tute": 886,
  "\u2581slu\u017ein": 887,
  "\u2581pomo\u017einela": 888,
  "\u2581pred": 889,
  "\u2581a\u010dho": 890,
  "kola": 891,
  "KA": 892,
  "\u2581Rom": 893,
  "\u2581d\u017eane": 894,
  "\u2581vast": 895,
  "\u2581mur\u0161": 896,
  "upro": 897,
  "\u2581st": 898,
  "ate": 899,
  "\u2581vo": 900,
  "\u0148a": 901,
  "\u2581Mar": 902,
  "ura": 903,
  "IN": 904,
  "\u2581ljegari": 905,
  "\u2581okoljen": 906,
  "mo\u017ein": 907,
  "\u2581phu\u010d": 908,
  "\u2581svako": 909,
  "i\u010dini": 910,
  "Mat": 911,
  "\u2581Izrael": 912,
  "\u2581apo\u0161tol": 913,
  "ghes": 914,
  "nternet": 915,
  "\u2581Elijezer": 916,
  "\u2581ODOVA": 917,
  "\u2581budinel": 918,
  "\u2581fistani": 919,
  "\u2581komentarija": 920,
  "\u2581kres\u0165an": 921,
  "\u2581mad\u017eije": 922,
  "\u2581nasvalo": 923,
  "\u2581odphenel": 924,
  "\u2581odva\u017eno": 925,
  "\u2581preferato": 926,
  "\u2581proroctva": 927,
  "\u2581stra\u017eari": 928,
  "\u2581trapi\u0161agos": 929,
  "\u2581varekana": 930,
  "\u2581va\u017ena": 931,
  "\u2581zahval": 932,
  "ordjol": 933,
  "\u2581Bachtale": 934,
  "\u2581lafenca": 935,
  "\u2581vlast": 936,
  "\u2581FILM": 937,
  "\u2581na\u010delija": 938,
  "\u2581sikljilj": 939,
  "\u2581nadgledniko": 940,
  "\u2581vurdon": 941,
  "VE": 942,
  "\u2581va\u017eno": 943,
  "\u2581vreme": 944,
  "org": 945,
  ":29)": 946,
  "\u2581\u0161tudi": 947,
  "\u2581s\u013eubin\u010fa": 948,
  "\u2581Jona": 949,
  "\u2581sakones": 950,
  "\u2581\u010das\u0165": 951,
  "\u258124:14)": 952,
  "\u2581\u0148espravodliva": 953,
  "\u2581dopere": 954,
  "\u2581vzkrjesimen": 955,
  "\u2581be\u0161e": 956,
  "\u2581posve": 957,
  "\u2581ve\u010d": 958,
  "\u2581sprind\u017earel": 959,
  "Matej": 960,
  "OV": 961,
  "\u258117": 962,
  "\u2581z\u0148i\u010dimen": 963,
  "\u2581Elis": 964,
  "\u2581Hai": 965,
  "\u2581avrenge": 966,
  "\u2018\u201c": 967,
  "\u2581jileskr": 968,
  "\u2581ve\u015b": 969,
  "\u2581d\u017eives": 970,
  "\u2581avreske": 971,
  "krst": 972,
  "\u2581tumend\u017ee": 973,
  "\u2581trapine": 974,
  "\u2581pisimen": 975,
  "\u2581sakoneske": 976,
  "\u2581glavn": 977,
  "\u2581phares": 978,
  "\u2581nashti": 979,
  "\u2581(1.": 980,
  "\u2581kerde": 981,
  "\u2581ti\u0161": 982,
  "\u2581zachra\u0148inel": 983,
  "\u2581nala\u010dhipen": 984,
  "\u2581ada\u010fives": 985,
  "\u2581vov": 986,
  "\u2581nevo": 987,
  "\u2581hijan": 988,
  "u\u0161": 989,
  "\u2581a\u010dhile": 990,
  "\u2581roz": 991,
  "\u2581oljeng": 992,
  "\u2581Raj": 993,
  "\u2581a\u010dhi\u013ea": 994,
  "\u2581dadeske": 995,
  "\u2581razmislina": 996,
  "\u2581tumenca": 997,
  "\u2581Dade": 998,
  "\u2581sikavas": 999,
  "\u2581dui": 1000,
  "\u2581varesave": 1001,
  "\u2581jileskere": 1002,
  "\u2581pregenel": 1003,
  "\u2581tikn": 1004,
  "\u2581\u010dhibja": 1005,
  "\u2581predlog": 1006,
  "\u2581u\u010dhar": 1007,
  "\u2581dikhav": 1008,
  "\u2581zorale": 1009,
  "\u2581par": 1010,
  "\u2581odolje": 1011,
  "\u2581kerla": 1012,
  "\u2581pharipena": 1013,
  "\u2581olestar": 1014,
  "dea": 1015,
  "\u25814)": 1016,
  "\u2581phirel": 1017,
  "ile": 1018,
  "\u2581go\u010faver": 1019,
  "\u2581Jeremija": 1020,
  "\u2581Prem": 1021,
  "D\u017d": 1022,
  "\u2581zhal": 1023,
  "\u2581mulje": 1024,
  "g": 1025,
  "\u017einen": 1026,
  "\u2581setina": 1027,
  "\u2581jed": 1028,
  "\u2581Sam": 1029,
  "\u2581muri": 1030,
  "\u2581gav": 1031,
  "\u2581zh": 1032,
  "nge": 1033,
  "\u2581mol": 1034,
  "\u2581strana": 1035,
  "\u2581di\u0148": 1036,
  "\u2581pa\u010din": 1037,
  "\u2581phiren": 1038,
  "\u258121": 1039,
  "\u2581fo": 1040,
  "sh": 1041,
  "\u2581i\u010dera": 1042,
  "\u2581Pu\u010d": 1043,
  "\u2581Devlesa": 1044,
  "\u2581\u010dhiva": 1045,
  "\u2581\u010ca\u010de": 1046,
  "\u2581tutar": 1047,
  "\u2581des": 1048,
  "\u2581Ame": 1049,
  "z": 1050,
  "nja": 1051,
  "\u0148iko": 1052,
  "\u2581\u0161a": 1053,
  "ba": 1054,
  "6)": 1055,
  "d\u017eas": 1056,
  "\u2581slu\u017einen": 1057,
  "kar": 1058,
  "\u2581u\u0161tad": 1059,
  "\u2581avren": 1060,
  "\u2581lava": 1061,
  "\u2581tri": 1062,
  "\u2581ova": 1063,
  "\u2581foros": 1064,
  "ime": 1065,
  "\u2581De": 1066,
  "\u2581dil": 1067,
  "\u2581kha": 1068,
  "\u2581ove": 1069,
  "So": 1070,
  "imen": 1071,
  "kere": 1072,
  "\u2581vi\u010dini": 1073,
  "\u2581Naj": 1074,
  "eso": 1075,
  "imo": 1076,
  "\u2581koristin": 1077,
  "\u2581pres": 1078,
  "\u2581per\u0161": 1079,
  "\u2581mera": 1080,
  "\u2581rrom": 1081,
  "\u2581isilje": 1082,
  "\u2581Je\u017ei\u0161os": 1083,
  "ek": 1084,
  "\u2581Ki": 1085,
  "Mang": 1086,
  "del": 1087,
  "\u2581kana": 1088,
  "pravo": 1089,
  "kerel": 1090,
  "\u2581mer": 1091,
  "\u017e": 1092,
  "esko": 1093,
  "\u2581Pavl": 1094,
  "\u2581dos": 1095,
  "\u2581U": 1096,
  "i\u017ee": 1097,
  "rav": 1098,
  "\u2581sikav": 1099,
  "\u2581\u010dhiv": 1100,
  "ako": 1101,
  "\u2581tern": 1102,
  "ges": 1103,
  "\u010dk": 1104,
  "\u2581F": 1105,
  "\u2581av": 1106,
  "\u2581oko": 1107,
  "eja": 1108,
  "\u2581kamela": 1109,
  "\u2581La": 1110,
  "per\u0161o": 1111,
  "\u2581dokonal": 1112,
  "\u2581a\u0148jelen": 1113,
  "\u2581od": 1114,
  "vod": 1115,
  "eci": 1116,
  "\u2581puran": 1117,
  "\u2581dikhe": 1118,
  "\u2581prea\u010dhe": 1119,
  "jen": 1120,
  "2": 1121,
  "\u013ei": 1122,
  "\u2581odi": 1123,
  "amen": 1124,
  "\u2581sved": 1125,
  "\u25812.": 1126,
  "\u2581kh": 1127,
  "\u2581Mu": 1128,
  "rel": 1129,
  "ndro": 1130,
  "E": 1131,
  "nd\u017ea": 1132,
  "\u010dmi": 1133,
  "Isa": 1134,
  "pa\u0161e": 1135,
  "ijam": 1136,
  "\u2581to": 1137,
  "cu": 1138,
  "\u2581\u010dere": 1139,
  "\u2581\u010dhaven": 1140,
  "pre": 1141,
  "\u2581sikh\u013eo": 1142,
  "Dikh": 1143,
  "Th": 1144,
  "baro": 1145,
  "\u2581Sh": 1146,
  "\u2581\u0292an": 1147,
  "EM": 1148,
  "ende": 1149,
  "sho": 1150,
  "Kaj": 1151,
  "rde": 1152,
  "n\u010fa": 1153,
  "\u2581\u0161t": 1154,
  "Le": 1155,
  "\u2581i\u010der": 1156,
  "\u2581Ba": 1157,
  "ker": 1158,
  "\u2581Devlje": 1159,
  "\u2581daja": 1160,
  "\u2581vi\u010dine": 1161,
  "\u2581Ave": 1162,
  "\u2581narod": 1163,
  "hena": 1164,
  "\u2581tume": 1165,
  "du": 1166,
  "\u2581moxton": 1167,
  "ibe": 1168,
  "\u2581dades": 1169,
  "\u2581pharipen": 1170,
  "ge\u013ea": 1171,
  "\u2581vaker": 1172,
  ":11": 1173,
  "\u2581jas": 1174,
  "\u013eaha": 1175,
  "\u2581mod\u013eine": 1176,
  "ikno": 1177,
  "Pr": 1178,
  "dr": 1179,
  "ica": 1180,
  "ive": 1181,
  "datko": 1182,
  "vno": 1183,
  "mp": 1184,
  "leha": 1185,
  "\u2581moljina": 1186,
  "Ne": 1187,
  "resikaven": 1188,
  "i\u0161\u013ein": 1189,
  "\u2581vzkrjes": 1190,
  "azmislin": 1191,
  "spravodliva": 1192,
  "\u2581Y": 1193,
  "hor\u0161eder": 1194,
  "\u2581dur": 1195,
  "\u2581trpezliv": 1196,
  "\u2581vi\u0161vet\u013ein": 1197,
  "LJI": 1198,
  "\u2581Nekbareder": 1199,
  "\u2581Phu\u010d": 1200,
  "\u2581Stra\u017e": 1201,
  "\u2581bere\u010detija": 1202,
  "\u2581chra\u0148inen": 1203,
  "\u2581dokon\u010dinel": 1204,
  "\u2581molitva": 1205,
  "\u2581najva\u017eno": 1206,
  "\u2581od\u010dhivel": 1207,
  "\u2581organizacija": 1208,
  "\u2581pa\u010div": 1209,
  "\u2581pindre": 1210,
  "\u2581pisin\u010fa": 1211,
  "\u2581polo\u0161no": 1212,
  "\u2581povezim": 1213,
  "\u2581pribehostar": 1214,
  "\u2581radisa\u013euvas": 1215,
  "\u2581verovanja": 1216,
  "\u2581zhroma\u017e\u010fe\u0148a": 1217,
  "\u2581zjazdos": 1218,
  "\u2581\u010cERE": 1219,
  "\u2581\u0148isostar": 1220,
  "glasin": 1221,
  "obi\u010daj": 1222,
  "\u2581bakrore": 1223,
  "\u2581bo\u013eip": 1224,
  "\u2581ciche": 1225,
  "\u2581hrobos": 1226,
  "\u2581slo\u017eini": 1227,
  "\u2581Dujto": 1228,
  "\u2581Romania": 1229,
  "\u2581Joz": 1230,
  "\u2581podstaknin": 1231,
  "\u2581stvori": 1232,
  "\u2581\u017eivin": 1233,
  "\u2581garu": 1234,
  "\u2581\u0161havo": 1235,
  "\u2581Devleha": 1236,
  "\u2581potopa": 1237,
  "\u2581Kralj": 1238,
  "\u2581zora\u013ei": 1239,
  "\u2581baja\u010der": 1240,
  "\u2581razlogija": 1241,
  "r\u00e1sh": 1242,
  "\u2581ve\u010dera": 1243,
  "\u2581poseta": 1244,
  "\u2581falo\u0161n": 1245,
  "\u2581Elija\u0161": 1246,
  "\u2581\u0148isav": 1247,
  "\u2581khan\u0107": 1248,
  "\u2581veli\u0165e\u013eis": 1249,
  "\u2581ve\u017ea": 1250,
  "tressome": 1251,
  "\u2581be\u015b": 1252,
  "\u2581brinin": 1253,
  "\u2581aveha": 1254,
  "uvek": 1255,
  "\u2581bister": 1256,
  "\u2581peravi": 1257,
  "ukhen": 1258,
  "\u2581\u010dhinavi": 1259,
  "atsko": 1260,
  "\u2581chaben": 1261,
  "\u2581mariben": 1262,
  "\u2581vazdel": 1263,
  "\u2581posledn": 1264,
  "ENE": 1265,
  "\u2581bokh": 1266,
  "psko": 1267,
  "\u2581201": 1268,
  "\u258146:10": 1269,
  "\u2581loli": 1270,
  "\u2581kamaratos": 1271,
  "\u2581chu\u0165": 1272,
  "\u2581poz": 1273,
  "\u2581hlaso": 1274,
  "\u2581naro\u010finel": 1275,
  "\u2581prou\u010din": 1276,
  "\u2581raklo": 1277,
  "puno": 1278,
  "\u2581dod\u017eanaha": 1279,
  "\u2581gone": 1280,
  "\u2581nakha": 1281,
  "igeder": 1282,
  "\u2581\u010dor": 1283,
  "\u2581Evaha": 1284,
  "4:3": 1285,
  "\u2581publikacij": 1286,
  "OR": 1287,
  "\u2581sikad\u017ea": 1288,
  "\u2581gono": 1289,
  "\u2581po\u0161ukar": 1290,
  "\u2581\u0148e": 1291,
  "sarinend\u017ee": 1292,
  "\u2581sukar": 1293,
  "\u2581d\u017eene": 1294,
  "aribe": 1295,
  "\u2581SE": 1296,
  "\u2581d\u017eel": 1297,
  "\u2581Keci": 1298,
  "\u010dinen": 1299,
  "\u2581skup": 1300,
  "\u2581i\u010dere": 1301,
  "\u2581mulo": 1302,
  "\u2581bu\u010d": 1303,
  "\u2581dikhlja": 1304,
  "\u2581genaha": 1305,
  "\u2581mandar": 1306,
  "\u2581suv": 1307,
  "\u2581trai": 1308,
  "\u2581korkores": 1309,
  "\u2581va\u010deribe": 1310,
  "\u2581kadaja": 1311,
  "\u2581thu": 1312,
  "\u2581vladar": 1313,
  "cka": 1314,
  "\u2581avdije": 1315,
  "\u2581acha\u013eon": 1316,
  "sera": 1317,
  "55": 1318,
  "\u2581situacij": 1319,
  "\u2581cho\u013e": 1320,
  "\u2581Per": 1321,
  "\u2581gre\u0161in": 1322,
  "\u2581svedki": 1323,
  "\u0161is": 1324,
  "\u258125": 1325,
  "\u2581osobine": 1326,
  "\u25813:9)": 1327,
  "\u2581predl": 1328,
  "\u2581dod\u017ean\u013ea": 1329,
  "\u2581shai": 1330,
  "\u2581asavk": 1331,
  "ebrejsk": 1332,
  "\u2581146:3": 1333,
  "\u2581sapa": 1334,
  "\u2581zahrada": 1335,
  "\u2581saose\u0107a": 1336,
  "arma": 1337,
  "\u2581paba": 1338,
  "\u2581k\u00f2kalo": 1339,
  "\u2581\u010da\u010dipe": 1340,
  "\u2581\u010disto": 1341,
  "\u2581pat": 1342,
  "si": 1343,
  "\u0161ka": 1344,
  "eski": 1345,
  "\u2581tato": 1346,
  "bareder": 1347,
  "\u2581slu\u017eine": 1348,
  "\u2581dvo": 1349,
  "\u2581Cam": 1350,
  "\u2581von": 1351,
  "za\u010datkostar": 1352,
  "uno": 1353,
  "aveja": 1354,
  "\u2581zave": 1355,
  "\u2581\u0148ikas": 1356,
  "\u2581la\u0107hi": 1357,
  "\u2581zasadi": 1358,
  "\u2581ages": 1359,
  "TI": 1360,
  "\u2581d\u017eanes": 1361,
  "\u2581problemija": 1362,
  "\u2581kodola": 1363,
  "\u2581a\u010dhilj": 1364,
  "\u2581plani": 1365,
  "\u2581sikljoviba": 1366,
  "\u2581pot": 1367,
  "\u2581nabo\u017eenstva": 1368,
  "\u2581pomoca": 1369,
  "\u2581okolje": 1370,
  "gre": 1371,
  "\u2581ruva": 1372,
  "lu": 1373,
  "\u2581r": 1374,
  "\u2581phenja": 1375,
  "\u2581oljestar": 1376,
  "ladi": 1377,
  "\u2581OD": 1378,
  "yas": 1379,
  "ro\u0161": 1380,
  "AN": 1381,
  "\u2581moxtona": 1382,
  "\u2581rad": 1383,
  "\u2581cho": 1384,
  "\u2581Go": 1385,
  "\u2581Je": 1386,
  "jam": 1387,
  "\u2581\u010chave": 1388,
  "\u2581di\u010dho": 1389,
  "Dad": 1390,
  "\u2581k\u0148i\u017ek": 1391,
  "\u2581mur\u0161a": 1392,
  "\u2581vasta": 1393,
  "\u2581narodo": 1394,
  "\u2581rom\u0148ake": 1395,
  "\u2581zad\u017eiv": 1396,
  "\u2581sut": 1397,
  "\u2581sovel": 1398,
  "\u2581grasta": 1399,
  "3)": 1400,
  "krajin": 1401,
  "DO": 1402,
  "skero": 1403,
  "stav": 1404,
  "\u2581kothe": 1405,
  "\u2581\u010dhinava": 1406,
  "nost": 1407,
  "\u2581d\u017eand\u017e": 1408,
  "\u2581mangav": 1409,
  ":17": 1410,
  "\u2581Chi": 1411,
  "dem": 1412,
  "ute": 1413,
  "\u2581ker": 1414,
  "romeha": 1415,
  "mora": 1416,
  "\u2581vilo": 1417,
  "olenge": 1418,
  "ensa": 1419,
  "\u2581a\u010dhela": 1420,
  "\u2581Judejc": 1421,
  "\u2581d\u017eik": 1422,
  "\u2581panj": 1423,
  "\u2581Ur": 1424,
  "anje": 1425,
  "\u2581spo": 1426,
  "ori": 1427,
  "\u2581odgovorin": 1428,
  "\u2581ame": 1429,
  "ren": 1430,
  "co": 1431,
  "nos": 1432,
  "lija": 1433,
  "vos": 1434,
  "\u2581gen": 1435,
  "\u2581za": 1436,
  "\u2581pestar": 1437,
  "\u2581pa\u0148": 1438,
  "ld\u017ea": 1439,
  "ndar": 1440,
  "ava": 1441,
  "\u2581\u0292a": 1442,
  "\u2581pani": 1443,
  "\u2581muka": 1444,
  "\u2581skup\u0161tina": 1445,
  "d\u017ee": 1446,
  "\u2581ispunin": 1447,
  "\u2581bij": 1448,
  "ljend\u017ee": 1449,
  "\u20131": 1450,
  "\u2581a\u010dhol": 1451,
  "\u2581neko": 1452,
  "\u2581prea\u010dh": 1453,
  "vel": 1454,
  "ion": 1455,
  "gija": 1456,
  "rno": 1457,
  "iti": 1458,
  "oro": 1459,
  "\u2581G": 1460,
  "ci": 1461,
  "rd\u017ea": 1462,
  "\u2581Fi": 1463,
  "rau": 1464,
  "\u2581sta": 1465,
  "ese": 1466,
  "tsi": 1467,
  "\u2581u\u0161t": 1468,
  "\u2581gi\u013eava": 1469,
  "].": 1470,
  "lia": 1471,
  "\u2581u\u0161ta": 1472,
  "\u2581prov": 1473,
  "\u2581dikhen": 1474,
  "\u2581tele": 1475,
  "\u2581v": 1476,
  "\u2581ajs": 1477,
  "ral": 1478,
  "omk": 1479,
  "\u2581mothoven": 1480,
  "\u2581gra": 1481,
  "\u2581\u010dhavores": 1482,
  "d\u017ean": 1483,
  "\u2581savoren": 1484,
  "\u2581bachtale": 1485,
  "e\u0161": 1486,
  "\u2581\u010dhavore": 1487,
  "\u2581kale": 1488,
  "\u0107": 1489,
  "\u2581pr": 1490,
  "\u2581pesk": 1491,
  "\u2581pije": 1492,
  "elas": 1493,
  "\u2581\u0165": 1494,
  "bo": 1495,
  "\u2581sava": 1496,
  "\u2581y": 1497,
  "\u2581sikljo": 1498,
  "miro": 1499,
  "K": 1500,
  "e\u010fi": 1501,
  "trag": 1502,
  "dija": 1503,
  "loso": 1504,
  "\u2581\u010dasopis": 1505,
  "\u2581\u010dlank": 1506,
  "\u2581ve": 1507,
  "\u2581arakha": 1508,
  "\u2581acha\u013e": 1509,
  "T": 1510,
  "adi": 1511,
  "\u2581hija": 1512,
  "rokos": 1513,
  "\u2581olje": 1514,
  "\u2581Tha": 1515,
  "ga": 1516,
  "\u2581xa": 1517,
  "\u2581saves": 1518,
  "ora": 1519,
  "\u2581pra": 1520,
  "RA": 1521,
  "\u2581mili": 1522,
  "\u2581terne": 1523,
  "bol": 1524,
  "\u2581lesker": 1525,
  "vna": 1526,
  "r\u01ce": 1527,
  "\u013ealas": 1528,
  "h": 1529,
  "re\u010d": 1530,
  "\u2581skup\u0161tin": 1531,
  "P": 1532,
  "\u2581ver": 1533,
  "B": 1534,
  "\u2581vz": 1535,
  "\u2581\u013eiker": 1536,
  "\u2581\u010d": 1537,
  "N": 1538,
  "\u2581halj": 1539,
  "\u2581Amar": 1540,
  "\u2581ter": 1541,
  "\u2581bori": 1542,
  "\u2581avere": 1543,
  "nela": 1544,
  "mu": 1545,
  "\u2581kid": 1546,
  "\u2581Kas": 1547,
  "\u0161ta": 1548,
  "\u2581savest": 1549,
  "\u2581su": 1550,
  "\u2581Ti": 1551,
  "\u2581ak": 1552,
  "\u2581love": 1553,
  "eskre": 1554,
  "M": 1555,
  "Gal": 1556,
  "dno": 1557,
  "\u2581Ch": 1558,
  "\u2581Kor": 1559,
  "keras": 1560,
  "bare": 1561,
  "ine": 1562,
  "Judejc": 1563,
  "Pu\u010d": 1564,
  "\u2581cide": 1565,
  "D\u017ea": 1566,
  "Ur": 1567,
  "slu\u017eine": 1568,
  "Jov": 1569,
  "Oda": 1570,
  "sprav": 1571,
  "kerav": 1572,
  "\u2581ta\u010d": 1573,
  "Na": 1574,
  "\u2581Kol": 1575,
  "Ki": 1576,
  "unes": 1577,
  "\u2581mu": 1578,
  "\u2581k\u0148i\u017e": 1579,
  "Av": 1580,
  "\u010da": 1581,
  "nje": 1582,
  "lika": 1583,
  "vodi": 1584,
  "4": 1585,
  "d\u017e": 1586,
  "dal": 1587,
  "\u2581kor": 1588,
  "\u2581arak": 1589,
  "\u2581\u010dhin": 1590,
  "\u2581sluga": 1591,
  "mo\u0107": 1592,
  "\u2581daro": 1593,
  "Za": 1594,
  "\u2581ru": 1595,
  ":23": 1596,
  "\u010f": 1597,
  "\u2581Les": 1598,
  "Da": 1599,
  "vilo": 1600,
  "oj": 1601,
  "\u2581simto": 1602,
  "cr": 1603,
  "\u2581manga": 1604,
  "ato": 1605,
  "hi": 1606,
  "udz": 1607,
  "\u2581slav": 1608,
  "ami": 1609,
  "spo": 1610,
  "\u2581lo\u0161n": 1611,
  "d\u017eivav": 1612,
  "up": 1613,
  "\u2581kr": 1614,
  "\u2581baxtal": 1615,
  "utno": 1616,
  "eng": 1617,
  "\u2581manush": 1618,
  "und": 1619,
  "\u2581nabo\u017eenstv": 1620,
  "\u2581kher": 1621,
  "\u2581\u010derd\u017e": 1622,
  "rija": 1623,
  "\u2581Bibl": 1624,
  "\u2581\u010da\u010dip": 1625,
  "\u2581ok": 1626,
  "\u2581slu\u017eb": 1627,
  "\u2581ruv": 1628,
  "\u2581pomoc": 1629,
  "\u2581\u010chav": 1630,
  "\u2581hovajb": 1631,
  "\u2581varesav": 1632,
  "ipa": 1633,
  "\u2581s\u013eub": 1634,
  "\u2581zasad": 1635,
  "\u2581la\u0107h": 1636,
  "\u2581kraj": 1637,
  "ikan": 1638,
  "\u2581modlitb": 1639,
  "\u2581olen": 1640,
  "\u2581lo\u0161nip": 1641,
  "hiv": 1642,
  "rist": 1643,
  "\u25816:1": 1644,
  "\u2581di": 1645,
  "6:3)": 1646,
  "tind\u017ea": 1647,
  "\u2581svet": 1648,
  "\u2581dod\u017ean": 1649,
  "\u2581mi\u0161\u013ein": 1650,
  "\u2581rozhod": 1651,
  "\u2581pripravi": 1652,
  "\u2581demon": 1653,
  "\u2581vlad": 1654,
  "bilo": 1655,
  "acije": 1656,
  "\u2581kra\u013e": 1657,
  "une": 1658,
  "\u2581pharip": 1659,
  "duh": 1660,
  "a\u0165a": 1661,
  "hen\u010fa": 1662,
  "\u2581vak": 1663,
  "\u2581Kraljevst": 1664,
  "ukar": 1665,
  "u\u0165": 1666,
  "mukhel": 1667,
  "mislina": 1668,
  "8:3": 1669,
  "nfor": 1670,
  "FI": 1671,
  "ungro": 1672,
  "\u2581Chechi": 1673,
  "\u2581dobrovo\u013e": 1674,
  "\u2581dokon\u010din\u010fa": 1675,
  "\u2581phundra": 1676,
  "\u2581u\u017eitkos": 1677,
  "-15": 1678,
  ":34": 1679,
  "phurta": 1680,
  "svjatk": 1681,
  "\u2581146:4": 1682,
  "\u2581Mojsije": 1683,
  "\u2581Rugiutu": 1684,
  "\u2581Solomon": 1685,
  "\u2581athadjol": 1686,
  "\u2581bakht": 1687,
  "\u2581besprekorno": 1688,
  "\u2581blagoslov": 1689,
  "\u2581dar\u010dekos": 1690,
  "\u2581govor": 1691,
  "\u2581hrabr": 1692,
  "\u2581hri\u0161\u0107an": 1693,
  "\u2581hvalina": 1694,
  "\u2581materijal": 1695,
  "\u2581nasva\u013eiben": 1696,
  "\u2581objaviteljija": 1697,
  "\u2581omukh\u013ea": 1698,
  "\u2581ose\u0107anja": 1699,
  "\u2581palpale": 1700,
  "\u2581pamtina": 1701,
  "\u2581papuc": 1702,
  "\u2581paramiz": 1703,
  "\u2581ponizn": 1704,
  "\u2581ro\u010fi\u010dja": 1705,
  "\u2581sikh\u013euv": 1706,
  "\u2581skafedi": 1707,
  "\u2581sposobno": 1708,
  "\u2581ushalin": 1709,
  "\u2581weekend": 1710,
  "\u2581zhroma\u017e\u010fe\u0148e": 1711,
  "\u2581zrachinel": 1712,
  "\u2581\u010dher": 1713,
  "\u2581\u017eivot": 1714,
  "\u017eivind\u017e": 1715,
  "\u2581Binecuvint": 1716,
  "\u2581a\u0107h": 1717,
  "\u2581knjig": 1718,
  "\u2581lad\u017ea\u010der": 1719,
  "\u2581misionar": 1720,
  "\u2581nasul": 1721,
  "\u2581phanljipe": 1722,
  "\u2581prevedim": 1723,
  "\u2581zaa\u010dh": 1724,
  "\u2581zvjerat": 1725,
  "\u2581Phene": 1726,
  "\u2581Sh\u00e1ro": 1727,
  "\u2581bango": 1728,
  "\u2581go\u010faha": 1729,
  "\u2581rakle": 1730,
  "\u2581scoala": 1731,
  "\u2581spremi": 1732,
  "\u2581sveska": 1733,
  "\u2581viljeja": 1734,
  "\u2581vladcas": 1735,
  "\u2581\u0161have": 1736,
  "\u2581Lindral": 1737,
  "roslavin": 1738,
  "\u2581Chang": 1739,
  "\u2581Socares": 1740,
  "\u2581ad\u017ei\u010der": 1741,
  "\u2581Gadje": 1742,
  "\u2581Pa\u0165as": 1743,
  "\u2581mislija": 1744,
  "\u2581takati": 1745,
  "\u2581119:1": 1746,
  "\u25815:3)": 1747,
  "\u2581podpori": 1748,
  "\u2581Spiro": 1749,
  "\u2581\u010destn": 1750,
  "kujini": 1751,
  "\u2581drago": 1752,
  "\u2581vojni": 1753,
  "\u2581osetin": 1754,
  "\u2581Yaka": 1755,
  "\u2581Job": 1756,
  "\u2581pend\u017ear": 1757,
  "rs\u0165i": 1758,
  "\u2581priklados": 1759,
  "elaxom": 1760,
  "ibnaha": 1761,
  "\u2581beshe": 1762,
  "\u2581savetniko": 1763,
  "\u2581posebn": 1764,
  "\u2581kralj": 1765,
  "\u2581visare": 1766,
  "\u2581Bo\u017ej": 1767,
  "\u2581Mesija\u0161is": 1768,
  "\u2581duhovno": 1769,
  "\u2581yerti": 1770,
  "rachin": 1771,
  "igurn": 1772,
  "\u2581misao": 1773,
  "\u2581timpo": 1774,
  "\u2581Jakov": 1775,
  "pend\u017earutn": 1776,
  ":37)": 1777,
  "slovi": 1778,
  "\u2581drab": 1779,
  "\u2581jileha": 1780,
  "\u2581Eden": 1781,
  "\u2581Jano": 1782,
  "\u2581cardean": 1783,
  "\u2581slugend\u017ee": 1784,
  "itinen": 1785,
  "\u2581drumo": 1786,
  "isinel": 1787,
  "\u2581sosqe": 1788,
  "Efe": 1789,
  "\u2581sluga\u010fenge": 1790,
  "LM": 1791,
  "\u2581gug": 1792,
  "\u2581Conf": 1793,
  "\u2581posl": 1794,
  "\u2581Izrael\u010danenge": 1795,
  "EN": 1796,
  "\u2581akaljestar": 1797,
  "\u017einel": 1798,
  "ing": 1799,
  "\u0165e\u013eiske": 1800,
  "buchi": 1801,
  "chab": 1802,
  "\u2581bah": 1803,
  "\u0161\u0165e": 1804,
  "\u2581Jevreja": 1805,
  "\u2581Sunak": 1806,
  "Rim": 1807,
  "\u2581zme\u0148ine": 1808,
  "\u2581god\u017ea": 1809,
  "\u2581\u0160un": 1810,
  "\u2581lole": 1811,
  "\u2581buki": 1812,
  "u\u017einel": 1813,
  "\u2581chach": 1814,
  "nts": 1815,
  "\u2581dobro": 1816,
  "\u2581spir": 1817,
  "\u2581dureder": 1818,
  "gled": 1819,
  ":35)": 1820,
  "\u2581Con": 1821,
  "\u258112:7": 1822,
  "\u2581Buk": 1823,
  "\u2581birin": 1824,
  "\u2581\u010dhavenca": 1825,
  "\u258122": 1826,
  "raham": 1827,
  "chang": 1828,
  "\u2581\u0161u\u0161": 1829,
  "\u2581Sukar": 1830,
  "\u2581\u010du": 1831,
  "\u2581Jer": 1832,
  "\u2581akate": 1833,
  "\u2581\u010dhavenge": 1834,
  "\u010fi\u013ea": 1835,
  "usno": 1836,
  "\u258127:": 1837,
  "\u2581zname\u0148inel": 1838,
  "\u2581phirav": 1839,
  "\u2581mo\u017eno": 1840,
  "\u2581okoljenca": 1841,
  "trv": 1842,
  "dvole\u017eiteder": 1843,
  "oper": 1844,
  "\u2581Kokal": 1845,
  "\u2581jekhetane": 1846,
  "\u2581lon": 1847,
  "\u2581nanavidzinen": 1848,
  "\u2581bakren": 1849,
  "\u2581pred\u017eiven": 1850,
  "\u2581vit": 1851,
  ":9)": 1852,
  "\u2581Adamoske": 1853,
  "vrst": 1854,
  "\u2581ya": 1855,
  "\u2581Vin": 1856,
  "\u2581Sik": 1857,
  "\u2581Cu": 1858,
  "\u0161aj": 1859,
  "\u2581Jovan": 1860,
  "moc": 1861,
  "c\u00e1": 1862,
  "\u2581avres": 1863,
  "\u2581D\u017eanas": 1864,
  "ukl": 1865,
  "\u2581Cird": 1866,
  "ves": 1867,
  "\u2581moljinamen": 1868,
  "\u2581mudard": 1869,
  "\u2581\u010dhas": 1870,
  "\u2581pripravinel": 1871,
  "\u2581savet": 1872,
  "\u2581phu\u010dena": 1873,
  "hod\u0148ine": 1874,
  "\u2581setin": 1875,
  "\u2581arakhle": 1876,
  "\u2581a\u0161arav": 1877,
  "\u2581ljegarimen": 1878,
  "\u2581Naia": 1879,
  "\u017dA": 1880,
  "\u2581jilesker": 1881,
  "\u2581zapisind": 1882,
  "\u2581mi\u0161\u013einas": 1883,
  "\u2581trad": 1884,
  "\u2581Ker": 1885,
  "djo": 1886,
  "\u2581Lo": 1887,
  "\u2581a\u010dhad\u017e": 1888,
  "\u2581zabra": 1889,
  "\u2581pobedi": 1890,
  "00": 1891,
  "trajno": 1892,
  "\u2581a\u010dhen": 1893,
  "\u2581ber": 1894,
  "\u2581dikhle": 1895,
  "\u2581pay": 1896,
  "\u2581manta": 1897,
  "tal": 1898,
  "havale": 1899,
  "nos\u0165": 1900,
  "orta": 1901,
  "\u2581pirave": 1902,
  "\u2581svakonese": 1903,
  "\u2581obe\u0107anje": 1904,
  "prind\u017eare": 1905,
  "\u2581odl": 1906,
  "nev": 1907,
  "\u2581merela": 1908,
  "\u2581zadatk": 1909,
  "\u2581Zha": 1910,
  "\u2581\u0165el": 1911,
  "\u2581u\u010denik": 1912,
  "\u010di": 1913,
  "\u2581sastimasa": 1914,
  "\u2581kula": 1915,
  "\u2581familjija": 1916,
  "\u258114:14)": 1917,
  "Arakh": 1918,
  "\u2581Pi": 1919,
  "gli": 1920,
  "\u2581ba\u015bno": 1921,
  "\u2581smir": 1922,
  "\u2581bini": 1923,
  "oris": 1924,
  "\u2581oljeste": 1925,
  "\u2581odlu\u010din": 1926,
  "nine": 1927,
  "\u2581anava": 1928,
  "arat": 1929,
  "\u2581viljes": 1930,
  "\u2581Abi": 1931,
  "\u2581slavin": 1932,
  "\u2581kasht": 1933,
  "ak\u0161": 1934,
  "ipen": 1935,
  "\u2581parno": 1936,
  "dom": 1937,
  "\u2581zoralj": 1938,
  "\u2581Bengese": 1939,
  "obro": 1940,
  "\u2581a\u0161aras": 1941,
  "\u2581pha": 1942,
  "\u2581Ji": 1943,
  "\u2581guruvn": 1944,
  "ju": 1945,
  "\u2581radisa\u013eon": 1946,
  "\u2581\u0161und": 1947,
  "\u2581zoralji": 1948,
  "\u2581Abo": 1949,
  "cirdel": 1950,
  "\u2581Pro": 1951,
  "tesko": 1952,
  "\u2581s\u013eubi": 1953,
  "o\u0161n": 1954,
  "bec": 1955,
  "\u2581sikljovib": 1956,
  "\u2581vredin": 1957,
  "londo": 1958,
  "\u2581\u010ditinen": 1959,
  "dra": 1960,
  "xari": 1961,
  "fon": 1962,
  "\u2581zachra\u0148ine": 1963,
  "\u2581raj": 1964,
  "\u2581hovajbe": 1965,
  "\u2581irin": 1966,
  "\u2581obja": 1967,
  "\u2581lo\u0161nipe": 1968,
  "5-": 1969,
  "\u2581paru": 1970,
  "\u2581pisinel": 1971,
  "upa": 1972,
  "\u2581Bo": 1973,
  "\u2581udar": 1974,
  "iben": 1975,
  "onese": 1976,
  "\u2581kamena": 1977,
  "\u2581manusha": 1978,
  "\u2581khera": 1979,
  "achiv": 1980,
  "\u2581alestar": 1981,
  "zaro": 1982,
  "\u2581vaz": 1983,
  "\u2581baxtalo": 1984,
  "us": 1985,
  "lbeno": 1986,
  "\u2581Gi\u013ea": 1987,
  "-14": 1988,
  "\u2581k\u0148i\u017eki": 1989,
  "\u2581habe": 1990,
  "\u2581asal": 1991,
  "\u2581i\u013ea": 1992,
  "\u2581Pu": 1993,
  "\u2581cha\u013ea": 1994,
  "\u2581bina": 1995,
  "ija\u0161": 1996,
  "\u2581chudel": 1997,
  "ram": 1998,
  "nisa": 1999,
  "bija": 2000,
  "ulje": 2001,
  "\u2581Tri": 2002,
  "\u258112:12": 2003,
  "\u2581Lubi": 2004,
  "\u2581arakhel": 2005,
  "\u2581rom\u0148ija": 2006,
  "\u2581past": 2007,
  "\u2581ye": 2008,
  "\u2581hovaven": 2009,
  "\u2581razmislinen": 2010,
  "\u258111:1": 2011,
  "\u2581yak": 2012,
  "\u2581Pet": 2013,
  "\u2581pherd": 2014,
  "\u2581Lol": 2015,
  "\u258114:2": 2016,
  "\u2581Rod": 2017,
  "\u2581kerenas": 2018,
  "jum": 2019,
  "ela": 2020,
  "i\u015bto": 2021,
  "37": 2022,
  "\u2581izd": 2023,
  "aljipe": 2024,
  "rigin": 2025,
  "\u25812:": 2026,
  "dola": 2027,
  "hib": 2028,
  "\u2581mudro": 2029,
  "\u2581pita": 2030,
  "\u2581d\u017eivd": 2031,
  "\u2581mu\u013eas": 2032,
  "\u2581gad": 2033,
  "\u2581prav": 2034,
  "\u2581mukl": 2035,
  "ilem": 2036,
  "nca": 2037,
  "osora": 2038,
  "\u2581verujinen": 2039,
  "\u013eikeren": 2040,
  "\u2581No": 2041,
  "\u2581Re": 2042,
  "edija": 2043,
  "\u2581jiles": 2044,
  "ones": 2045,
  "\u2581\u013ei": 2046,
  "elija": 2047,
  "\u2581sluga\u010f": 2048,
  "\u2581bu": 2049,
  "bna": 2050,
  "aroni": 2051,
  "ef": 2052,
  "\u2581odm": 2053,
  "\u2581du": 2054,
  "Tumen": 2055,
  "reja": 2056,
  "lestar": 2057,
  "\u2581dab": 2058,
  "\u2581bib": 2059,
  "ova": 2060,
  "\u2581simtos": 2061,
  "dinena": 2062,
  "R": 2063,
  "\u2581An": 2064,
  "\u2581slik": 2065,
  "edv": 2066,
  "jom": 2067,
  "khav": 2068,
  "\u258110:2": 2069,
  "\u2581ohrabrin": 2070,
  "\u2581situ": 2071,
  "OTO": 2072,
  "onja": 2073,
  "\u2581manu\u0161e": 2074,
  "\u2581Isusese": 2075,
  "\u2581peste": 2076,
  "\u2581vas": 2077,
  "ch": 2078,
  "hara": 2079,
  "\u2581zal": 2080,
  "\u2581smutno": 2081,
  "shas": 2082,
  "\u2581arakhlj": 2083,
  "sna": 2084,
  "\u2581anas": 2085,
  "\u2581ta\u010dk": 2086,
  "\u2581Ela": 2087,
  "nde": 2088,
  "gel": 2089,
  "\u2581cidel": 2090,
  "\u2581pomo\u017eind\u017e": 2091,
  "avno": 2092,
  "\u2581odoth": 2093,
  "\u2581du\u0161a": 2094,
  "ucal": 2095,
  "1": 2096,
  "\u2581Nor": 2097,
  "rdi": 2098,
  "\u2581Shu": 2099,
  "29": 2100,
  "\u2581lov": 2101,
  "\u2581Aj": 2102,
  "MO": 2103,
  "\u2581phralj": 2104,
  "\u2581JE": 2105,
  "anda": 2106,
  "\u2581ra": 2107,
  "isk": 2108,
  "\u2581Kha": 2109,
  "imak": 2110,
  "NE": 2111,
  "\u258112)": 2112,
  "\u2581sikh\u013eol": 2113,
  "lio": 2114,
  "\u2581sna": 2115,
  "osker": 2116,
  "\u2581tr": 2117,
  "\u017ei": 2118,
  "ljan": 2119,
  "\u2581ce": 2120,
  "vle": 2121,
  "\u2581kako": 2122,
  "\u2581slu\u017eob\u0148iken": 2123,
  "\u2581filmi": 2124,
  "\u2581chas": 2125,
  "\u2581phire": 2126,
  "e\u0148e": 2127,
  "jese": 2128,
  "\u2581starin": 2129,
  "\u2581vestine": 2130,
  "end\u017ee": 2131,
  "vara": 2132,
  "\u2581ga": 2133,
  "Dum": 2134,
  "pani": 2135,
  "\u2581na\u0161a": 2136,
  "\u2581car": 2137,
  "\u2581amal": 2138,
  "\u2581se": 2139,
  "inal": 2140,
  "\u2581Cal": 2141,
  "azin": 2142,
  "5)": 2143,
  "\u01cet": 2144,
  "2)": 2145,
  "\u2581merav": 2146,
  "\u2581ole": 2147,
  "ustr": 2148,
  "rim": 2149,
  "ovo": 2150,
  "purane": 2151,
  "\u2581u\u010de\u0148iken": 2152,
  "\u2581ora": 2153,
  "\u2581oljend": 2154,
  "0-": 2155,
  "\u2581tema": 2156,
  "rro": 2157,
  "\u2581gene": 2158,
  "\u2581phend\u017ea": 2159,
  "ibi": 2160,
  "aja": 2161,
  "jno": 2162,
  "\u2581per": 2163,
  "\u2581\u010c": 2164,
  "\u2581acha\u013eo": 2165,
  "\u2581prorok": 2166,
  "\u2581hinelje": 2167,
  "\u2581vod": 2168,
  "dokonala": 2169,
  "\u2581duchos": 2170,
  "DR": 2171,
  "\u017ean": 2172,
  "\u2581phene": 2173,
  "\u2581x": 2174,
  "ver": 2175,
  "\u2581Z": 2176,
  "\u2581\u010dlanki": 2177,
  "\u2581\u010dasopisi": 2178,
  "ubo": 2179,
  "\u2581naj\u0161u": 2180,
  "\u2581Ta": 2181,
  "estar": 2182,
  "\u2581patr": 2183,
  "ado": 2184,
  "10)": 2185,
  "gaj": 2186,
  "\u2581\u010dhivela": 2187,
  "ikljona": 2188,
  "\u0165i": 2189,
  "\u2581los": 2190,
  "\u2581presikaven": 2191,
  "e\u0107": 2192,
  "De": 2193,
  "\u2581chan": 2194,
  "sek": 2195,
  "vi": 2196,
  "kl": 2197,
  "\u2581go": 2198,
  "h\u00e1r\u00e1": 2199,
  "\u2581lake": 2200,
  "rea": 2201,
  "chos": 2202,
  "\u2581khu": 2203,
  "lben": 2204,
  "huri": 2205,
  "\u258148": 2206,
  "\u2581Sen": 2207,
  "\u2581aka": 2208,
  "vena": 2209,
  "\u2581pij": 2210,
  "\u2581pi": 2211,
  "eno": 2212,
  "\u2581ji": 2213,
  "\u2581sikavi": 2214,
  "\u2581Od": 2215,
  "ilai": 2216,
  "\u2581ber\u0161es": 2217,
  "kra": 2218,
  "kro": 2219,
  "\u0161ukar": 2220,
  "dz": 2221,
  "inger": 2222,
  "\u2581\u015b": 2223,
  "\u2581pera": 2224,
  "\u010dho": 2225,
  "isimen": 2226,
  "arsh": 2227,
  "uv": 2228,
  "\u2581pisij": 2229,
  "ze": 2230,
  "\u2581pir": 2231,
  "avel": 2232,
  "astar": 2233,
  "21": 2234,
  "min": 2235,
  "erg": 2236,
  "chi": 2237,
  "pan": 2238,
  "ljese": 2239,
  "\u2581gi\u013eav": 2240,
  "p": 2241,
  "leskero": 2242,
  "\u2581iklji": 2243,
  "fe": 2244,
  "sti": 2245,
  "\u2581Am": 2246,
  "ano": 2247,
  "\u2581pod": 2248,
  "\u2581stu": 2249,
  "\u2581ob": 2250,
  "tin": 2251,
  "\u2581bor": 2252,
  "\u2581As": 2253,
  "old": 2254,
  "\u2581bute": 2255,
  "0,": 2256,
  "\u2581sk": 2257,
  "rin": 2258,
  "\u2581Ag": 2259,
  "\u2581rro": 2260,
  "\u2581u\u010de\u0148ik": 2261,
  "\u2581devles": 2262,
  "nau": 2263,
  "isi": 2264,
  "\u2581Kh\u00e1r": 2265,
  "\u2013": 2266,
  "\u2581ducho": 2267,
  "\u2581\u0161una": 2268,
  "trav": 2269,
  "\u2581ispuni": 2270,
  "14": 2271,
  "\u2581Len": 2272,
  "\u2581sima": 2273,
  "ovela": 2274,
  "cija": 2275,
  "\u2581Benges": 2276,
  "hireha": 2277,
  "sk": 2278,
  "\u2581na\u0161": 2279,
  "\u2581lo": 2280,
  "\u2581teklj": 2281,
  "\u015ba": 2282,
  "andar": 2283,
  "vestinen": 2284,
  "ter": 2285,
  "lji": 2286,
  "\u2581l": 2287,
  "rto": 2288,
  "kaha": 2289,
  "\u2581kada": 2290,
  "ER": 2291,
  "\u2581Du": 2292,
  "\u00e1r": 2293,
  "ndo": 2294,
  "\u2581bis": 2295,
  "rt": 2296,
  "rini": 2297,
  "jsi": 2298,
  "gaz": 2299,
  "\u2581guru": 2300,
  "\u2581foro": 2301,
  "ov": 2302,
  "\u2581phra": 2303,
  "\u2581Lov": 2304,
  "\u2581odgovori": 2305,
  "31": 2306,
  "uk": 2307,
  "\u2581a\u010dh": 2308,
  "ED": 2309,
  "\u0148": 2310,
  "nda": 2311,
  "jime": 2312,
  "kos": 2313,
  "ales": 2314,
  "\u2581\u0148ik": 2315,
  "\u2581Pavlo": 2316,
  "juca": 2317,
  "\u2581pomo\u017ei": 2318,
  "\u2581du\u0161": 2319,
  "resi": 2320,
  "ardi": 2321,
  "\u2581Vi": 2322,
  "\u2581saven": 2323,
  "het": 2324,
  "\u013eahas": 2325,
  "\u2581phir": 2326,
  "5": 2327,
  "ujin": 2328,
  "\u2581phe": 2329,
  "\u2581smutn": 2330,
  "\u010din": 2331,
  "\u25815:1": 2332,
  "\u2581ohrabri": 2333,
  "este": 2334,
  "TO": 2335,
  "\u010dinel": 2336,
  "\u2581khe": 2337,
  "\u2581\u010da\u010d": 2338,
  "24": 2339,
  "aran": 2340,
  "\u2581Ga": 2341,
  "trec": 2342,
  "\u2581\u010ca\u010d": 2343,
  "\u2581seti": 2344,
  "eka": 2345,
  "\u2581mag": 2346,
  "orinen": 2347,
  "slo": 2348,
  "ili": 2349,
  "rasa": 2350,
  "\u017ein": 2351,
  "\u2581nasta": 2352,
  "\u0161i": 2353,
  "prin": 2354,
  "2:12": 2355,
  "Jak": 2356,
  "6": 2357,
  "nger": 2358,
  "bacht": 2359,
  "\u2581verujine": 2360,
  "duchos": 2361,
  "\u2581sikava": 2362,
  "tr": 2363,
  "xa": 2364,
  "12)": 2365,
  "mudro": 2366,
  "don": 2367,
  "BI": 2368,
  "cirde": 2369,
  "manga": 2370,
  "ho": 2371,
  "\u2581di\u010dh": 2372,
  "rom\u0148ake": 2373,
  "inak": 2374,
  "4:": 2375,
  "Jeremija": 2376,
  "go\u010faver": 2377,
  "\u010ca\u010de": 2378,
  "\u2581razmislin": 2379,
  "rigi": 2380,
  "Ce": 2381,
  "er\u0161enca": 2382,
  "Andre": 2383,
  "Biblija": 2384,
  "Jehova": 2385,
  "\u2581vi\u010di": 2386,
  "phen\u010fa": 2387,
  "20": 2388,
  "\u2581star": 2389,
  "mera": 2390,
  "han": 2391,
  "celo": 2392,
  "pita": 2393,
  "angljeder": 2394,
  "kraj": 2395,
  "cird": 2396,
  "\u2581ternen": 2397,
  "sveto": 2398,
  "Kada": 2399,
  "\u258119:": 2400,
  "V": 2401,
  "stv": 2402,
  "\u2581Br": 2403,
  "\u2581hovav": 2404,
  "Sar": 2405,
  "\u0292a": 2406,
  "\u2581rode": 2407,
  "saile": 2408,
  "\u0292": 2409,
  "tele": 2410,
  "but": 2411,
  "r\u010d": 2412,
  "\u2581gal": 2413,
  "\u2581put": 2414,
  "\u2581phar": 2415,
  "\u2581iz": 2416,
  "\u2581avre": 2417,
  "cij": 2418,
  "avke": 2419,
  "di\u0148a": 2420,
  "Ada": 2421,
  "u\u010dhare": 2422,
  ":26": 2423,
  "\u2581pa\u0165a": 2424,
  "u\u010di": 2425,
  "bime": 2426,
  "\u2581rom\u0148": 2427,
  "\u2581sud": 2428,
  "tut": 2429,
  "\u017eas": 2430,
  "\u2581Lu": 2431,
  "\u2581for": 2432,
  "logija": 2433,
  "\u2581korkor": 2434,
  "isa\u013eol": 2435,
  "kut": 2436,
  "\u2581gi\u013e": 2437,
  "\u2581\u010cha": 2438,
  "chra\u0148ines": 2439,
  "\u2581ang": 2440,
  "\u2581pisine": 2441,
  "\u2581plan": 2442,
  "\u2581paz": 2443,
  "\u2581Pac": 2444,
  "9.": 2445,
  "eske": 2446,
  "\u017eno": 2447,
  "\u2581vred": 2448,
  "sht": 2449,
  "lu\u017einav": 2450,
  "bari": 2451,
  "nel": 2452,
  "\u2581u\u013e": 2453,
  "\u2581za\u010datkos": 2454,
  "rakh": 2455,
  "leviz": 2456,
  "\u2581duch": 2457,
  "hol": 2458,
  "duj": 2459,
  "ljin": 2460,
  "\u2581d\u017eanena": 2461,
  "udi": 2462,
  "\u2581simt": 2463,
  "35": 2464,
  "\u2581ba\u015bn": 2465,
  "\u2581k\u00f2kal": 2466,
  "\u258114:14": 2467,
  "\u2581familjij": 2468,
  "\u2581kul": 2469,
  "4:26": 2470,
  "\u2581Phir": 2471,
  "\u2581zahrad": 2472,
  "e\u0107anje": 2473,
  "rofo": 2474,
  "hr": 2475,
  "klad": 2476,
  "\u2581a\u010dhi\u013e": 2477,
  "meha": 2478,
  "Hebrej": 2479,
  "\u2581jakh": 2480,
  "\u2581odlu": 2481,
  "\u2581stare\u0161in": 2482,
  "\u2581kamarat": 2483,
  "\u258114:": 2484,
  "1:11": 2485,
  "\u2581a\u010dhil": 2486,
  "\u2581obe\u0107anj": 2487,
  "irikl": 2488,
  "bars": 2489,
  ":14)": 2490,
  "\u2581pis": 2491,
  "\u2581u\u010de": 2492,
  "\u25813:9": 2493,
  "\u2581kan": 2494,
  "\u2581osobin": 2495,
  "brani": 2496,
  "nikija": 2497,
  "\u2581\u010derd": 2498,
  "\u2581sap": 2499,
  "\u2581problem": 2500,
  "\u2581svakones": 2501,
  "ekh": 2502,
  "\u2581vec": 2503,
  "\u2581\u010dha": 2504,
  "\u2581traj": 2505,
  "Bo": 2506,
  "hav": 2507,
  "ejd": 2508,
  "\u010dhen": 2509,
  "ljon": 2510,
  "\u2581sastim": 2511,
  "navidzine": 2512,
  "\u2581a\u010dhad": 2513,
  "da\u010fives": 2514,
  "\u2581razmisli": 2515,
  "\u0165e": 2516,
  "d\u017eahar": 2517,
  "rat": 2518,
  "vdije": 2519,
  "e\u0161ina": 2520,
  "\u2581zachra": 2521,
  "lean": 2522,
  "viben": 2523,
  "ilj": 2524,
  "veto": 2525,
  "pok": 2526,
  "pisind\u017ea": 2527,
  "bilon": 2528,
  "\u2581Cir": 2529,
  "\u2581sluge": 2530,
  "\u2581sastimas": 2531,
  "\u2581bakre": 2532,
  "janglj": 2533,
  "\u2581pred\u017eive": 2534,
  "\u2581pisime": 2535,
  "\u2581dvole\u017eit": 2536,
  "\u0148ines": 2537,
  "tora": 2538,
  "avil": 2539,
  "\u2581zad\u017ei": 2540,
  "\u2581zname\u0148ine": 2541,
  "\u2581BI": 2542,
  "\u0148ika": 2543,
  "\u2581vlad\u0148ine": 2544,
  "\u2581Izrael\u010dan": 2545,
  "\u2018": 2546,
  "\u013euv": 2547,
  "Nai": 2548,
  "\u2581publika": 2549,
  "\u2581sikl": 2550,
  "pl\u0148in": 2551,
  "me\u0148inen": 2552,
  "ikljov": 2553,
  "ineha": 2554,
  "7\u2013": 2555,
  "\u2581sprind\u017ear": 2556,
  "s\u0165": 2557,
  "\u2581veruj": 2558,
  "raljevstvo": 2559,
  "\u2581naro\u010f": 2560,
  "Jevrej": 2561,
  "ax": 2562,
  "lemos": 2563,
  "\u2581Devl": 2564,
  "zg": 2565,
  "\u017eivdipe": 2566,
  "a\u0165e\u013e": 2567,
  "aberi": 2568,
  "\u2581z\u0148i\u010di": 2569,
  "tivn": 2570,
  "Jevr": 2571,
  "i\u0161agos": 2572,
  "chra\u0148inel": 2573,
  "\u2581dru": 2574,
  ":6": 2575,
  "thoven": 2576,
  "priklad": 2577,
  "\u2581vur": 2578,
  "\u2581nadgled": 2579,
  "2:1": 2580,
  "\u2581modli": 2581,
  "\u2581nabo\u017eens": 2582,
  "abl": 2583,
  "a\u013eiben": 2584,
  "le\u00e7a": 2585,
  "ri\u0161\u0107ans": 2586,
  "\u00f2": 2587,
  "\u017earava": 2588,
  "vjera": 2589,
  "pravin": 2590,
  "aresave": 2591,
  "goslov": 2592,
  "tanki": 2593,
  "\u2581d\u017eivdip": 2594,
  "u\u017eo": 2595,
  "gip": 2596,
  "\u0165e\u013eis": 2597,
  "alpa": 2598,
  "pu\u010di": 2599,
  "\u2581Arak": 2600,
  "\u2581Mesija": 2601,
  "pove": 2602,
  "hinav": 2603,
  "top": 2604,
  "\u017earel": 2605,
  "\u25814:2": 2606,
  "iutu": 2607,
  "stakni": 2608,
  "erujin": 2609,
  "\u2581odlu\u010d": 2610,
  "\u2581raz": 2611,
  "osve": 2612,
  "ebos": 2613,
  "VO": 2614,
  "axt": 2615,
  "\u2581zapo": 2616,
  "istine": 2617,
  "chran": 2618,
  "\u2581ista": 2619,
  "re\u0161in": 2620,
  "ampel": 2621,
  "\u0107an": 2622,
  "trapi": 2623,
  "unak": 2624,
  "urt": 2625,
  "akti": 2626,
  "\u2581Ju": 2627,
  "amiben": 2628,
  "\u2581bara": 2629,
  "\u2581phanl": 2630,
  "\u0161uk": 2631,
  "u\u017eba": 2632,
  "\u2581Izrael\u010danen": 2633,
  "zlo": 2634,
  "a\u0161kar": 2635,
  "\u2581anav": 2636,
  "anin": 2637,
  "sled": 2638,
  "\u2581duho": 2639,
  "zer": 2640,
  "\u2581osob": 2641,
  "\u2581tim": 2642,
  "\u2581nanavidzine": 2643,
  "\u2581Muk": 2644,
  "akonos": 2645,
  "\u010dna": 2646,
  "\u2581akalje": 2647,
  "5:": 2648,
  "\u2581fam": 2649,
  "\u017ea": 2650,
  "\u0161in": 2651,
  "\u013ean": 2652,
  "kaz": 2653,
  "\u2581zav": 2654,
  "\u2581slugen": 2655,
  "lo\u017e": 2656,
  "bia": 2657,
  "\u2581Gi": 2658,
  "volj": 2659,
  "bu": 2660,
  "akoneske": 2661,
  "\u2581slu": 2662,
  "titi": 2663,
  "\u2581Ru": 2664,
  "tres": 2665,
  "\u2581dind": 2666,
  "oljenca": 2667,
  "ubli": 2668,
  "e\u0148in": 2669,
  "atrin": 2670,
  "ishto": 2671,
  "\u2581misi": 2672,
  "\u2581angla": 2673,
  "d\u017ei\u010fi": 2674,
  "uvas": 2675,
  "\u2581stres": 2676,
  "fija": 2677,
  "pire": 2678,
  "kenca": 2679,
  "encar": 2680,
  "\u2581dik": 2681,
  "romn": 2682,
  "\u2581vi\u0161": 2683,
  "\u2581bri": 2684,
  "\u2581shav": 2685,
  "zija": 2686,
  "2:12)": 2687,
  "reme": 2688,
  "shti": 2689,
  "la\u010dhipen": 2690,
  "indra": 2691,
  "tor": 2692,
  "\u2581korkore": 2693,
  "than": 2694,
  "\u2581\u0148eb": 2695,
  "lesa": 2696,
  "dina": 2697,
  "r\u010fa": 2698,
  "4:14)": 2699,
  "jona": 2700,
  "avina": 2701,
  "sinela": 2702,
  "\u2581lil": 2703,
  "\u2581prim": 2704,
  "ljo": 2705,
  "\u2581gi\u013ea": 2706,
  "\u2581phare": 2707,
  "\u2581oles": 2708,
  "\u2581bes": 2709,
  "nash": 2710,
  "vori": 2711,
  "kat": 2712,
  "atan": 2713,
  "rob": 2714,
  "\u2581averen": 2715,
  "0)": 2716,
  "mni": 2717,
  "uni": 2718,
  "nsa": 2719,
  "rika": 2720,
  "reder": 2721,
  "zab": 2722,
  "\u2581pu": 2723,
  "\u2581bok": 2724,
  "\u2581Va\u0161": 2725,
  "zv": 2726,
  "6:10": 2727,
  "nd\u017eam": 2728,
  "Ga": 2729,
  "\u2581zak": 2730,
  "odpo": 2731,
  "1.": 2732,
  "nago": 2733,
  ":2": 2734,
  "\u2581fal": 2735,
  "niko": 2736,
  "\u2581manu": 2737,
  "uda": 2738,
  "7)": 2739,
  "\u2581phari": 2740,
  "rind\u017eare": 2741,
  "zi": 2742,
  "\u2581sasti": 2743,
  "\u2581M\u00e1": 2744,
  "\u2581Mi\u0161": 2745,
  "mut": 2746,
  "gi": 2747,
  "\u2581famil": 2748,
  "stija": 2749,
  "tsh": 2750,
  "avdi": 2751,
  "\u017eina": 2752,
  "\u2581mot": 2753,
  "\u25812:12": 2754,
  "\u2581khan": 2755,
  "ig": 2756,
  "1)": 2757,
  "uso": 2758,
  "robo": 2759,
  "\u2581mothove": 2760,
  "kerela": 2761,
  "tno": 2762,
  "\u2581Bibli": 2763,
  "tone": 2764,
  "\u0148as": 2765,
  "35)": 2766,
  "\u2581\u010ce": 2767,
  "aravd": 2768,
  "\u2581vr": 2769,
  "\u2581sikave": 2770,
  "\u010fe": 2771,
  "oljin": 2772,
  "unde": 2773,
  "phan": 2774,
  "\u2581Pri": 2775,
  "pl": 2776,
  "kono": 2777,
  "shan": 2778,
  "nsko": 2779,
  "kane": 2780,
  "\u2581pher": 2781,
  "vali": 2782,
  "bli": 2783,
  "hovas": 2784,
  "\u2581\u010dhina": 2785,
  "afi": 2786,
  "Y": 2787,
  "q": 2788,
  "\u00e7": 2789,
  "\u0160": 2790,
  "[": 2791,
  "x": 2792,
  "F": 2793,
  "\u2014": 2794,
  "C": 2795,
  "\u0165": 2796,
  "\u201e": 2797,
  "(": 2798,
  "\u013e": 2799,
  "\u2581\u00cencep": 2800,
  "pozi\u021bie": 2801,
  "utul": 2802,
  "\u2581s\u0103": 2803,
  "\u0103": 2804,
  "\u2581\u00een": 2805,
  "\u2581\u0219i": 2806,
  "ul": 2807,
  "\u2581lui": 2808,
  "\u2581Iehova": 2809,
  "care": 2810,
  "\u2581este": 2811,
  "\u2581c\u0103": 2812,
  "\u2581Dumnezeu": 2813,
  "ntru": 2814,
  "\u2581nu": 2815,
  "\u2581un": 2816,
  "\u2581\u015fi": 2817,
  "\u2581sunt": 2818,
  "\u2581din": 2819,
  "\u2581\u00ee": 2820,
  "\u2581noi": 2821,
  "c\u0103": 2822,
  "\u2581despr": 2823,
  "\u2581fi": 2824,
  "\u0163i": 2825,
  "\u021bi": 2826,
  "\u2581va": 2827,
  "\u2581tot": 2828,
  "\u2581poate": 2829,
  "c\u00e2nd": 2830,
  "\u2581voi": 2831,
  "\u2581au": 2832,
  "\u201d": 2833,
  "\u2581cum": 2834,
  "\u2581Cum": 2835,
  "\u2581oameni": 2836,
  "\u2581face": 2837,
  "\u2581spus": 2838,
  "\u2581\u00cen": 2839,
  "\u0219i": 2840,
  "\u2581mult": 2841,
  ".\u201d": 2842,
  "\u2581fost": 2843,
  "\u0103m": 2844,
  "\u2581bun\u0103": 2845,
  "\u2581fie": 2846,
  "at": 2847,
  "\u2581unde": 2848,
  "\u2581S\u0103": 2849,
  "\u2581lucru": 2850,
  "\u2581Biblia": 2851,
  "\u2581Nu": 2852,
  "\u2581f\u0103cut": 2853,
  "\u2581ai": 2854,
  "lor": 2855,
  "\u2581El": 2856,
  "unui": 2857,
  "\u2581trebui": 2858,
  "\u2581spune": 2859,
  "are": 2860,
  "\u2581\u2013": 2861,
  "\u2581ajuta": 2862,
  "\u2581acest": 2863,
  "\u2581vor": 2864,
  "\u2581bun": 2865,
  "\u2581faci": 2866,
  "\u201d.": 2867,
  "\u2581ceva": 2868,
  "\u2581ei": 2869,
  "\u2581al": 2870,
  "\u2581ea": 2871,
  "\u2581timp": 2872,
  "\u2581era": 2873,
  "\u2581putem": 2874,
  "ele": 2875,
  "\u2581Cin": 2876,
  "\u2581numele": 2877,
  "\u2581a\u0219a": 2878,
  "\u2581c\u00e2t": 2879,
  "\u2581\u00eenceput": 2880,
  "\u2581v\u0103": 2881,
  "\u2581dintr": 2882,
  "\u2581avea": 2883,
  "\u2581iubirea": 2884,
  "\u2581dou": 2885,
  "\u2581multe": 2886,
  "\u2581Un": 2887,
  "\u2581\u2018": 2888,
  "\u2581trei": 2889,
  "\u2581C\u00e2nd": 2890,
  "\u2581are": 2891,
  "\u2581zi": 2892,
  "up\u0103": 2893,
  "\u2581pute": 2894,
  "\u2581p\u0103m\u00e2ntul": 2895,
  "\u2581iubire": 2896,
  "spre": 2897,
  "\u2581cei": 2898,
  "\u2581arat\u0103": 2899,
  "easc\u0103": 2900,
  "\u2581am": 2901,
  "\u2581bine": 2902,
  "\u2581fac\u0103": 2903,
  "\u2581iar": 2904,
  "\u2581atunci": 2905,
  "\u2581\u0219ti": 2906,
  "\u2581t\u0103u": 2907,
  "\u2581Prin": 2908,
  "\u2581fa\u021b": 2909,
  "\u2581prin": 2910,
  "\u2581mod": 2911,
  "\u2581veste": 2912,
  "ui": 2913,
  "\u2581ar": 2914,
  "\u2581f\u0103r\u0103": 2915,
  "\u2581Regatul": 2916,
  "\u2581p\u0103m\u00e2nt": 2917,
  "\u2581re": 2918,
  "\u2581une": 2919,
  "\u2581aceasta": 2920,
  "\u2581dat": 2921,
  "tunci": 2922,
  "\u2581tr\u0103i": 2923,
  "\u2581at\u00e2t": 2924,
  "\u2581puterea": 2925,
  "\u2581r\u0103u": 2926,
  "\u0102": 2927,
  "esc": 2928,
  "\u2581e\u0219ti": 2929,
  "e\u015fte": 2930,
  "oare": 2931,
  "\u2581nici": 2932,
  "\u2581avem": 2933,
  "\u2581murit": 2934,
  "\u2581facem": 2935,
  "ea": 2936,
  "\u2581Acest": 2937,
  "\u2581cel": 2938,
  "\u2581aceast": 2939,
  "\u2581vre": 2940,
  "\u2581lucruri": 2941,
  "\u2581nostru": 2942,
  "mn\u0103": 2943,
  "\u2581aduce": 2944,
  "\u2581Cel": 2945,
  "tul": 2946,
  "\u2581\u00eense": 2947,
  "oarte": 2948,
  "\u2581mea": 2949,
  "\u0219te": 2950,
  "\u2581noastr\u0103": 2951,
  "\u2581deja": 2952,
  "\u2581\u015fti": 2953,
  "ului": 2954,
  "\u2581toate": 2955,
  "e\u0219te": 2956,
  "\u2581Pe": 2957,
  "\u015fi": 2958,
  "\u2581fac": 2959,
  "\u2581\u00eentruniri": 2960,
  "\u2581creat": 2961,
  "\u2581Dar": 2962,
  "\u2581loc": 2963,
  "\u2581voin\u021b": 2964,
  "vom": 2965,
  "\u2581so\u0163i": 2966,
  "\u2581\u00eentr": 2967,
  "\u2581Bibliei": 2968,
  "eaz\u0103": 2969,
  "e\u0219ti": 2970,
  "\u2581pace": 2971,
  "\u2581toat": 2972,
  "\u2581cine": 2973,
  "\u2581A\u0219a": 2974,
  "\u2581biblice": 2975,
  "\u2581cer": 2976,
  "\u2019.": 2977,
  "\u2581lucruril": 2978,
  "celor": 2979,
  "\u2581dori": 2980,
  "eu": 2981,
  "\u2581doi": 2982,
  "\u2581Eu": 2983,
  "\u2581respect": 2984,
  "\u2581Petru": 2985,
  "\u2581adev\u0103rat": 2986,
  "\u2581meu": 2987,
  "\u2581oamenilor": 2988,
  "\u2581\u00eenainte": 2989,
  "\u2581via\u021b\u0103": 2990,
  "\u2581nume": 2991,
  "\u2581parte": 2992,
  "\u2581timpul": 2993,
  "\u2581azi": 2994,
  "!\u201d.": 2995,
  "or": 2996,
  "\u2581Biblie": 2997,
  "c\u00e2t": 2998,
  "sc": 2999,
  "\u2581vrea": 3000,
  "\u2581oric": 3001,
  "\u2581privi": 3002,
  "\u2581lor": 3003,
  "\u2581lume": 3004,
  "\u2581vin": 3005,
  "\u2581doar": 3006,
  "a\u021bi": 3007,
  "\u2581Pavel": 3008,
  "\u2581rug\u0103m": 3009,
  "\u2581Poate": 3010,
  "Matei": 3011,
  "\u2581dore\u0219te": 3012,
  "\u2581mor\u021bi": 3013,
  "\u2581persoane": 3014,
  "fel": 3015,
  "\u00e2nd": 3016,
  "\u2581m\u0103": 3017,
  "\u2581so\u0163": 3018,
  "Psalmul": 3019,
  "\u0163\u0103": 3020,
  "\u2581exemplu": 3021,
  "\u2581Psalmul": 3022,
  "\u2581acesta": 3023,
  "\u2581explic": 3024,
  "\u2581important": 3025,
  "\u2581\u0218": 3026,
  "\u2581tine": 3027,
  "\u2581noastre": 3028,
  "\u2581scris": 3029,
  "\u2581exist\u0103": 3030,
  "\u2581po\u021bi": 3031,
  "\u2019": 3032,
  "\u2581probleme": 3033,
  "\u2581citi": 3034,
  "eze": 3035,
  "\u2581porunci": 3036,
  "\u2581familie": 3037,
  "\u2581ar\u0103ta": 3038,
  "\u2581ori": 3039,
  "\u2581urm\u0103": 3040,
  "\u2581merg": 3041,
  "\u2581s\u0103u": 3042,
  "\u2581cred": 3043,
  "\u2581con": 3044,
  "asc\u0103": 3045,
  "\u2581d\u0103": 3046,
  "\u2581via\u021b": 3047,
  "\u2581drag": 3048,
  "\u2581b\u0103tr\u00e2n": 3049,
  "\u2581lumii": 3050,
  "\u2581Martori": 3051,
  "\u2581analiz": 3052,
  "\u2581astfel": 3053,
  "\u2581to\u021bi": 3054,
  "\u2581tr\u0103im": 3055,
  "\u2581zile": 3056,
  "\u2581al\u021bii": 3057,
  "\u2581ani": 3058,
  "\u2581\u015ei": 3059,
  "\u2581Fie": 3060,
  "\u2581co": 3061,
  "\u2581pacea": 3062,
  "\u2581merge": 3063,
  "\u2581om": 3064,
  "\u2581iub": 3065,
  "\u0103ri": 3066,
  "\u2581urma": 3067,
  "\u2581bune": 3068,
  "Iehova": 3069,
  "itatea": 3070,
  "Eu": 3071,
  "\u021ba": 3072,
  "\u2581cele": 3073,
  "\u2581putere": 3074,
  "r\u0103": 3075,
  "odat\u0103": 3076,
  "\u2581afli": 3077,
  "Revela": 3078,
  "\u2581nimic": 3079,
  "\u2581pronun\u021b": 3080,
  "\u2581precum": 3081,
  "\u2581Cuv": 3082,
  "\u2581\u00eemplinit": 3083,
  "\u0103luie": 3084,
  "\u2581ajut\u0103": 3085,
  "v\u0103": 3086,
  "tate": 3087,
  "t\u0103": 3088,
  "a\u0163\u0103": 3089,
  "ner": 3090,
  "\u2581aduc": 3091,
  "\u2581mine": 3092,
  "un": 3093,
  "\u2581sale": 3094,
  "\u2581Fiul": 3095,
  "\u2581apare": 3096,
  "\u2581congrega\u021bie": 3097,
  "\u2581mare": 3098,
  "\u2581\u00eenv\u0103\u021b\u0103": 3099,
  "ceea": 3100,
  "\u2581Dumnezeul": 3101,
  "\u00e2ntul": 3102,
  "supra": 3103,
  "\u2581Rahav": 3104,
  "\u2581ajute": 3105,
  "\u2581nevoie": 3106,
  "\u2581video": 3107,
  "\u2581noroc": 3108,
  "\u2581punct": 3109,
  "\u2581special": 3110,
  "\u2581afla": 3111,
  "\u2581Sunt": 3112,
  "\u2581vie\u0163ii": 3113,
  "\u2581promite": 3114,
  "\u2581vizit": 3115,
  "\u2581\u00eentreb\u0103ri": 3116,
  "\u2581principii": 3117,
  "\u2581a\u015fa": 3118,
  "\u2581frate": 3119,
  "\u2581r\u0103m\u00e2n": 3120,
  "\u2581veni": 3121,
  "\u2581\u00cens\u0103": 3122,
  "\u2581m\u00e2ncare": 3123,
  "\u2581vezi": 3124,
  "\u2581predicare": 3125,
  "\u2581\u00eent\u00e2mpl": 3126,
  "\u2581mul\u021b": 3127,
  "ative": 3128,
  "\u2581\u00eenviere": 3129,
  "uza": 3130,
  "\u2581Tot": 3131,
  "\u2581c\u0103ru": 3132,
  "\u2581lucrarea": 3133,
  "\u2581tem": 3134,
  "\u2581aici": 3135,
  "\u2581tat\u0103l": 3136,
  "n\u021b\u0103": 3137,
  "\u2581\u00eenv\u0103\u021bat": 3138,
  "\u2581acestea": 3139,
  "\u2581Iov": 3140,
  "\u2581lumea": 3141,
  "\u2581prieteni": 3142,
  "\u2581\u00eentre": 3143,
  "\u2581dis": 3144,
  "\u2581ofer": 3145,
  "\u2581mam": 3146,
  "\u0219": 3147,
  "\u2581bucur": 3148,
  "\u2581sf\u00e2r\u0219itul": 3149,
  "\u2581neg": 3150,
  "ezi": 3151,
  "\u2581C\u00e2t": 3152,
  "\u2581num": 3153,
  "\u2581vorb": 3154,
  "\u2581moarte": 3155,
  "\u2581spun": 3156,
  "s\u0103": 3157,
  "\u2581sigur": 3158,
  "\u2581Din": 3159,
  "Note": 3160,
  "RI": 3161,
  "\u2581studi": 3162,
  "\u2581\u00een\u0163elepciune": 3163,
  "\u2581Prea\u00eenalt": 3164,
  "\u2581motive": 3165,
  "\u2581Apoi": 3166,
  "\u2581\u00eenva\u021b\u0103": 3167,
  "\u2581posibil": 3168,
  "\u2581rege": 3169,
  "\u2581inima": 3170,
  "\u2581via\u0163a": 3171,
  "\u2581ve\u0219nic": 3172,
  "\u2581t\u00e2rziu": 3173,
  "\u2581lips": 3174,
  "ARE": 3175,
  "\u2581drept": 3176,
  "\u2581vie\u021bii": 3177,
  "\u2581copil": 3178,
  "\u2581membr": 3179,
  "\u2581v\u0103d": 3180,
  "treab\u0103": 3181,
  "\u2581scopul": 3182,
  "\u2581al\u0163ii": 3183,
  "!\u201d": 3184,
  "\u2581niciodat\u0103": 3185,
  "\u2581leg\u0103tur\u0103": 3186,
  "\u2581p\u0103rin\u0163i": 3187,
  "\u2581apostolul": 3188,
  "\u2581acolo": 3189,
  "\u2581valoare": 3190,
  "\u2581frumoas\u0103": 3191,
  "\u2581Regatului": 3192,
  "\u2581asemenea": 3193,
  "\u2581minte": 3194,
  "ag\u0103": 3195,
  "\u2581Eva": 3196,
  "\u2581predicat": 3197,
  "\u2581r\u0103spunde": 3198,
  "\u2581profe\u021bii": 3199,
  "\u2581deveni": 3200,
  "\u2581anumit": 3201,
  "\u2581\u00ab": 3202,
  "\u2581Cristos": 3203,
  "\u00e2ndu": 3204,
  "\u2581Ier": 3205,
  "\u2581iubit": 3206,
  "\u2581\u00eenchinare": 3207,
  "\u2581propri": 3208,
  "\u2581mor": 3209,
  "\u2581pune": 3210,
  "\u2581locui": 3211,
  "\u2581ap\u0103": 3212,
  "at\u0103": 3213,
  "\u2581sluje": 3214,
  "\u2581ajutat": 3215,
  "\u2581tale": 3216,
  "\u2581Tat\u0103l": 3217,
  "\u2581importante": 3218,
  "\u2581Voi": 3219,
  "\u2581slujitori": 3220,
  "bel": 3221,
  "\u2581\u00eenv\u0103\u0163a": 3222,
  "ici": 3223,
  "\u2581revede": 3224,
  "\u2581rromi": 3225,
  "a\u021bia": 3226,
  "\u2581urm": 3227,
  "\u2581cere": 3228,
  "mi": 3229,
  "pt": 3230,
  "\u2581prezent": 3231,
  "\u2581familiei": 3232,
  "b\u0103": 3233,
  "\u2581Az": 3234,
  "Isaia": 3235,
  "crede": 3236,
  "alitate": 3237,
  "tot": 3238,
  "model": 3239,
  "\u2581Aceste": 3240,
  "S\u0103": 3241,
  "LU": 3242,
  "itate": 3243,
  "\u2581nou": 3244,
  "\u2581viitor": 3245,
  "\u2581\u00centr": 3246,
  "?\u201d": 3247,
  "\u2581r\u0103spuns": 3248,
  "\u2581g\u0103si": 3249,
  "\u021aI": 3250,
  "\u2581ajutor": 3251,
  "\u2581m\u0103n\u00e2nc": 3252,
  "\u2581practic": 3253,
  "\u2581\u00eendeplin": 3254,
  "\u2581noapte": 3255,
  "\u2581ulterioar\u0103": 3256,
  "\u2581uman": 3257,
  "\u2581ruga": 3258,
  "\u2581trimi": 3259,
  "\u2581fapt": 3260,
  "uror": 3261,
  "\u2581cadou": 3262,
  "\u2581p\u00e2n\u0103": 3263,
  "\u2581cuiva": 3264,
  "\u2581conduc\u0103tor": 3265,
  "\u2581c\u0103s\u0103torie": 3266,
  "\u2581capitol": 3267,
  "\u2581cuvinte": 3268,
  "\u2581dinainte": 3269,
  "\u2581tineri": 3270,
  "\u2581sim\u021bi": 3271,
  "\u2581Pot": 3272,
  "\u2581relatare": 3273,
  "\u2581\u00eenviat": 3274,
  "\u2581m\u0103rturie": 3275,
  "\u2581familia": 3276,
  "resc": 3277,
  "\u2581Mult": 3278,
  "\u2581t\u0103i": 3279,
  "\u2581promisiune": 3280,
  "\u2581citim": 3281,
  "\u2581jur": 3282,
  "\u2581omului": 3283,
  "\u2581limba": 3284,
  "\u2581\u00cem": 3285,
  "\u2581acum": 3286,
  "\u2581CE": 3287,
  "\u2581b\u0103i": 3288,
  "\u2581Ne": 3289,
  "nt\u0103": 3290,
  "\u2581diferite": 3291,
  "\u2581duc": 3292,
  "\u2581p\u0103": 3293,
  "\u2581folos": 3294,
  "\u2581suferi": 3295,
  "lui": 3296,
  "\u2581copiii": 3297,
  "\u2581folosi": 3298,
  "\u2581serviciul": 3299,
  "ar\u0103": 3300,
  "\u2581sluji": 3301,
  "ind": 3302,
  "\u2581aceste": 3303,
  "nte": 3304,
  "in\u0163\u0103": 3305,
  "\u2581\u021bin": 3306,
  "\u2581primi": 3307,
  "\u2581M\u0103": 3308,
  "\u2581ar\u0103t": 3309,
  "\u021bia": 3310,
  "\u2581\u0219tiri": 3311,
  "\u2581puteri": 3312,
  "\u2581lu": 3313,
  "\u2581\u00eendrum": 3314,
  "cel": 3315,
  "nic": 3316,
  "\u2581ascult": 3317,
  "\u2581plin": 3318,
  "\u2581sufer": 3319,
  "\u2581copii": 3320,
  "\u2581prieten": 3321,
  "\u00eence": 3322,
  "Ioan": 3323,
  "vad\u0103": 3324,
  "\u2581c\u0103s\u0103tor": 3325,
  "\u2581cap": 3326,
  "Cin": 3327,
  "\u2581Vre": 3328,
  "\u2581petrece": 3329,
  "\u2581interes": 3330,
  "\u2581lucrare": 3331,
  "bil": 3332,
  "\u2581persoan": 3333,
  "ase": 3334,
  "ext": 3335,
  "lea": 3336,
  "\u2581Regat": 3337,
  "\u2581Isaac": 3338,
  "\u2581Rebeca": 3339,
  "\u2581amintire": 3340,
  "\u2581discipoli": 3341,
  "\u2581drum": 3342,
  "\u2581generozitate": 3343,
  "\u2581informa\u021bii": 3344,
  "\u2581observ": 3345,
  "\u2581rudele": 3346,
  "\u2581supranaturale": 3347,
  "\u2581viziune": 3348,
  "Laz\u0103r": 3349,
  "\u2581Noapte": 3350,
  "\u2581ace\u0219tia": 3351,
  "\u2581transf": 3352,
  "\u2581\u00eenv\u0103\u021b\u0103turile": 3353,
  "\u2581corect": 3354,
  "\u2581pl\u0103cut": 3355,
  "\u2581rela\u0163i": 3356,
  "\u2581Ace\u015fti": 3357,
  "\u2581\u00eempotriv": 3358,
  "\u2581haine": 3359,
  "\u2581grij\u0103": 3360,
  "\u2581religi": 3361,
  "\u2581coleg": 3362,
  "\u2581credin\u021b\u0103": 3363,
  "\u2581al\u0103turi": 3364,
  "\u2581conduce": 3365,
  "\u2581urm\u0103toare": 3366,
  "\u2581deosebit": 3367,
  "\u2581trecut": 3368,
  "\u2581credin\u021ba": 3369,
  "\u2581rep": 3370,
  "SPUN": 3371,
  "\u2581rug\u0103ciunile": 3372,
  "\u2581\u00een\u0219el": 3373,
  "\u2581pl\u0103cere": 3374,
  "\u2581\u00eentrebat": 3375,
  "vers": 3376,
  "\u2581boli": 3377,
  "rivit": 3378,
  "\u2581moar": 3379,
  "\u2581bucurie": 3380,
  "\u2581team\u0103": 3381,
  "\u2581g\u00e2ndim": 3382,
  "\u2581vedem": 3383,
  "\u2581site": 3384,
  "istrug": 3385,
  "\u2581vorbit": 3386,
  "\u2581aten\u021bi": 3387,
  "\u2581vorbim": 3388,
  "\u2581fiind": 3389,
  "\u2581cunoscut": 3390,
  "\u2581\u00eentrunire": 3391,
  "\u2581grele": 3392,
  "\u2581afar\u0103": 3393,
  "o\u015fi": 3394,
  "\u2581referito": 3395,
  "\u2581con\u0219tien": 3396,
  "\u2581\u00eenv\u0103\u021ba": 3397,
  "tima": 3398,
  "\u2581ideea": 3399,
  "\u2581fugi": 3400,
  "\u2581\u00eengerii": 3401,
  "\u2581deci": 3402,
  "\u2581acel": 3403,
  "\u2581mic": 3404,
  "\u0103rui": 3405,
  "\u2581auzi": 3406,
  "tat": 3407,
  "\u2581c\u00e2nta": 3408,
  "Ma": 3409,
  "\u2581C\u00e2t\u0103": 3410,
  "\u2581res": 3411,
  "\u2581limbi": 3412,
  "\u2581aducem": 3413,
  "deau": 3414,
  "\u2581seam": 3415,
  "\u2581\u00eens\u0103": 3416,
  "\u2581rog": 3417,
  "\u2581vechi": 3418,
  "\u2581fidel": 3419,
  "\u2581iube\u0219t": 3420,
  "\u2581interesa": 3421,
  "\u2581fa": 3422,
  "\u2581To": 3423,
  "\u2581vorba": 3424,
  "\u2581Rege": 3425,
  "\u2581moartea": 3426,
  "\u2581vorbe\u0219t": 3427,
  "\u2581\u00eent\u0103ri": 3428,
  "ad\u0103": 3429,
  "\u2581suge": 3430,
  "\u2581ci": 3431,
  "un\u0103": 3432,
  "\u2581dat\u0103": 3433,
  "spera": 3434,
  "\u2581Ori": 3435,
  "a\u0219i": 3436,
  "pus": 3437,
  "ro\u015f": 3438,
  "\u2581ajung": 3439,
  "\u2581\u00eenchin": 3440,
  "DE": 3441,
  "\u2581uita": 3442,
  "\u2581pre\u021b": 3443,
  "\u2581fim": 3444,
  "arc\u0103": 3445,
  "ou\u0103": 3446,
  "ve\u021bi": 3447,
  "a\u0163i": 3448,
  "orit": 3449,
  "\u2581materialul": 3450,
  "\u2581dor": 3451,
  "\u2581\u00eencep": 3452,
  "\u00e2n\u0103": 3453,
  "\u021bii": 3454,
  "\u2581p\u0103cat": 3455,
  "9)": 3456,
  "\u2581\u021bine": 3457,
  "nd": 3458,
  "n\u0163\u0103": 3459,
  "Nu": 3460,
  "\u2581so\u021b": 3461,
  "ent": 3462,
  "\u2581pl": 3463,
  "Dumnezeu": 3464,
  "Voi": 3465,
  "Iov": 3466,
  "at\u00e2t": 3467,
  "loc": 3468,
  "\u2581curaj": 3469,
  "\u2581cale": 3470,
  "\u2581Eli": 3471,
  "\u2581cre\u0219tin": 3472,
  "cat": 3473,
  "\u2581fideli": 3474,
  "drep\u021bi": 3475,
  "n\u0103": 3476,
  "\u2581\u015f": 3477,
  "inde": 3478,
  "lit\u0103\u021bi": 3479,
  "\u2581Tr": 3480,
  "jut\u0103": 3481,
  "eni": 3482,
  "\u2581\u00eent\u00e2mpla": 3483,
  "\u2581Ro": 3484,
  "\u2581continua": 3485,
  "\u2581hot\u0103r\u00e2": 3486,
  "\u2581iubea": 3487,
  "fect": 3488,
  "\u2581SPU": 3489,
  "embr": 3490,
  "\u2581Folos": 3491,
  "\u2581t\u00e2nj": 3492,
  "\u2581Israel": 3493,
  "\u2581chenar": 3494,
  "r\u0103bdare": 3495,
  "\u2581Fumez": 3496,
  "\u2581Profe": 3497,
  "\u2581Timotei": 3498,
  "\u2581Turn": 3499,
  "\u2581cheltui": 3500,
  "\u2581deschis": 3501,
  "\u2581ilustr": 3502,
  "\u2581ocrote": 3503,
  "\u2581paradis": 3504,
  "\u2581paragraf": 3505,
  "\u2581privilegiu": 3506,
  "\u2581renun\u021b": 3507,
  "\u2581zdrobi": 3508,
  "\u2581apropie": 3509,
  "\u2581gloria": 3510,
  "\u2581predic\u0103m": 3511,
  "\u2581str\u0103jer": 3512,
  "\u2581pericol": 3513,
  "\u2581pu\u021bin": 3514,
  "\u2581ocazi": 3515,
  "\u2581u\u015for": 3516,
  "\u2581Canaan": 3517,
  "\u2581\u00ceNTRE": 3518,
  "\u2581verset": 3519,
  "\u2581gr\u0103din": 3520,
  "\u2581apar\u021bine": 3521,
  "\u2581spiritism": 3522,
  "\u00centreb": 3523,
  "\u2581voastre": 3524,
  "\u2581sfin": 3525,
  "\u2581Ace\u0219ti": 3526,
  "\u2581C\u0103ci": 3527,
  "\u2581durat": 3528,
  "\u2581via\u0163\u0103": 3529,
  "\u2581a\u0219tept": 3530,
  "\u2581Diavolul": 3531,
  "\u2581singur": 3532,
  "\u2581ferm": 3533,
  "\u2581Ilie": 3534,
  "\u2581gre\u0219it": 3535,
  "rioa": 3536,
  "\u2581Exact": 3537,
  "\u2581v\u0103dit": 3538,
  "\u2581\u00eencuraja": 3539,
  "\u2581termine": 3540,
  "\u2581crezi": 3541,
  "\u2581ziua": 3542,
  "\u2581\u00een\u021bele": 3543,
  "\u2581sim\u0163i": 3544,
  "\u2581cre\u0219te": 3545,
  "\u2581G\u00e2nd": 3546,
  "\u2581iudeu": 3547,
  "\u2581iubitor": 3548,
  "\u2581b\u0103ie\u0163": 3549,
  "\u2581ascult\u0103tori": 3550,
  "Fapt": 3551,
  "\u2581adev\u0103rul": 3552,
  "\u2581l\u0103sat": 3553,
  "\u2581niciun": 3554,
  "\u2581b\u0103rba\u0163i": 3555,
  "medi": 3556,
  "nui": 3557,
  "\u2581str\u0103": 3558,
  "\u2581preferat\u0103": 3559,
  "\u2581cite\u015ft": 3560,
  "\u2581\u00eencerc": 3561,
  "\u2581m\u00e2ncat": 3562,
  "\u2581ide": 3563,
  "\u2581F\u0103": 3564,
  "\u2581\u021binut\u0103": 3565,
  "\u2581loial\u0103": 3566,
  "\u2581puternic": 3567,
  "lip": 3568,
  "\u2581r\u00e2nd": 3569,
  "ni\u015fte": 3570,
  "\u2581nicio": 3571,
  "\u2581curg": 3572,
  "uga": 3573,
  "p\u0103rt": 3574,
  "\u2581munc\u0103": 3575,
  "\u2581s\u0103pt\u0103m\u00e2n\u0103": 3576,
  "as\u0103": 3577,
  "\u2581Bun\u0103": 3578,
  "\u2581prive\u0219te": 3579,
  "\u2581\u00eengrijor": 3580,
  "ntele": 3581,
  "abil": 3582,
  "ona": 3583,
  "\u2581Pacea": 3584,
  "\u0163in": 3585,
  "\u2581ascult\u0103": 3586,
  "\u2581Tes": 3587,
  "\u2581sincer": 3588,
  "\u2581aceea": 3589,
  "ono": 3590,
  "\u2581lemn": 3591,
  "biect": 3592,
  "\u2581vii": 3593,
  "\u2581cont": 3594,
  "loare": 3595,
  "\u2581g\u0103sit": 3596,
  "\u2581face\u0163i": 3597,
  "eau": 3598,
  "\u2581reflect\u0103": 3599,
  "\u2581da\u0163i": 3600,
  "\u2581doved": 3601,
  "meri": 3602,
  "\u2581legi": 3603,
  "z\u0103": 3604,
  "\u2581materiale": 3605,
  "\u2581sf": 3606,
  "\u2581prezi": 3607,
  "tre": 3608,
  "ilor": 3609,
  "\u2581alt": 3610,
  "\u2581vad\u0103": 3611,
  "\u2581Ioan": 3612,
  "pare": 3613,
  "vin": 3614,
  "turi": 3615,
  "\u2581j": 3616,
  "\u2581Isaia": 3617,
  "\u2581p\u0103str": 3618,
  "\u2581explica": 3619,
  "\u2581existe": 3620,
  "ij": 3621,
  "tru": 3622,
  "AL": 3623,
  "\u2581alb": 3624,
  "\u2581ridic": 3625,
  "\u2581congrega\u021biei": 3626,
  "\u2581Mare": 3627,
  "\u2581Tre": 3628,
  "\u2581\u00eenchin\u0103": 3629,
  "rul": 3630,
  "\u2581\u00eence": 3631,
  "ment": 3632,
  "\u2581leg": 3633,
  "\u2581num\u0103r": 3634,
  "\u2581fiic": 3635,
  "\u2581credin": 3636,
  "\u2581porunc": 3637,
  "\u2581auditoriu": 3638,
  "\u2581\u00eenv\u0103\u0163": 3639,
  "\u2581p\u0103stra": 3640,
  "\u2581profe\u021bi": 3641,
  "Continu": 3642,
  "ns": 3643,
  "opul": 3644,
  "UL": 3645,
  "\u2581rug\u0103ciun": 3646,
  "\u2581priv": 3647,
  "\u2581demn": 3648,
  "\u2581acoper": 3649,
  "\u00ce": 3650,
  "\u2581f\u0103c": 3651,
  "\u2581\u015e": 3652,
  "mpre": 3653,
  "\u2581lup": 3654,
  "fes": 3655,
  "nal": 3656,
  "Tat\u0103l": 3657,
  "oar": 3658,
  "\u0218t": 3659,
  "parte": 3660,
  "\u00een": 3661,
  "e\u015fti": 3662,
  "aduce": 3663,
  "m\u00e2n": 3664,
  "\u00cen": 3665,
  "\u2581(1": 3666,
  "prezi": 3667,
  "fi": 3668,
  "\u2581bani": 3669,
  "rile": 3670,
  "\u2581slujitor": 3671,
  "use": 3672,
  "gia": 3673,
  "eli": 3674,
  "torul": 3675,
  "\u2581obosi": 3676,
  "\u2581Pace": 3677,
  "he": 3678,
  "\u2581perfect": 3679,
  "\u2581sus\u021bin": 3680,
  "ezer": 3681,
  "\u2581situa\u021bi": 3682,
  "urile": 3683,
  "ativ": 3684,
  "\u021b": 3685,
  "Ca": 3686,
  "ceni": 3687,
  "\u2581invi": 3688,
  "\u2581congrega\u021bi": 3689,
  "torii": 3690,
  "\u2581mo": 3691,
  "\u2581anul": 3692,
  "\u2581munc": 3693,
  "\u2581vorbi": 3694,
  "\u2581s\u0103pt\u0103m\u00e2n": 3695,
  "\u2581\u00eem": 3696,
  "\u2581cuv\u00e2nt": 3697,
  "rg": 3698,
  "\u2581p\u0103rin": 3699,
  "Via": 3700,
  "cul": 3701,
  "\u2581C\u00e2": 3702,
  "\u2581scri": 3703,
  "\u2581\u00eenvia": 3704,
  "igur\u0103": 3705,
  "\u2581folo": 3706,
  "\u2581Bun": 3707,
  "\u2581anum": 3708,
  "uca": 3709,
  ":7": 3710,
  "\u2581r\u00e2": 3711,
  "3:3": 3712,
  "ZI": 3713,
  "TIV": 3714,
  "r\u00e2t": 3715,
  "\u2581Comemorarea": 3716,
  "\u2581Corpul": 3717,
  "\u2581Cr\u0103ciunul": 3718,
  "\u2581Iacov": 3719,
  "\u2581Mesia": 3720,
  "\u2581Rom\u00e2nia": 3721,
  "\u2581VIDEO": 3722,
  "\u2581accept\u0103": 3723,
  "\u2581aspect": 3724,
  "\u2581congres": 3725,
  "\u2581disponibil": 3726,
  "\u2581experien\u021b": 3727,
  "\u2581ferici\u021bi": 3728,
  "\u2581frumos": 3729,
  "\u2581fusese": 3730,
  "\u2581ini\u021bial\u0103": 3731,
  "\u2581mesaj": 3732,
  "\u2581mondial": 3733,
  "\u2581n\u0103scut": 3734,
  "\u2581organiza\u021bi": 3735,
  "\u2581simpl": 3736,
  "\u2581solda": 3737,
  "\u2581\u00een\u021belepciune": 3738,
  "\u2581\u0219erpi": 3739,
  "\u2581\u201e[": 3740,
  "Babilon": 3741,
  "Ferici": 3742,
  "ndiferen": 3743,
  "\u2581Scripturi": 3744,
  "\u2581corp": 3745,
  "\u2581instaura": 3746,
  "\u2581integritate": 3747,
  "\u2581repartiza": 3748,
  "\u2581transmi": 3749,
  "\u2581Evei": 3750,
  "\u2581ac\u0163ion": 3751,
  "\u2581clas\u0103": 3752,
  "\u2581cunoa": 3753,
  "\u2581sl\u0103bi": 3754,
  "\u2581regat": 3755,
  "\u2581zideasc\u0103": 3756,
  "\u2581\u00een\u021belege": 3757,
  "\u258137:": 3758,
  "\u2581Oameni": 3759,
  "\u2581\u00eendrept": 3760,
  "\u2581porn": 3761,
  "\u2581cinsti": 3762,
  "\u2581no\u0219tri": 3763,
  "\u2581sufl": 3764,
  "\u2581mul\u021bumi": 3765,
  "\u2581t\u00e2n\u0103r": 3766,
  "\u2581minunat": 3767,
  "\u2581provoac": 3768,
  "\u2581repede": 3769,
  "\u2581pasa": 3770,
  "\u2581comemora": 3771,
  "\u2581galben": 3772,
  "\u2581domni": 3773,
  "\u2581urechi": 3774,
  "\u2581rela\u021bi": 3775,
  "\u2581etern": 3776,
  "\u2581scuz\u0103": 3777,
  "Evr": 3778,
  "\u2581\u00ceN": 3779,
  "\u2581coco\u015f": 3780,
  "\u2581r\u0103c": 3781,
  "\u2581s\u0103n\u0103tate": 3782,
  "titu": 3783,
  "uvern": 3784,
  "\u2581Numele": 3785,
  "\u2581gre\u0219": 3786,
  "\u2581foc": 3787,
  "\u2581r\u0103z": 3788,
  "\u2581Niciun": 3789,
  "\u2581\u00eemplineasc\u0103": 3790,
  "\u2581armoni": 3791,
  "\u2581confrunt": 3792,
  "\u2581alinare": 3793,
  "frunt": 3794,
  "\u2581surori": 3795,
  "ern": 3796,
  "\u2581spiritului": 3797,
  "\u2581cump\u0103r\u0103t": 3798,
  "\u2581Aceast": 3799,
  "\u2581curajos": 3800,
  "\u2581spioni": 3801,
  "\u2581c\u00e2in": 3802,
  "\u2581Iosi": 3803,
  "\u00e2ng": 3804,
  "\u2581picioarele": 3805,
  "uferele": 3806,
  "\u2581acestora": 3807,
  "ec\u021bii": 3808,
  "\u2581sentiment": 3809,
  "\u2581fra\u021bi": 3810,
  "jor": 3811,
  "uf\u0103rul": 3812,
  "oas\u0103": 3813,
  "\u2581PR": 3814,
  "\u2581botezul": 3815,
  "fectat": 3816,
  "\u2581iubim": 3817,
  "\u2581ascun": 3818,
  "\u2581int": 3819,
  "\u2581CU": 3820,
  "\u2581chemat": 3821,
  "\u2581adev\u0103ruri": 3822,
  "mul\u021bumesc": 3823,
  "\u2581schimb\u0103ri": 3824,
  "\u2581regul\u0103": 3825,
  "\u2581ju": 3826,
  "\u25815:2": 3827,
  "\u2581revist": 3828,
  "Gala": 3829,
  "dic\u0103": 3830,
  "\u2581supraveghetor": 3831,
  "\u2581tab": 3832,
  "\u2581c\u0103r\u021bile": 3833,
  "\u2581sens": 3834,
  "\u2581vestito": 3835,
  "\u0103rilor": 3836,
  "\u2581discut": 3837,
  "\u2581altor": 3838,
  "\u2581ales": 3839,
  "\u2581eforturi": 3840,
  "orbi": 3841,
  "\u2581afl\u0103m": 3842,
  "\u2581plec": 3843,
  "apoi": 3844,
  "\u2581fericit\u0103": 3845,
  "oua": 3846,
  "\u2581obiceiuri": 3847,
  "\u2581vreo": 3848,
  "\u2581ap\u0103rea": 3849,
  "\u2581repar": 3850,
  "\u2581m\u00e2n\u0103": 3851,
  "\u2581curat": 3852,
  "\u2581salvez": 3853,
  "\u2581acestui": 3854,
  "\u2581asist": 3855,
  "\u2581mas\u0103": 3856,
  "\u2581spirituale": 3857,
  "\u2581vie": 3858,
  "\u0103toare": 3859,
  "\u2581iert": 3860,
  "veghe": 3861,
  "\u2581mele": 3862,
  "\u2581tur": 3863,
  "\u2581fericire": 3864,
  "\u2581rece": 3865,
  "lar": 3866,
  "\u2581vorbitor": 3867,
  "\u2581apa": 3868,
  "\u2581puternic\u0103": 3869,
  "ur\u0103": 3870,
  "\u2581pozitiv": 3871,
  "\u2581imp": 3872,
  "\u2581profund": 3873,
  "\u2581v\u0103zut": 3874,
  "\u2581ajuns": 3875,
  "\u2581mov": 3876,
  "\u2581dormit": 3877,
  "\u2581situa\u0163ii": 3878,
  "\u2581nebuni": 3879,
  "it\u0103\u021bi": 3880,
  "\u2581mergem": 3881,
  "\u2581persoanele": 3882,
  "\u2581sus\u021bine": 3883,
  "\u2581calm": 3884,
  "\u2581dez": 3885,
  "\u015fte": 3886,
  "lus": 3887,
  "\u2581cad": 3888,
  "\u2581\u00eemplini": 3889,
  "\u2581profe\u021bie": 3890,
  "\u2581trece": 3891,
  "\u2581r\u0103spunsuri": 3892,
  "\u2581preg\u0103ti": 3893,
  "\u00e2ine": 3894,
  "Num": 3895,
  "\u2581evi": 3896,
  "\u2581depune": 3897,
  "\u2581buc": 3898,
  "\u2581stare": 3899,
  "pt\u0103": 3900,
  "\u2581case": 3901,
  "\u2581\u00eencepe": 3902,
  "\u2581c\u0103r": 3903,
  "\u2581dep": 3904,
  "zeze": 3905,
  "\u2581invit": 3906,
  "\u2581Al": 3907,
  "\u2581Adev\u0103ra": 3908,
  "PS": 3909,
  "\u2581\u00ce": 3910,
  "\u2581\u00eenve\u021bi": 3911,
  "\u2581folosit": 3912,
  "\u2581spirit": 3913,
  "\u2581folose\u0219t": 3914,
  "\u2581suferin\u021b": 3915,
  "\u2581\u00eentreag": 3916,
  "\u2581prea": 3917,
  "\u2581ochii": 3918,
  "rele": 3919,
  "\u2581rrome": 3920,
  "\u2581Ai": 3921,
  "\u2581vin\u0103": 3922,
  "\u2581st\u0103": 3923,
  "\u2581cre": 3924,
  "\u2581cre\u0219tini": 3925,
  "\u2581biblic": 3926,
  "\u2581nor": 3927,
  "ruri": 3928,
  "\u2581e\u015fti": 3929,
  "anif": 3930,
  "ic": 3931,
  "rii": 3932,
  "\u2581Viz": 3933,
  "olul": 3934,
  "\u2581umbla": 3935,
  "puse": 3936,
  "\u2581oc": 3937,
  "\u2581ave": 3938,
  "cuno\u015ftin\u0163": 3939,
  "\u2581so\u021bi": 3940,
  "\u2581sec": 3941,
  "\u2581minciuni": 3942,
  "Vrem": 3943,
  "rize": 3944,
  "\u2581Fa": 3945,
  "\u2581Zi": 3946,
  "\u2581rele": 3947,
  "\u2581prezenta": 3948,
  ":4)": 3949,
  "vino": 3950,
  "\u2581prezentat": 3951,
  "\u2581ata": 3952,
  "\u015f": 3953,
  "4)": 3954,
  "\u2581men\u021biona": 3955,
  "INT": 3956,
  "\u2581m\u00e2na": 3957,
  "\u2581mut": 3958,
  "\u2581material": 3959,
  "\u2581personal": 3960,
  "\u2581glorifica": 3961,
  "coate": 3962,
  "ite": 3963,
  "acul": 3964,
  "\u2581p\u0103m\u00e2nte": 3965,
  "iei": 3966,
  "\u2581fiu": 3967,
  "urs": 3968,
  "im": 3969,
  "ebra": 3970,
  "bie": 3971,
  "\u2581a\u0219te": 3972,
  "\u2581sf\u00e2r\u0219it": 3973,
  "\u021bit": 3974,
  "\u2581sor": 3975,
  "rnici": 3976,
  "\u2581p\u0103cate": 3977,
  "\u2581asculta": 3978,
  "\u2581femeie": 3979,
  "c\u021biona": 3980,
  "\u2581sluj": 3981,
  "\u2581purt": 3982,
  "curs": 3983,
  "emp": 3984,
  "\u2581parc": 3985,
  "bui": 3986,
  "\u2581f\u0103": 3987,
  "\u2581exempl": 3988,
  "\u2581oferi": 3989,
  "astre": 3990,
  "est": 3991,
  "\u0219ti": 3992,
  "\u2581c\u00e2te": 3993,
  "OI": 3994,
  "ret": 3995,
  "IS": 3996,
  "ex": 3997,
  "ece": 3998,
  "\u2581nedrep": 3999,
  "\u2581Se": 4000,
  "\u2581apar": 4001,
  "g\u0103": 4002,
  "cump\u0103ra": 4003,
  "\u2581util": 4004,
  "rebui": 4005,
  "\u2581teme": 4006,
  "spus": 4007,
  "\u2581f\u0103cute": 4008,
  "\u2581particip": 4009,
  "uz": 4010,
  "\u0219a": 4011,
  "\u2581\u00eemp": 4012,
  "\u2581Bro": 4013,
  "bra": 4014,
  "ac": 4015,
  "\u2581plac": 4016,
  "vedere": 4017,
  "\u2581imagine": 4018,
  "\u2581cr": 4019,
  "al\u0103": 4020,
  "dul": 4021,
  "Oric": 4022,
  "cum": 4023,
  "tabili": 4024,
  "ergi": 4025,
  "ita": 4026,
  "\u2581apropia": 4027,
  "\u2581p\u0103t": 4028,
  "rec": 4029,
  "tatea": 4030,
  "\u2581convinger": 4031,
  "en\u021b\u0103": 4032,
  "\u2581cuno\u015ft": 4033,
  "\u2581\u00eendemn": 4034,
  "\u2581pierd": 4035,
  "\u2581dovedi": 4036,
  "\u2581bibli": 4037,
  "\u2581m\u00e2n": 4038,
  "az\u0103": 4039,
  "o\u0219i": 4040,
  "\u2581minciun": 4041,
  "\u2581ascul": 4042,
  "\u2581hr\u0103n": 4043,
  "\u2581Reg": 4044,
  "asul": 4045,
  "\u2581Sp": 4046,
  "\u2581serviciu": 4047,
  "mon": 4048,
  "rcu": 4049,
  "\u2581g\u00e2nd": 4050,
  "\u2581g\u0103s": 4051,
  "adev\u0103r": 4052,
  "\u2581diferit": 4053,
  "\u2581inter": 4054,
  "So\u0163": 4055,
  "\u2581nerrom": 4056,
  "fa": 4057,
  "Ioa": 4058,
  "\u2581fiec": 4059,
  "l\u0103": 4060,
  "end": 4061,
  "\u2581ochi": 4062,
  "nice": 4063,
  "\u2581uit": 4064,
  "\u2581problemel": 4065,
  "spirit": 4066,
  "\u2581Co": 4067,
  "u\u015f": 4068,
  "vechi": 4069,
  "artea": 4070,
  "cazu": 4071,
  "rog": 4072,
  "\u00ee": 4073,
  "veste": 4074,
  "Isus": 4075,
  "Acest": 4076,
  "\u2581Fiec": 4077,
  "Pro": 4078,
  "\u2581tat\u0103": 4079,
  "pot": 4080,
  "\u2581neces": 4081,
  "alt": 4082,
  "\u2581aplica": 4083,
  "zare": 4084,
  "ij\u0103": 4085,
  "\u2581sac": 4086,
  "\u021bine": 4087,
  "\u2581mil": 4088,
  "umesc": 4089,
  "\u2581na\u021biun": 4090,
  "spectiv": 4091,
  "\u2581asem\u0103n\u0103to": 4092,
  "gr\u0103": 4093,
  "mari": 4094,
  "ez": 4095,
  "\u2581c\u00e2nt": 4096,
  "r\u0103u": 4097,
  "\u2581vede": 4098,
  "din": 4099,
  "\u2581depu": 4100,
  "\u2581\u00eenaint": 4101,
  "\u2581\u00eenvie": 4102,
  "\u2581ace\u015fti": 4103,
  "\u2581pur": 4104,
  "vit\u0103": 4105,
  "\u2581spiritual": 4106,
  "\u2581prezen": 4107,
  "\u2581apro": 4108,
  "\u2581salv": 4109,
  "\u2581con\u0219ti": 4110,
  "\u2581cons": 4111,
  "scult\u0103": 4112,
  "semenea": 4113,
  "cord": 4114,
  "\u0103\u021bi": 4115,
  "\u2581fericit": 4116,
  "nim": 4117,
  "\u2581afar": 4118,
  "\u2581frumoas": 4119,
  "\u2581loial": 4120,
  "ainte": 4121,
  "\u2581baz": 4122,
  "\u2581\u021binut": 4123,
  "tuit": 4124,
  "\u2581distru": 4125,
  "\u2581cunosc": 4126,
  "\u2581acu": 4127,
  "\u2581schimb": 4128,
  "\u2581chema": 4129,
  "ap\u0103": 4130,
  "\u2581b\u0103rba": 4131,
  "\u2581\u00eenchi": 4132,
  "\u2581pl\u0103ce": 4133,
  "\u2581prive\u0219t": 4134,
  "\u2581\u021bigani": 4135,
  "termin": 4136,
  "\u2581\u00eengrij": 4137,
  "opil": 4138,
  "p\u00e2n": 4139,
  "\u2581dove": 4140,
  "ersoanele": 4141,
  "oile": 4142,
  "\u258124": 4143,
  "\u2581\u00eent\u00e2": 4144,
  "NT": 4145,
  "ficient": 4146,
  "xi": 4147,
  "Stud": 4148,
  "trunire": 4149,
  "\u2581recuno": 4150,
  "\u2581comentari": 4151,
  "\u2581desf\u0103\u0219": 4152,
  "\u2581\u00een\u0163eleg": 4153,
  "\u2581\u021a": 4154,
  "firma": 4155,
  "omandantul": 4156,
  "rginti": 4157,
  "\u2581Avraam": 4158,
  "\u2581Binecuv\u00e2nta": 4159,
  "\u2581Edenului": 4160,
  "\u2581Goliat": 4161,
  "\u2581Paradis": 4162,
  "\u2581P\u0102R\u021aI": 4163,
  "\u2581articol": 4164,
  "\u2581binecuv\u00e2nta": 4165,
  "\u2581bolnav": 4166,
  "\u2581cople\u015fi": 4167,
  "\u2581cre\u015ftin": 4168,
  "\u2581dificil": 4169,
  "\u2581discu\u021bie": 4170,
  "\u2581du\u0219mani": 4171,
  "\u2581evrei": 4172,
  "\u2581farfuriile": 4173,
  "\u2581foame": 4174,
  "\u2581inactiv": 4175,
  "\u2581inclu": 4176,
  "\u2581jertf\u0103": 4177,
  "\u2581lumina": 4178,
  "\u2581mul\u0163umi": 4179,
  "\u2581nop\u0163i": 4180,
  "\u2581ob\u021bine": 4181,
  "\u2581pantofi": 4182,
  "\u2581precedent": 4183,
  "\u2581prevede": 4184,
  "\u2581ru\u0219in": 4185,
  "\u2581sus\u0163in": 4186,
  "\u2581timid": 4187,
  "\u2581tip\u0103r": 4188,
  "\u2581voastr\u0103": 4189,
  "\u2581\u00eenf\u0103ptui": 4190,
  "\u2581\u00eenregistra": 4191,
  "\u2581\u015fapte": 4192,
  "\u2581\u0219coal\u0103": 4193,
  "obraji": 4194,
  "\u2581Deget": 4195,
  "\u2581aprecie": 4196,
  "\u2581blestem": 4197,
  "\u2581concentr": 4198,
  "\u2581oblig": 4199,
  "\u2581ocroti": 4200,
  "\u2581reputa\u021bia": 4201,
  "\u2581sublini": 4202,
  "\u2581televizorul": 4203,
  "\u2581trage": 4204,
  "\u2581zg\u00e2ri": 4205,
  "\u2581Genunchi": 4206,
  "\u2581Men\u021bion": 4207,
  "\u2581deschid": 4208,
  "\u2581poticn": 4209,
  "\u2581ucis": 4210,
  "P\u0103str": 4211,
  "\u2581Creator": 4212,
  "\u2581crescut": 4213,
  "\u2581umili": 4214,
  "\u2581viziona": 4215,
  "\u2581lan\u021b": 4216,
  "\u2581deseori": 4217,
  "\u2581ora\u015f": 4218,
  "\u2581cheam": 4219,
  "\u2581resping": 4220,
  "e\u021bui": 4221,
  "\u2581Alege": 4222,
  "\u2581suprav": 4223,
  "\u2581Frig": 4224,
  "urtun": 4225,
  "\u2581ceilal": 4226,
  "oane": 4227,
  "\u2581locatar": 4228,
  "\u2581ora\u0219": 4229,
  "\u2581Arat\u0103": 4230,
  "tuden\u021bi": 4231,
  "\u2581publica\u021biil": 4232,
  "\u2581siguran\u021b\u0103": 4233,
  "\u2581lingur": 4234,
  "glind": 4235,
  "\u2581pl\u0103t": 4236,
  "\u2581fals\u0103": 4237,
  "\u2581p\u0103durari": 4238,
  "\u2581furat": 4239,
  "\u2581aminte": 4240,
  "\u2581nasuri": 4241,
  "\u2581str\u0103mo\u0219": 4242,
  "siv": 4243,
  "\u2581cu\u021bitul": 4244,
  "\u2581tandr": 4245,
  "\u258135": 4246,
  "\u2581suficient": 4247,
  "bsol": 4248,
  "\u2581publica\u021bie": 4249,
  "\u2581pionier": 4250,
  "\u2581arunca": 4251,
  "\u2581Ochi": 4252,
  "\u2581spate": 4253,
  "\u2581al\u021bi": 4254,
  "\u2581inimi": 4255,
  "\u2581minute": 4256,
  "\u2581continu\u0103": 4257,
  "\u2581binecuv\u00e2nt\u0103ri": 4258,
  "\u2581medita": 4259,
  "tribuit": 4260,
  "rtori": 4261,
  "\u2581popo": 4262,
  "\u2581\u00eenve\u0163": 4263,
  "\u2581micro": 4264,
  "\u2581\u00een\u021belept": 4265,
  "\u2581r\u0103s": 4266,
  "\u2581porc": 4267,
  "melo": 4268,
  "\u0103lc\u00e2i": 4269,
  "crip": 4270,
  "lit\u0103\u0163i": 4271,
  "\u2581jos": 4272,
  "\u0219ura": 4273,
  "verti": 4274,
  "\u2581Nici": 4275,
  "\u2581convin": 4276,
  "\u2581\u00eent\u00e2ln": 4277,
  "\u2581cald": 4278,
  "P\u0102": 4279,
  "\u2581sosi": 4280,
  "\u2581g\u00e2ndesc": 4281,
  "\u2581in\u0219i": 4282,
  "\u2581batic": 4283,
  "itic\u0103": 4284,
  "ibil": 4285,
  "\u2581p\u0103dur": 4286,
  "elatare": 4287,
  "\u2581Fra": 4288,
  "\u2581obi": 4289,
  "\u2581izola": 4290,
  "\u2581s\u0103rb\u0103toare": 4291,
  "\u2581Cap": 4292,
  "\u2581\u021biganilor": 4293,
  "\u2581regi": 4294,
  "\u2581c\u0103r\u021bi": 4295,
  "\u2581prezent\u0103ri": 4296,
  "\u2581genunchi": 4297,
  "um\u0103r": 4298,
  "\u2581Pute": 4299,
  "\u2581israeli\u0163i": 4300,
  "\u2581m\u00e2nca\u021bi": 4301,
  "t\u0103\u021be": 4302,
  "\u2581afl\u0103": 4303,
  "\u2581Lege": 4304,
  ":5": 4305,
  "\u2581carnea": 4306,
  "\u2581s\u00e2ngele": 4307,
  "lav": 4308,
  "\u2581mul\u0163i": 4309,
  "\u2581ro\u0219u": 4310,
  "e\u0219it": 4311,
  "ificat": 4312,
  "\u2581Nas": 4313,
  "\u2581israeli\u021bi": 4314,
  "\u2581continuatori": 4315,
  "\u2581r\u0103m": 4316,
  "\u2581provocat": 4317,
  "orma": 4318,
  "Ap": 4319,
  "\u2581unchiul": 4320,
  "s\u0103rat\u0103": 4321,
  "\u021bional": 4322,
  "\u2581imperfec": 4323,
  "\u2581\u00eenfr": 4324,
  "itoriul": 4325,
  "\u2581Acum": 4326,
  "\u2581scu": 4327,
  "\u2581\u00eenmorm\u00e2nta": 4328,
  "\u2581scap": 4329,
  "\u2581acelea": 4330,
  "ndru": 4331,
  "\u2581spu": 4332,
  "\u2581Tin": 4333,
  "\u2581g\u00e2nduril": 4334,
  "oapt": 4335,
  "\u2581origin": 4336,
  "rod": 4337,
  "si\u0163i": 4338,
  "\u2581\u00eenconjur": 4339,
  "\u2581deplin\u0103": 4340,
  "\u2581acea": 4341,
  "\u2581beau": 4342,
  "\u2581asigurare": 4343,
  "\u2581VI": 4344,
  "gura": 4345,
  "\u2581ast\u0103zi": 4346,
  "\u2581asi": 4347,
  "\u2581soarel": 4348,
  "\u2581anun\u021b": 4349,
  "\u2581dorea": 4350,
  "\u2581osul": 4351,
  "\u2581p\u0103s": 4352,
  "\u2581m\u0103tu": 4353,
  "\u2581adus": 4354,
  "\u2581poduri": 4355,
  "\u2581p\u0103rin\u021bi": 4356,
  "\u2581acas\u0103": 4357,
  "itua\u021bi": 4358,
  "di\u021bii": 4359,
  "\u2581patru": 4360,
  "olo": 4361,
  "\u2581ro\u015fi": 4362,
  "dii": 4363,
  "\u2581ap": 4364,
  "itare": 4365,
  "\u2581ele": 4366,
  "\u2581hot\u0103r\u00e2t": 4367,
  "\u2581motivat": 4368,
  "\u2581activit\u0103": 4369,
  "c\u0103tor": 4370,
  "\u2581cartea": 4371,
  "\u2581preo": 4372,
  "numit": 4373,
  "\u2581stresat": 4374,
  "teni": 4375,
  "rului": 4376,
  "\u2581aud\u0103": 4377,
  "ca\u0163i": 4378,
  "acol": 4379,
  "\u2581oferind": 4380,
  "\u2581acord": 4381,
  "ritu": 4382,
  "8)": 4383,
  "boa": 4384,
  "\u2581Iubire": 4385,
  "\u2581sine": 4386,
  "uj": 4387,
  "erea": 4388,
  "\u2581r\u0103i": 4389,
  "\u2581oric\u00e2nd": 4390,
  "log": 4391,
  "\u2581Din\u021bi": 4392,
  "lme": 4393,
  "\u2581\u00centru": 4394,
  "\u2581idee": 4395,
  "zat": 4396,
  "meni": 4397,
  "\u2581Noro": 4398,
  "ostru": 4399,
  "\u2581Cr": 4400,
  "\u2581b\u0103t": 4401,
  "jo": 4402,
  "\u2581m\u0103r": 4403,
  "fid": 4404,
  "\u2581viitorul": 4405,
  "nstrui": 4406,
  "\u2581ace\u015ftia": 4407,
  "asta": 4408,
  "t\u0103ri": 4409,
  "\u2581nes\u0103": 4410,
  "in\u021ba": 4411,
  "mport": 4412,
  "\u2581liber": 4413,
  "\u2581na\u0219te": 4414,
  "\u2581deget": 4415,
  "\u2581zis": 4416,
  "\u2581sco": 4417,
  "\u2581sf\u00e2nt": 4418,
  "\u2581misionari": 4419,
  "\u2581\u00eentorci": 4420,
  "vit": 4421,
  "\u2581ro": 4422,
  "\u2581aten": 4423,
  "\u2581perfecte": 4424,
  "\u2581situa\u021bie": 4425,
  "ghe": 4426,
  "\u2581siguran": 4427,
  "\u2581Mart": 4428,
  "\u2581RE": 4429,
  "\u2581cuno\u0219tin\u021b\u0103": 4430,
  "\u2581so\u021bie": 4431,
  "\u2581instrui": 4432,
  "\u2581u\u0219a": 4433,
  "ote": 4434,
  "\u2581pos": 4435,
  "\u2581c\u0103ru\u021b": 4436,
  "\u2581Frum": 4437,
  "\u2581mere": 4438,
  "\u2581umbli": 4439,
  "\u021b\u0103": 4440,
  "\u2581obosit": 4441,
  "\u2581vara": 4442,
  "\u2581nou\u0103": 4443,
  "sem\u0103n\u0103tor": 4444,
  "\u2581por\u021bi": 4445,
  "\u2581na\u021biune": 4446,
  "\u2581Os": 4447,
  "erii": 4448,
  "gro": 4449,
  "\u2581c\u0103l\u0103": 4450,
  "aplicat": 4451,
  "\u2581ape": 4452,
  "u\u015fi": 4453,
  "\u2581necesar": 4454,
  "\u2581\u00eensu": 4455,
  "\u2581vr\u0103": 4456,
  "ism": 4457,
  "\u2581s\u0103rb\u0103tori": 4458,
  "\u2581moare": 4459,
  "anului": 4460,
  "mani": 4461,
  "teaz\u0103": 4462,
  "ace": 4463,
  "\u2581mie": 4464,
  "\u2581g\u00e2ndi": 4465,
  "\u2581omul": 4466,
  "\u2581nerromi": 4467,
  "\u2581adu": 4468,
  "\u2581et": 4469,
  "So\u0163i": 4470,
  "\u2581Alt": 4471,
  "ierul": 4472,
  "ona\u021bii": 4473,
  "\u2581gr\u0103": 4474,
  "\u2581dureri": 4475,
  "\u2581In": 4476,
  "stra": 4477,
  "form": 4478,
  "\u2581Ia": 4479,
  "\u2581C\u00e2te": 4480,
  "\u2581Acel": 4481,
  "\u2581caut": 4482,
  "\u2581cur": 4483,
  "\u2581primit": 4484,
  "urzi": 4485,
  "a\u021ba": 4486,
  "\u2581hr\u0103ni": 4487,
  "\u2581saci": 4488,
  "\u2581sarea": 4489,
  "\u2581col": 4490,
  "\u2581\u00eenv\u0103\u021b": 4491,
  "dele": 4492,
  "m\u00e2nd": 4493,
  "\u2581decid": 4494,
  "\u2581doarm": 4495,
  "\u2581animale": 4496,
  "zol": 4497,
  "-3": 4498,
  "\u2581demni": 4499,
  "\u2581banii": 4500,
  "m\u0103": 4501,
  "\u2581acoperi": 4502,
  "\u2581lupi": 4503,
  "ria": 4504,
  "ndu": 4505,
  "\u2581\u00eendemna": 4506,
  "\u2581\u0218o": 4507,
  "lari": 4508,
  ":24": 4509,
  "oreasc\u0103": 4510,
  "\u2581alege": 4511,
  "tii": 4512,
  "\u2581pierdu": 4513,
  "\u2581convingeri": 4514,
  "mor": 4515,
  "\u2581Aur": 4516,
  "\u2581baza": 4517,
  "\u2581rup": 4518,
  "\u2581potop": 4519,
  "onice": 4520,
  "propia\u021bi": 4521,
  "san": 4522,
  "\u2581Mie": 4523,
  "\u2581Noe": 4524,
  "p\u0103": 4525,
  "\u2581profe\u021biil": 4526,
  "\u2581sp": 4527,
  "stori": 4528,
  "\u0103u": 4529,
  "gea": 4530,
  "\u2581vac\u0103": 4531,
  "\u2581Pa": 4532,
  "uc\u0103": 4533,
  "\u2581Domnul": 4534,
  "uzi": 4535,
  "\u2581mei": 4536,
  "\u2581imagin": 4537,
  "\u2581plini": 4538,
  "\u2581Cas": 4539,
  "\u2581Ve": 4540,
  "\u2581Somnoro": 4541,
  "\u2581Via": 4542,
  "mne": 4543,
  "iz": 4544,
  "place": 4545,
  "OT": 4546,
  "ran": 4547,
  "ara": 4548,
  "\u2581auditoriul": 4549,
  "\u2581particip\u0103": 4550,
  "\u2581Li": 4551,
  "onia": 4552,
  "\u2581Mari": 4553,
  "\u021bie": 4554,
  "\u2581poat": 4555,
  "\u2581gre\u015f": 4556,
  "\u2581dul": 4557,
  "\u2581ten": 4558,
  "cas\u0103": 4559,
  "\u2581num\u0103r\u0103": 4560,
  "\u2581bucura": 4561,
  "\u015ft": 4562,
  "\u2581semn": 4563,
  "\u2581M\u00e2n": 4564,
  "supu": 4565,
  "utile": 4566,
  "\u2581\u00eende": 4567,
  "o\u0163i": 4568,
  "upune": 4569,
  "CE": 4570,
  "lbastr": 4571,
  "\u2581Cai": 4572,
  "\u2581urm\u0103r": 4573,
  "ante": 4574,
  "\u2581os": 4575,
  "st\u0103": 4576,
  "pat": 4577,
  "misiuni": 4578,
  "nem": 4579,
  "elax": 4580,
  "\u2581ridica": 4581,
  "drep\u0163i": 4582,
  "\u2581temel": 4583,
  "\u021bionat": 4584,
  "\u2581femei": 4585,
  "\u0163ia": 4586,
  "stea": 4587,
  "\u2581boa": 4588,
  "\u2581privito": 4589,
  "duc\u0103": 4590,
  "semn": 4591,
  "zice": 4592,
  "\u2581\u2019": 4593,
  "\u2581ze": 4594,
  "\u2581Dec": 4595,
  "mnul": 4596,
  "\u2581gre\u015fe": 4597,
  "\u2581exist": 4598,
  "\u2581ajunge": 4599,
  "ers": 4600,
  "zon": 4601,
  "druma": 4602,
  "T\u0102": 4603,
  "33": 4604,
  "\u2581\u021b": 4605,
  "\u0103r": 4606,
  "\u2581pre\u021bu": 4607,
  "cir": 4608,
  "sabi": 4609,
  "\u2581ext": 4610,
  "pri": 4611,
  "omnoros": 4612,
  "EDE": 4613,
  "lie": 4614,
  "\u2581Sco": 4615,
  "\u2581glorific": 4616,
  "\u2581persona": 4617,
  "\u2581\u00eendrum\u0103": 4618,
  "ezerv": 4619,
  "\u2581Domn": 4620,
  "trem": 4621,
  "\u2581men\u021bion": 4622,
  "\u2581ex": 4623,
  "iga": 4624,
  "\u2581aud": 4625,
  "nici": 4626,
  "nta": 4627,
  "geri": 4628,
  "\u2581devi": 4629,
  "\u2581umbl": 4630,
  "\u2581com": 4631,
  "\u0103l": 4632,
  "ie\u0219ti": 4633,
  "erul": 4634,
  "\u2581sper": 4635,
  "\u2581Mo": 4636,
  "\u2581no": 4637,
  "gust": 4638,
  "gest": 4639,
  "\u2581reflect": 4640,
  "dus": 4641,
  "\u2581servici": 4642,
  "masc": 4643,
  "agia": 4644,
  "\u0163a": 4645,
  "\u2581animal": 4646,
  "o\u021bi": 4647,
  "\u2581sub": 4648,
  "\u2581trib": 4649,
  "nt\u0103rim": 4650,
  "\u2581ad": 4651,
  "elect": 4652,
  "\u2581sur": 4653,
  "rui": 4654,
  "\u2581ocu": 4655,
  "6:10)": 4656,
  "izual": 4657,
  "um\u0103": 4658,
  "\u2581cit": 4659,
  "oaie": 4660,
  "\u2581dona": 4661,
  "abi": 4662,
  "\u2581disc": 4663,
  "edica": 4664,
  "col": 4665,
  "\u2581lucr": 4666,
  "n\u021ba": 4667,
  "ralitate": 4668,
  "\u2581rez": 4669,
  "r\u021bile": 4670,
  "dome": 4671,
  "rit\u0103": 4672,
  "\u2581\u00eenc": 4673,
  "fl\u0103": 4674,
  "erb": 4675,
  "\u2581Adev\u0103r": 4676,
  "iect": 4677,
  "\u2581durer": 4678,
  "\u2581s\u0103rb\u0103tor": 4679,
  "uie\u015fte": 4680,
  "\u2581sinceri": 4681,
  "\u2581M\u00e2": 4682,
  "ug": 4683,
  "imb\u0103": 4684,
  "zin": 4685,
  "gru": 4686,
  "\u2581\u00eemplin": 4687,
  "\u2581Fru": 4688,
  "fer": 4689,
  "dar": 4690,
  "soci": 4691,
  "\u2581Mul\u021b": 4692,
  "\u2581cuno\u0219t": 4693,
  "\u2581preg\u0103t": 4694,
  "t\u0103m": 4695,
  "\u2581real": 4696,
  "\u2581trec": 4697,
  "\u2581\u00eenger": 4698,
  "picioare": 4699,
  "capit": 4700,
  "RE": 4701,
  "\u2581instru": 4702,
  "\u2581\u00eentorc": 4703,
  "\u2581predica": 4704,
  "\u2581nebun": 4705,
  "\u2581situa\u0163i": 4706,
  "durer": 4707,
  "\u2581\u00eenve\u021b": 4708,
  "deget": 4709,
  "cuno\u0219tin\u021b\u0103": 4710,
  "\u2581Ab": 4711,
  "\u2581comp": 4712,
  "vr\u0103": 4713,
  "sf\u00e2nt": 4714,
  "curaj": 4715,
  "\u00eentreag": 4716,
  "ajuns": 4717,
  "dormit": 4718,
  "profund": 4719,
  "v\u0103zut": 4720,
  "liber": 4721,
  "puternic": 4722,
  "Rom": 4723,
  "pozitiv": 4724,
  "lemn": 4725,
  "fugi": 4726,
  "Cristos": 4727,
  "dep": 4728,
  "\u00ab": 4729,
  "sf\u00e2r\u0219itul": 4730,
  "\u00eengrijor": 4731,
  "Tot": 4732,
  "r\u0103spuns": 4733,
  "r\u00e2n": 4734,
  "acestea": 4735,
  "na\u0219te": 4736,
  "Biblie": 4737,
  "15": 4738,
  "\u2581tr\u0103": 4739,
  "limba": 4740,
  "murit": 4741,
  "avem": 4742,
  "ciunile": 4743,
  "Cum": 4744,
  "mov": 4745,
  "bun\u0103": 4746,
  "vizi": 4747,
  "avea": 4748,
  "omul": 4749,
  "A\u0219a": 4750,
  "C\u00e2nd": 4751,
  "u\u0219a": 4752,
  "pa": 4753,
  "ard": 4754,
  "\u2581fericir": 4755,
  "noi": 4756,
  "\u2581trebu": 4757,
  "\u25816:10": 4758,
  "moni": 4759,
  "Cel": 4760,
  "leg": 4761,
  "\u2581ier": 4762,
  "n\u021be": 4763,
  "\u2581ofe": 4764,
  "\u00e2nt": 4765,
  "\u2581r\u0103spund": 4766,
  "\u2581famili": 4767,
  "ra\u0163": 4768,
  "prim": 4769,
  "\u00cem": 4770,
  "Dumnezeul": 4771,
  "pit": 4772,
  "evenim": 4773,
  "mos": 4774,
  "\u2581Iubi": 4775,
  "ec": 4776,
  "ntre": 4777,
  "dj": 4778,
  "\u2581pier": 4779,
  "tabil": 4780,
  "rig": 4781,
  "bii": 4782,
  "Os": 4783,
  "pera": 4784,
  "\u2581\u00eentreb": 4785,
  "\u2581referi": 4786,
  "\u2581pun": 4787,
  "misiune": 4788,
  "\u2581obiceiu": 4789,
  "\u2581activit": 4790,
  "\u2581stresa": 4791,
  "\u2581motiva": 4792,
  "\u2581carte": 4793,
  "\u2581Ace": 4794,
  "prob": 4795,
  "omului": 4796,
  "napoi": 4797,
  "\u2581u\u0219": 4798,
  "\u2581\u00cenchi": 4799,
  "\u2581efort": 4800,
  "rb\u0103tor": 4801,
  "\u2581\u0219": 4802,
  "\u2581m\u00e2nca": 4803,
  "vestit": 4804,
  "\u2581m\u0103rturi": 4805,
  "ple": 4806,
  "Ier": 4807,
  "cut\u0103": 4808,
  "duri": 4809,
  "rc": 4810,
  "izu": 4811,
  "\u021bea": 4812,
  "\u2581sin": 4813,
  "orm\u00e2nt": 4814,
  "ud\u0103": 4815,
  "coper": 4816,
  "postolul": 4817,
  "st\u0103zi": 4818,
  "\u2581fri": 4819,
  "\u2581supraveghe": 4820,
  "\u2581relat": 4821,
  "\u2581cuno\u0219tin\u021b": 4822,
  "\u2581deplin": 4823,
  "\u2581c\u00e2": 4824,
  "conjur": 4825,
  "\u2581umb": 4826,
  "rac": 4827,
  "\u2581regul": 4828,
  "\u2581preferat": 4829,
  "\u2581leg\u0103tur": 4830,
  "ceput": 4831,
  "buri": 4832,
  "\u2581congrega": 4833,
  "colo": 4834,
  "\u2581cunoscu": 4835,
  "stfel": 4836,
  "Psalm": 4837,
  "man": 4838,
  "viere": 4839,
  "\u00e2": 4840,
  "\u2581israeli": 4841,
  "andr": 4842,
  "umneze": 4843,
  "\u2581limb": 4844,
  "ierdut": 4845,
  "potriv": 4846,
  "\u2581anu": 4847,
  "r\u0103toare": 4848,
  "\u2581botez": 4849,
  "uf\u0103r": 4850,
  "lig": 4851,
  "perfec\u021bi": 4852,
  "\u2581ap\u0103r": 4853,
  "stat": 4854,
  "\u2581scop": 4855,
  "entimente": 4856,
  "mine": 4857,
  "\u2581l\u0103s": 4858,
  "\u2581provoca": 4859,
  "en\u021bionat": 4860,
  "ifica": 4861,
  "Io": 4862,
  "cali": 4863,
  "\u2581princip": 4864,
  "\u2581s\u00e2nge": 4865,
  "nvi": 4866,
  "genunch": 4867,
  "pioni": 4868,
  "\u00centrea": 4869,
  "upraveghetor": 4870,
  "tresat": 4871,
  "siuni": 4872,
  "lujitori": 4873,
  ":1": 4874,
  "\u0103pt\u0103m\u00e2n": 4875,
  "\u0103rb\u0103toare": 4876,
  "erde": 4877,
  "\u2581asigur": 4878,
  "rimi\u0163": 4879,
  "\u2581dormi": 4880,
  "xact": 4881,
  "e\u0163e": 4882,
  ":37": 4883,
  "otezul": 4884,
  "deosebi": 4885,
  "xempl": 4886,
  "ucruril": 4887,
  "\u2581sf\u00e2": 4888,
  "amilia": 4889,
  "t\u00e2l": 4890,
  "xplica": 4891,
  "epu": 4892,
  "\u0103rb\u0103t": 4893,
  "oial\u0103": 4894,
  "iavolul": 4895,
  "\u2581conduc\u0103": 4896,
  "xist\u0103": 4897,
  "l\u0103tur": 4898,
  "m\u00e2ntat\u0103": 4899,
  "ticipa": 4900,
  "ublica\u021bie": 4901,
  "\u00e2nc": 4902,
  "t\u00e2rzi": 4903,
  "co\u015f": 4904,
  "alben": 4905,
  "\u2581public": 4906,
  "\u00e2r\u0219it": 4907,
  "e\u021be": 4908,
  "rus": 4909,
  "icior": 4910,
  "puns": 4911,
  "\u2581somn": 4912,
  "ntegri": 4913,
  "ago": 4914,
  "\u2581resp": 4915,
  "elevizor": 4916,
  "mplu": 4917,
  "n\u0163ele": 4918,
  "\u0219tri": 4919,
  "\u2581G\u00e2": 4920,
  "mpla": 4921,
  "vinge": 4922,
  "tivi": 4923,
  "onal\u0103": 4924,
  "orim": 4925,
  "\u2581s\u0103n\u0103t": 4926,
  "igani": 4927,
  "\u2581gener": 4928,
  "\u2581iude": 4929,
  "cipi": 4930,
  "jitori": 4931,
  "piri": 4932,
  "uve": 4933,
  "ectiv": 4934,
  "siona": 4935,
  "reg\u0103t": 4936,
  "roman": 4937,
  "\u2581poru": 4938,
  "\u2581Bine": 4939,
  "figur": 4940,
  "\u2581promis": 4941,
  "\u2581sf\u00e2r": 4942,
  "SP": 4943,
  "elevi": 4944,
  "che": 4945,
  "inire": 4946,
  "agin": 4947,
  "o\u0219easc\u0103": 4948,
  "\u021bel": 4949,
  "\u0103tim": 4950,
  "ipii": 4951,
  "truc": 4952,
  "inst": 4953,
  "odel": 4954,
  "\u0103m\u00e2nt": 4955,
  "rieten": 4956,
  "edita": 4957,
  "edi": 4958,
  "redi": 4959,
  "rnea": 4960,
  "\u00e2ntat": 4961,
  "enul": 4962,
  "vim": 4963,
  "\u2581nas": 4964,
  "toar": 4965,
  "itulat": 4966,
  "Iac": 4967,
  "rdu": 4968,
  "\u0219er": 4969,
  "\u2581Pers": 4970,
  "rechi": 4971,
  "\u0103ciune": 4972,
  "\u2581Para": 4973,
  "romi": 4974,
  "\u2581picio": 4975,
  "\u2581Dis": 4976,
  "\u2581hr": 4977,
  "\u2581conc": 4978,
  "r\u0103ci": 4979,
  "ogra": 4980,
  "chiul": 4981,
  "omen": 4982,
  "ultu": 4983,
  "natur": 4984,
  "Ios": 4985,
  "rtur": 4986,
  "\u2581gu": 4987,
  "upii": 4988,
  "g\u0103ti": 4989,
  "\u2581c\u0103lc": 4990,
  "dat": 4991,
  "morm\u00e2nt": 4992,
  "inare": 4993,
  "\u2581atr": 4994,
  "\u2581tra": 4995,
  "umnezeul": 4996,
  "antul": 4997,
  "\u2581permi": 4998,
  "peri": 4999,
  "itori": 5000,
  "ustra": 5001,
  "memor": 5002,
  "nalitate": 5003,
  "\u2581cucer": 5004,
  "TRE": 5005,
  "\u2581Bu": 5006,
  "\u2581ve\u0219": 5007,
  "\u2581Sta": 5008,
  "\u2581sl\u0103": 5009,
  "mentele": 5010,
  "urt\u0103": 5011,
  "\u00ceng": 5012,
  "car": 5013,
  "\u2581\u00eenf": 5014,
  "\u2581term": 5015,
  "chinare": 5016,
  "ito": 5017,
  "\u2581\u0163": 5018,
  "\u2581Ed": 5019,
  "o\u0219u": 5020,
  "\u2581Gen": 5021,
  "mi\u015f": 5022,
  "acum": 5023,
  "urar": 5024,
  "\u25816:": 5025,
  "\u2581\u00cenc": 5026,
  "ndre": 5027,
  "\u2581fra": 5028,
  "\u2581pie": 5029,
  "\u2581cuvin": 5030,
  "\u2581Cup": 5031,
  "p\u0103st": 5032,
  "rept": 5033,
  "nsul": 5034,
  "ve\u0219te": 5035,
  "f\u00e2nt": 5036,
  "jat": 5037,
  "\u2581\u00een\u021be": 5038,
  "\u2581\u00eentreba": 5039,
  "\u0103torii": 5040,
  "tire": 5041,
  "ape": 5042,
  "g\u00e2n": 5043,
  "\u2581indi": 5044,
  "\u2581continuat": 5045,
  "\u015ful": 5046,
  "\u0163iilor": 5047,
  "coa": 5048,
  "ra\u021bi": 5049,
  "eligi": 5050,
  "\u2581\u00eend": 5051,
  "fie": 5052,
  "cuv\u00e2nt\u0103ri": 5053,
  "\u2581Pie": 5054,
  "ator": 5055,
  "nt": 5056,
  "\u2581ban": 5057,
  "\u2581sca": 5058,
  "\u2581\u00eengeri": 5059,
  "ve\u0219t": 5060,
  "reze": 5061,
  "Fi": 5062,
  "lici": 5063,
  "\u0103r\u021bile": 5064,
  "\u2581Um": 5065,
  "gos": 5066,
  "od": 5067,
  "orare": 5068,
  "des": 5069,
  "gine": 5070,
  "El": 5071,
  "ap": 5072,
  "\u2581\u00eentor": 5073,
  "Is": 5074,
  "sat": 5075,
  "cer": 5076,
  "lin": 5077,
  "\u2581team": 5078,
  "olului": 5079,
  "tr\u00e2n": 5080,
  "rij": 5081,
  "t\u0103\u0163i": 5082,
  "\u2581depun": 5083,
  "ude": 5084,
  "\u2581Prea": 5085,
  "\u2581\u00eenvin": 5086,
  "cerit": 5087,
  "\u2581\u00eengr": 5088,
  "\u2581iubir": 5089,
  "ris": 5090,
  "\u2581bea": 5091,
  "cat\u0103": 5092,
  "\u2581subi": 5093,
  "\u2581picioare": 5094,
  "\u2581capit": 5095,
  "guri": 5096,
  "feri": 5097,
  "\u2581str": 5098,
  "\u021bial": 5099,
  "\u2581mul": 5100,
  "zul": 5101,
  "\u2581cuno\u0219ti": 5102,
  "m\u00e2ntul": 5103,
  "cial\u0103": 5104,
  "ve\u015f": 5105,
  "\u0103ra": 5106,
  "ul\u021bumesc": 5107,
  "\u2581ro\u0219": 5108,
  "a\u021biu": 5109,
  ":10": 5110,
  "rbi": 5111,
  "\u0103p": 5112,
  "\u2581audi": 5113,
  "mente": 5114,
  "ns\u0103": 5115,
  "bat": 5116,
  "fl\u0103m": 5117,
  "pune": 5118,
  "ad": 5119,
  "exa": 5120,
  "\u2581p\u0103m\u00e2ntu": 5121,
  "\u2581var": 5122,
  "\u2581alba": 5123,
  "Iu": 5124,
  "rm\u0103": 5125,
  "rme": 5126,
  "a\u0219": 5127,
  "cate": 5128,
  "\u2581\u00eenchina": 5129,
  "\u2581cas": 5130,
  "\u2581bat": 5131,
  "\u2581Ade": 5132,
  "ast": 5133,
  "\u2581adev\u0103r": 5134,
  "dou": 5135,
  "ce\u021bi": 5136,
  "\u2581Cer": 5137,
  "\u2581b\u0103": 5138,
  "rb": 5139,
  "dica": 5140,
  "\u2581a\u0219": 5141,
  "terioar\u0103": 5142,
  "ente": 5143,
  "\u2581Ioa": 5144,
  "ia\u0163a": 5145,
  "aliza": 5146,
  "La": 5147,
  "miliar": 5148,
  "\u2581Ge": 5149,
  "stem": 5150,
  "rimi": 5151,
  "uit": 5152,
  "rabi": 5153,
  "lecta": 5154,
  "m\u0103r": 5155,
  "tribu": 5156,
  "\u2581dom": 5157,
  "\u2581in": 5158,
  "\u2581prob": 5159,
  "\u2581condu": 5160,
  "\u25814:": 5161,
  "\u0103rile": 5162,
  "\u2581anim": 5163,
  "\u2581respecta": 5164,
  "\u2581petrecer": 5165,
  "lice": 5166,
  "icul": 5167,
  "fo": 5168,
  "cele": 5169,
  "i\u015fte": 5170,
  "\u021a": 5171,
  "\u015e": 5172,
  "\u0218": 5173,
  "\u0163": 5174
}