{
  "<pad>": 0,
  "<unk>": 1,
  "<s>": 2,
  "</s>": 3,
  ",": 4,
  ".": 5,
  "\u2581le": 6,
  "\u2581ai": 7,
  "\u2581te": 8,
  "\u2581kai": 9,
  "\u2581o": 10,
  "\u2581O": 11,
  "\u2581": 12,
  "\u2581si": 13,
  "\u2581ande": 14,
  "\u2581chi": 15,
  "\u2581ke": 16,
  "\u2581\"": 17,
  "\u2581e": 18,
  "\u2581sas": 19,
  "\u2581so": 20,
  "\u2581Del": 21,
  "\u2581sar": 22,
  "\u2581les": 23,
  "\u2581ka": 24,
  "\u2581Jesus": 25,
  "\u2581Ai": 26,
  "?": 27,
  "\u2581ando": 28,
  "a": 29,
  "\u2581pe": 30,
  ";": 31,
  "\u2581mai": 32,
  "\u2581tume": 33,
  "\u2581manush": 34,
  "\u2581iek": 35,
  "e": 36,
  "\u2581anda": 37,
  ".\"": 38,
  "\u2581phendia": 39,
  "\u2581na": 40,
  "o": 41,
  "\u2581leske": 42,
  "i": 43,
  "\u2581sa": 44,
  "\u2581numa": 45,
  "\u2581lenge": 46,
  "\u2581kana": 47,
  "\u2581avel": 48,
  "n": 49,
  "\u2581Numa": 50,
  "\u2581pala": 51,
  "\u2581la": 52,
  "\u2581leste": 53,
  "tar": 54,
  "as": 55,
  "\u2581tu": 56,
  "\u2581wo": 57,
  "\u2581but": 58,
  "\u2581ma": 59,
  "\u2581ame": 60,
  "\u2581avela": 61,
  "\u2581tumenge": 62,
  "\u2581pa": 63,
  "\u2581Ke": 64,
  "!": 65,
  "\u2581kodo": 66,
  "\u2581kodia": 67,
  "\u2581keren": 68,
  "\u2581vi": 69,
  "\u2581Kristo": 70,
  "\u2581nai": 71,
  "\u2581kerel": 72,
  "s": 73,
  "\u2581Wo": 74,
  ":": 75,
  "\u2581duma": 76,
  "\u2581kadia": 77,
  "\u2581Kana": 78,
  "ek": 79,
  "\u2581Devlesko": 80,
  "\u2581trobul": 81,
  "\u2581kodola": 82,
  "\u2581lesko": 83,
  "\u2581won": 84,
  "\u2581po": 85,
  "\u2581Devleski": 86,
  "\u2581peske": 87,
  "\u2581tumende": 88,
  "\u2581aven": 89,
  "\u2581baro": 90,
  "\u2581E": 91,
  "\u2581san": 92,
  "\u2581del": 93,
  "\u2581(": 94,
  "\u2581dieli": 95,
  "?\"": 96,
  "\u2581a": 97,
  "\u2581dies": 98,
  "\u2581sai": 99,
  "\u2581godi": 100,
  "\u2581zakono": 101,
  "\u2581angla": 102,
  "\u2581me": 103,
  "\u2581Devleske": 104,
  "\u2581Le": 105,
  "\u2581buchi": 106,
  "\u2581pes": 107,
  "l": 108,
  "\u2581lende": 109,
  "\u2581dia": 110,
  "\u2581than": 111,
  "m": 112,
  "\u2581narodo": 113,
  "\u2581phuv": 114,
  "k": 115,
  "\u2581murho": 116,
  "\u2581Te": 117,
  "\u2581de": 118,
  "\u2581vorta": 119,
  "\u2581traio": 120,
  "\u2581pachamos": 121,
  "\u2581So": 122,
  "\u2581mashkar": 123,
  "\u2581Sar": 124,
  "\u2581pal": 125,
  "\u2581mande": 126,
  "\u2581anglal": 127,
  "pe": 128,
  "\u2581swako": 129,
  "\u2581phende": 130,
  "\u2581andai": 131,
  "\u2581akana": 132,
  "\u2581bi": 133,
  "\u2581mange": 134,
  "\u2581kerdia": 135,
  "\u2581vari": 136,
  "\u2581phral": 137,
  "\u2581tuke": 138,
  "\u2581andal": 139,
  "\u2581drago": 140,
  "\u2581k": 141,
  "vai": 142,
  "\u2581avri": 143,
  "\u2581vriama": 144,
  "\u2581kon": 145,
  "\u2581sim": 146,
  "\u2581len": 147,
  "\u2581avilo": 148,
  "\u2581Swunto": 149,
  "\u2581ferdi": 150,
  ")": 151,
  "\u2581rhaio": 152,
  "\u2581Zhiduvuria": 153,
  "\u2581zhanen": 154,
  "\u2581kher": 155,
  "\u2581kaj": 156,
  "\u2581stato": 157,
  "\u2581andre": 158,
  "ai": 159,
  "atar": 160,
  "\u2581phenel": 161,
  "\u2581amaro": 162,
  "\u2581aver": 163,
  "\u2581the": 164,
  "\u2581dui": 165,
  "\u2581saxke": 166,
  "\u2581kadala": 167,
  "\u2581mui": 168,
  "\u2581lumia": 169,
  "\u2581mishto": 170,
  "\u2581Duxo": 171,
  "\u2581Devles": 172,
  "\u2581mothol": 173,
  "\u2581Antunchi": 174,
  "r": 175,
  "\u2581Vorba": 176,
  "\u2581vas": 177,
  "\u2581Shav": 178,
  "\u2581putiera": 179,
  "\u2581kado": 180,
  "\u2581den": 181,
  "\u2581disipluria": 182,
  "\u2581Dat": 183,
  "\u2581anav": 184,
  "\u2581murh": 185,
  "\u2581tumaro": 186,
  "\u2581phenav": 187,
  "\u2581zhi": 188,
  "\u2581tumare": 189,
  "\u0161aj": 190,
  "!\"": 191,
  "\u2581shav": 192,
  "\u2581bare": 193,
  "\u2581kotse": 194,
  "\u2581kris": 195,
  "\u2581amare": 196,
  "\u2581amenge": 197,
  "\u2581Me": 198,
  "\u2581pre": 199,
  "\u2581ada": 200,
  "\u2581Jehovas": 201,
  "\u2581pai": 202,
  "ing": 203,
  "\u2581hin": 204,
  "\u2581foro": 205,
  "\u2581amende": 206,
  "\u2581tumen": 207,
  "\u2581cho": 208,
  "\u2581vorbi": 209,
  "\u2581Pavlo": 210,
  "\u2581dine": 211,
  "\u2581palpale": 212,
  "\u2581mishtimos": 213,
  "\u2581data": 214,
  "\u2581lestar": 215,
  "j": 216,
  "\u2581kar": 217,
  "sa": 218,
  "\u2581phendias": 219,
  "\u2581kal": 220,
  "\u2581pesk": 221,
  "\u2581tele": 222,
  "\u2581lashi": 223,
  "\u2581che": 224,
  "\u2581h": 225,
  "\u2581lashimos": 226,
  "\u2581gelo": 227,
  "\u2581bezexa": 228,
  "\u2581Na": 229,
  "\u2581avile": 230,
  "\u2581chachimos": 231,
  "\u2581sama": 232,
  "\u2581avena": 233,
  "oj": 234,
  "\u2581Petri": 235,
  "\u2581nas": 236,
  "\u2581savorhe": 237,
  "\u2581Tume": 238,
  "\u2581kata": 239,
  "\u2581kerde": 240,
  "O": 241,
  "av": 242,
  "de": 243,
  "\u2581viasta": 244,
  "\u2581drom": 245,
  "\u2581mangel": 246,
  "\u2581Jerusalem": 247,
  "\u2581zor": 248,
  "\u2581tute": 249,
  "\u2581sam": 250,
  "\u2581uni": 251,
  "pesko": 252,
  "\u2581shave": 253,
  "\u2581dikhen": 254,
  "\u2581nashti": 255,
  "\u2581tut": 256,
  "\u2581kerav": 257,
  "\u2581Kodo": 258,
  "\u2581bezex": 259,
  "\u2581and": 260,
  "\u2581phenen": 261,
  "\u2581pasha": 262,
  "\u2581amen": 263,
  "\u2581Biblija": 264,
  "\u2581dikhlia": 265,
  "\u2581zurales": 266,
  "\u2581desh": 267,
  "\u2581ho": 268,
  "\u2581mothon": 269,
  "\u2581ilo": 270,
  "\u2581goji": 271,
  "\u2581manushenge": 272,
  "\u2581'": 273,
  "\u2581lasho": 274,
  "\u2581manushen": 275,
  "\u2581kodolen": 276,
  "ro": 277,
  "\u2581zhan": 278,
  "\u2581Porme": 279,
  "\u2581zhanas": 280,
  "\u2581dragostia": 281,
  "\u2581Chi": 282,
  "\u2581bax": 283,
  "\u2581penge": 284,
  "\u2581Je\u017ei\u0161": 285,
  "\u2581lesa": 286,
  "\u2581mule": 287,
  "\u2581lo": 288,
  "\u2581lia": 289,
  "\u2581diela": 290,
  "\u2581tradia": 291,
  "\u2581dat": 292,
  "\u2581kolaver": 293,
  "\u2581chacho": 294,
  "\u2581Iovano": 295,
  "\u2581Anda": 296,
  "\u2581pel": 297,
  "\u2581opre": 298,
  "\u2581beng": 299,
  "\u2581bari": 300,
  "\u2581Ko": 301,
  "\u2581amperetsia": 302,
  "\u2581dino": 303,
  "es": 304,
  "\u2581zhal": 305,
  "\u2581ashunde": 306,
  "\u2581busholas": 307,
  "\u2581\u201e": 308,
  "\u2581mangen": 309,
  "\u2581dela": 310,
  "\u2581mangav": 311,
  "la": 312,
  "\u2581sluga": 313,
  "\u2581Nai": 314,
  "\u2581antunchi": 315,
  "\u2581angelo": 316,
  "\u2581martia": 317,
  "\u2581khonik": 318,
  "\u2581xantsi": 319,
  "\u2581rat": 320,
  "\u2581man": 321,
  "\u2581nasulimos": 322,
  "\u2581sikavel": 323,
  "\u2581u": 324,
  "\u2581thodia": 325,
  "\u2581A": 326,
  "\u2581love": 327,
  "en": 328,
  "\u2581Sa": 329,
  "\u2581manu\u0161a": 330,
  "\u2581porme": 331,
  "\u2581tumensa": 332,
  "\u2581dikhle": 333,
  "\u2581gele": 334,
  "\u2581zhanel": 335,
  "ar": 336,
  "\u2581line": 337,
  "\u2581nasul": 338,
  "\u2581ramome": 339,
  "\u2581kerdiol": 340,
  "\u2581pro": 341,
  "\u2581khangeri": 342,
  "v": 343,
  "\u2581zhuvli": 344,
  "ha": 345,
  "\u2581them": 346,
  "\u2581lel": 347,
  "\u2581fielo": 348,
  "\u2581Ame": 349,
  "\u2581inker": 350,
  "el": 351,
  "\u2581strazo": 352,
  "\u2581lensa": 353,
  "\u2581peste": 354,
  "le": 355,
  "\u2581ko": 356,
  "\u2581keras": 357,
  "\u2581vorba": 358,
  "\u2581K": 359,
  "\u2581semno": 360,
  "\u2581manglia": 361,
  "\u2581sagda": 362,
  "\u2581beshel": 363,
  "\u2581beshen": 364,
  "\u2581shtar": 365,
  "\u2581phenelas": 366,
  "\u2581lake": 367,
  "\u2581lashe": 368,
  "\u2581andr": 369,
  "\u2581shoxar": 370,
  "\u2581kanchi": 371,
  "\u2581punrhe": 372,
  "\u2581pacha": 373,
  "\u2581glaso": 374,
  "\u2581tampla": 375,
  "\u2581tsalia": 376,
  "\u2581tumendar": 377,
  "\u2581dikhel": 378,
  "\u2581Murh": 379,
  "ko": 380,
  "\u2581Kristosko": 381,
  "\u2581zhanav": 382,
  "\u2581vediara": 383,
  "\u2581kodoleng": 384,
  "\u2581phenenas": 385,
  "\u2581gor": 386,
  "\u2581pervo": 387,
  "\"": 388,
  "\u2581pachanpe": 389,
  "\u2581iakha": 390,
  "\u2581mudaren": 391,
  "leski": 392,
  "\u2581mulo": 393,
  "\u2581ashunen": 394,
  "\u2581kodole": 395,
  "\u2581efta": 396,
  "\u2581kamel": 397,
  "\u2581Pala": 398,
  "\u2581amperato": 399,
  "\u2581phendem": 400,
  "Te": 401,
  "\u2581trin": 402,
  "\u2581oda": 403,
  "\u2581keres": 404,
  "\u2581barimos": 405,
  "\u2581rasha": 406,
  "\u2581gazda": 407,
  "sko": 408,
  "na": 409,
  "\u2581murhi": 410,
  "\u2581akhardia": 411,
  "Gazda": 412,
  "\u2581ginduria": 413,
  "\u2581Manushesko": 414,
  "\u2581divano": 415,
  "\u2581pachan": 416,
  "sas": 417,
  "\u2581iag": 418,
  "\u2581Farizeanuria": 419,
  "\u2581mothav": 420,
  "\u2581traiin": 421,
  "\u2581late": 422,
  "\u2581dias": 423,
  "\u2581maria": 424,
  "\u2581cheri": 425,
  "\u2581sikaven": 426,
  "\u2581xan": 427,
  "So": 428,
  "Me": 429,
  "\u2581thon": 430,
  "\u2581thode": 431,
  "\u2581d\u017eivipen": 432,
  "\u2581manrho": 433,
  "\u2581beshlo": 434,
  "\u2581slugi": 435,
  "\u2581vitsa": 436,
  "\u2581trushul": 437,
  "\u2581soste": 438,
  "\u2581kerela": 439,
  "\u2581gelotar": 440,
  "\u2581dur": 441,
  "ke": 442,
  "\u2581bushol": 443,
  "\u2581furt": 444,
  "\u2581D": 445,
  "\u2581Zhidovongo": 446,
  "\u2581pale": 447,
  "\u2581Akana": 448,
  "\u2581Sas": 449,
  "\u2581mek": 450,
  "\u2581bersh": 451,
  "\u2581roden": 452,
  "\u2581va": 453,
  "\u2581trobulas": 454,
  "\u2581avka": 455,
  "\u2581katse": 456,
  "\u2581mansa": 457,
  "\u2581angle": 458,
  "\u2581lendar": 459,
  "\u2581savo": 460,
  "\u2581Galilee": 461,
  "\u2581Baro": 462,
  "\u2581temnitsa": 463,
  "\u2581ieke": 464,
  "\u2581kerdilia": 465,
  "\u2581avili": 466,
  "\u2581haliaren": 467,
  "\u2581dav": 468,
  "\u2581delas": 469,
  "\u2581meklia": 470,
  "\u2581phen\u010fa": 471,
  "ia": 472,
  "\u2581ela": 473,
  "ski": 474,
  "\u2581dei": 475,
  "Na": 476,
  "\u2581Ande": 477,
  "\u2581Ka": 478,
  "\u2581chorhe": 479,
  "\u2581luvudimos": 480,
  "\u2581Si": 481,
  "\u2581merel": 482,
  "\u2581aves": 483,
  "\u2581manushes": 484,
  "\u2581Abraham": 485,
  "\u2581shero": 486,
  "\u2581sanas": 487,
  "\u2581kat": 488,
  "\u2581But": 489,
  "\u2581narodos": 490,
  "E": 491,
  "te": 492,
  "\u2581profeto": 493,
  "\u2581s": 494,
  "\u2581Moses": 495,
  "\u2581kuchi": 496,
  "\u2581mol": 497,
  "nas": 498,
  "\u2581ashundia": 499,
  "\u2581mi": 500,
  "\u2581Maria": 501,
  "\u2581Ma": 502,
  "Chi": 503,
  "\u2581S": 504,
  "nge": 505,
  "\u2581mila": 506,
  "\u2581profeturia": 507,
  "\u2581skepime": 508,
  "\u2581podarka": 509,
  "\u2581vuzho": 510,
  "\u2581pherdo": 511,
  "\u2581ilesa": 512,
  "\u2581shinadia": 513,
  "\u2581mothonas": 514,
  "Tu": 515,
  "\u2581traiil": 516,
  "\u2581t": 517,
  "\u2581anklisto": 518,
  "\u2581mandar": 519,
  ",\"": 520,
  "dia": 521,
  "\u2581jekh": 522,
  "on": 523,
  "\u2581ketani": 524,
  "\u2581hino": 525,
  "\u2581tuniariko": 526,
  "\u2581avav": 527,
  "\u2581Kadia": 528,
  ".\u201c": 529,
  "\u2581ale": 530,
  "\u2581el": 531,
  "\u2581No": 532,
  "\u2581duxo": 533,
  "mos": 534,
  "\u2581atweto": 535,
  "\u2581dikhlem": 536,
  "\u2581\u010da": 537,
  "\u2581sigo": 538,
  "\u2581rhomni": 539,
  "\u2581getolpe": 540,
  "\u2581avas": 541,
  "\u2581denas": 542,
  "\u2581chiden": 543,
  "re": 544,
  "\u2581zhuvlia": 545,
  "\u2581raduimos": 546,
  "\u2581kaver": 547,
  "uria": 548,
  "\u2581chaches": 549,
  "Le": 550,
  "\u2581Pilate": 551,
  "\u2581Uni": 552,
  "\u2581lumiake": 553,
  "\u2581P": 554,
  "\u2581skepil": 555,
  "\u2581zhav": 556,
  "\u2581simas": 557,
  "imar": 558,
  "ngo": 559,
  "\u2581angeluria": 560,
  "\u2581kotsar": 561,
  "\u2581vunzhe": 562,
  "\u2581nevo": 563,
  "\u2581la\u010dho": 564,
  "\u2581mangas": 565,
  "\u2581kerelas": 566,
  "\u2581v": 567,
  "\u2581xal": 568,
  "\u2581meken": 569,
  "\u2581chache": 570,
  "\u2581trito": 571,
  "\u2581korkorho": 572,
  "\u2581Gramnoturia": 573,
  "\u2581chachimasa": 574,
  "\u2581voia": 575,
  "\u2581opral": 576,
  "\u2581Devleskero": 577,
  "\u2581Iek": 578,
  "\u2581thol": 579,
  "\u2581Kristosa": 580,
  "Soske": 581,
  "\u2581p": 582,
  "Ke": 583,
  "\u2581Simon": 584,
  "\u2581Phen": 585,
  "\u2581fruta": 586,
  "\u2581anel": 587,
  "\u2581dikhas": 588,
  "\u2581barval": 589,
  "\u2581riat": 590,
  "\u2581phenes": 591,
  "\u2581zhas": 592,
  "\u2581Tu": 593,
  "\u2581skafidi": 594,
  "\u2581savoro": 595,
  "\u2581pengo": 596,
  "al": 597,
  "Ko": 598,
  "\u2581Andre": 599,
  "\u2581\u0148ebos": 600,
  "\u2581bo": 601,
  "\u2581kamen": 602,
  "\u2581beshelas": 603,
  "to": 604,
  "\u2581rashai": 605,
  "\u2581motholas": 606,
  "ri": 607,
  "\u2581savore": 608,
  "\u2581sostar": 609,
  "\u2581phushlia": 610,
  "\u2581ashunel": 611,
  "Sostar": 612,
  "\u2581mangenas": 613,
  "\u2581daran": 614,
  "\u2581des": 615,
  "\u2581kanch": 616,
  "u": 617,
  "\u2581raduime": 618,
  "\u2581mirakluria": 619,
  "\u2581mudarde": 620,
  "\u2581phushle": 621,
  "\u2581Jehovaske": 622,
  "\u2581paraxodo": 623,
  "\u2581palal": 624,
  "\u2581kodoles": 625,
  "Devla": 626,
  "\u2581Sostar": 627,
  "\u2581\u010da\u010dipen": 628,
  "\u2581glata": 629,
  "abo": 630,
  "\u2581V": 631,
  "\u2581chaso": 632,
  "ka": 633,
  "\u2581narodoske": 634,
  "\u2581geletar": 635,
  "\u2581ta": 636,
  "do": 637,
  "lo": 638,
  "\u2581phen": 639,
  "\u2581adies": 640,
  "\u2581pesker": 641,
  "Tume": 642,
  "\u2581Judea": 643,
  "\u2581sumnakai": 644,
  "\u2581pusta": 645,
  "\u2581kavreske": 646,
  "\u2581da": 647,
  "\u2581rhom": 648,
  "\u2581arakhle": 649,
  "\u2581phure": 650,
  "\u2581sikadia": 651,
  "\u2581lako": 652,
  "\u2581arakhen": 653,
  "\u2581hine": 654,
  "b": 655,
  "\u2581Herod": 656,
  "\u2581paramichi": 657,
  "\u2581swunto": 658,
  "\u2581Devlesa": 659,
  "an": 660,
  "\u2581Jehovasker": 661,
  "\u2581pende": 662,
  "\u2581M": 663,
  "\u2581zhigeni": 664,
  "\u2581glate": 665,
  "\u2581dikhena": 666,
  "\u2581David": 667,
  "\u2581kra\u013ei\u0161agos": 668,
  "\u2581sakadia": 669,
  "\u2581tutar": 670,
  "\u2581rado": 671,
  "\u2581zhanes": 672,
  "\u2581manu\u0161en": 673,
  "\u2581Amen": 674,
  "\u2581rodel": 675,
  "\u2581ile": 676,
  "\u2581s\u00ee": 677,
  "\u2581mekel": 678,
  "Murh": 679,
  "\u2581dosta": 680,
  "\u2581chachi": 681,
  "ske": 682,
  "\u2581gata": 683,
  "\u2581kerdian": 684,
  "\u2581dikhav": 685,
  "igen": 686,
  "\u2581lil": 687,
  "\u2581alosardia": 688,
  "\u2581zakonuria": 689,
  "\u2581klishka": 690,
  "\u2581kerdilo": 691,
  "ki": 692,
  "\u2581kaste": 693,
  "\u2581zhungal": 694,
  "\u2581lesk": 695,
  "\u0161": 696,
  "\u2581avava": 697,
  "\u2581gindo": 698,
  "\u2581jiv": 699,
  "\u2581mangle": 700,
  ".'": 701,
  "\u2581tumari": 702,
  "\u2581aresle": 703,
  "\u2581zhutil": 704,
  "\u2581nane": 705,
  "\u2581phendo": 706,
  "\u2581Dikhen": 707,
  "\u2581das": 708,
  "\u2581kerdem": 709,
  "\u2581mangelas": 710,
  "\u2581manushesko": 711,
  "osko": 712,
  "\u2581shel": 713,
  "\u2581dian": 714,
  "\u2581dava": 715,
  "\u2581xoli": 716,
  "\u2581ker": 717,
  "\u2581lazhav": 718,
  "\u2581avilino": 719,
  "\u2581pachalpe": 720,
  "\u2581De": 721,
  "\u2581dades": 722,
  "\u2581pachas": 723,
  "\u201c": 724,
  "\u2581sicharel": 725,
  "\u2581Pe": 726,
  "\u2581kerenas": 727,
  "\u2581lav": 728,
  "\u2581biblick": 729,
  "\u2581partia": 730,
  "\u2581baio": 731,
  "\u2581wushtilo": 732,
  "\u2581synagogue": 733,
  "\u2581ordina": 734,
  "\u2581Savorhe": 735,
  "\u2581manges": 736,
  "\u2581buter": 737,
  "\u2581Vi": 738,
  "\u2581zhutin": 739,
  "\u2581vuzhe": 740,
  "\u2581gindin": 741,
  "\u2581Kristoske": 742,
  "\u2581rom": 743,
  "\u2581khere": 744,
  "\u2581Satan": 745,
  "\u2581nekazo": 746,
  "\u2581chuno": 747,
  "\u2581gojaver": 748,
  "\u0161\u0165i": 749,
  "\u2581mothas": 750,
  "\u2581kashte": 751,
  "\u2581dosh": 752,
  "\u2581mursh": 753,
  "\u2581meriben": 754,
  "\u2581podarki": 755,
  "\u2581rik": 756,
  "\u2581chor": 757,
  "las": 758,
  "\u2581khan": 759,
  "\u2581andia": 760,
  "\u2581kotora": 761,
  "\u2581zhanelas": 762,
  "imos": 763,
  "\u2581zhanenas": 764,
  "\u2581luvudin": 765,
  "\u2581shei": 766,
  "\u2581maren": 767,
  "\u2581wudar": 768,
  "no": 769,
  "\u2581mekle": 770,
  "me": 771,
  "\u2581zha": 772,
  "\u2581chudisaile": 773,
  "\u2581greposhevo": 774,
  "\u2581phangle": 775,
  "\u2581vortacha": 776,
  "\u2581veci": 777,
  "\u2581Zhidovonge": 778,
  "\u2581manu\u0161": 779,
  "\u2581Kristoski": 780,
  "\u2581miazol": 781,
  "\u2581rhugin": 782,
  "\u2581Barnabas": 783,
  "\u2581Katar": 784,
  "\u2581kotor": 785,
  "\u2581shukar": 786,
  "\u2581thema": 787,
  "\u2581Dikh": 788,
  "lengo": 789,
  "\u2581tir": 790,
  "\u2581khangeria": 791,
  "\u2581Ashun": 792,
  "\u2581Iakov": 793,
  "\u2581Kodol": 794,
  "\u2581khash": 795,
  "\u2581altari": 796,
  "\u2581barvalimos": 797,
  "\u2581areslo": 798,
  "\u2581rhaioski": 799,
  "\u2581amari": 800,
  "\u2581sicharelas": 801,
  "\u2581arakhlia": 802,
  "\u2581Judas": 803,
  "\u2581N": 804,
  "\u2581svetos": 805,
  "\u2581tamplo": 806,
  "\u2581kampel": 807,
  "\u2581vareso": 808,
  "\u2581menos": 809,
  "\u2581disiplonge": 810,
  "\u2581duito": 811,
  "\u2581an": 812,
  "\u2581savorhenge": 813,
  "\u2581ashundian": 814,
  "\u2581amensa": 815,
  "\u2581manusheske": 816,
  "\u2581kadale": 817,
  "\u2581I": 818,
  "\u2581phendiasas": 819,
  "'": 820,
  "\u2581kerdion": 821,
  "\u2581phenas": 822,
  "\u2581skepimos": 823,
  "\u2581butivar": 824,
  "\u2581chorho": 825,
  "\u2581avilem": 826,
  "\u2581a\u0148i": 827,
  "\u2581zhantar": 828,
  "\u2581leng": 829,
  "\u2581pele": 830,
  "\u2581dada": 831,
  "\u2581Di": 832,
  "\u2581plai": 833,
  "\u2581poronchil": 834,
  "\u2581save": 835,
  "\u2581zhuvindil": 836,
  "\u2581lias": 837,
  "\u2581Israel": 838,
  "\u2581vortako": 839,
  "\u2581manrhe": 840,
  "\u2581apostluria": 841,
  "\u2581zhene": 842,
  "\u2581taksa": 843,
  "\u2581Strazo": 844,
  "Sar": 845,
  "Ka": 846,
  "\u2581kerena": 847,
  "\u2581Eta": 848,
  "\u2581tusa": 849,
  "\u2581shude": 850,
  "vardesh": 851,
  "\u2581Kadal": 852,
  "\u2581terharin": 853,
  "\u2581defial": 854,
  "\u2581punrhende": 855,
  "\u2581zhigania": 856,
  "\u2581garado": 857,
  "\u2581amendar": 858,
  "\u2581familia": 859,
  "\u2581dar": 860,
  "\u2581shiba": 861,
  "\u2581barvalo": 862,
  ").": 863,
  "enge": 864,
  "endar": 865,
  "\u2581pesa": 866,
  "\u2581sako": 867,
  "\u2581zurale": 868,
  "\u2581anen": 869,
  "\u2581bariol": 870,
  "\u2581samas": 871,
  "\u2581rig": 872,
  "\u2581Devla": 873,
  "\u010fa": 874,
  "\u2581Raduim": 875,
  "\u2581rhavda": 876,
  "ne": 877,
  "\u2581kapitola": 878,
  "\u2581ramomos": 879,
  "\u2581marka": 880,
  "\u2581sumuntsa": 881,
  "\u2581zuralo": 882,
  "\u2581khanchi": 883,
  "\u2581shudel": 884,
  "\u2581akharen": 885,
  "\u2581lino": 886,
  "\u2581bezexale": 887,
  "\u2581garavel": 888,
  "\u2581Nichi": 889,
  "\u2581tela": 890,
  "\u2581arakhel": 891,
  "\u2581khera": 892,
  "esko": 893,
  "\u2581Jesusos": 894,
  "\u2581rom\u0148i": 895,
  "\u2581foruria": 896,
  "\u2581ramov": 897,
  "\u2581pachaiepe": 898,
  "\u2581mus": 899,
  "lenge": 900,
  "\u2581marde": 901,
  "\u2581zhalas": 902,
  "\u2581vazdia": 903,
  "\u2581chino": 904,
  "\u2581Ale": 905,
  "\u2581bucha": 906,
  "\u2581kerdias": 907,
  "\u2581Pavlos": 908,
  "\u2581sicharen": 909,
  "\u2581ingerel": 910,
  "\u2581iertime": 911,
  "\u2581panzh": 912,
  "\u2581znachil": 913,
  "\u2581bu\u0165i": 914,
  "\u2581slobodo": 915,
  "\u2581jilo": 916,
  "\u2581luvudime": 917,
  "\u2581nala\u010dho": 918,
  "\u2581va\u0161": 919,
  "\u2581nashtil": 920,
  "\u2581Swako": 921,
  "\u2581Swunton": 922,
  "\u2581dini": 923,
  "\u2581zhaltar": 924,
  "\u2581Saul": 925,
  "\u2581Khonik": 926,
  "di": 927,
  "\u2581d\u017eivel": 928,
  "\u2581gav": 929,
  "\u2581T": 930,
  "eske": 931,
  "\u2581trade": 932,
  "\u2581kham": 933,
  "\u2581l": 934,
  "-": 935,
  "\u2581haliarel": 936,
  "\u2581ov": 937,
  "ta": 938,
  "us": 939,
  "\u2581rimon": 940,
  "\u2581dikhes": 941,
  "\u2581kerava": 942,
  "\u2581strefial": 943,
  "\u2581xaben": 944,
  "\u2581barimata": 945,
  "\u2581rigate": 946,
  "\u2581intaino": 947,
  "\u2581shinado": 948,
  "\u2581mothos": 949,
  "\u2581mudarel": 950,
  "\u2581premisarde": 951,
  "\u2581perel": 952,
  "\u2581phuterdia": 953,
  "Kodo": 954,
  "\u2581kerdo": 955,
  "\u2581putierasa": 956,
  "dem": 957,
  "kal": 958,
  "\u2581eta": 959,
  "\u2581Savo": 960,
  "\u2581bengen": 961,
  "\u2581phenela": 962,
  "\u2581avelas": 963,
  "\u2581dem": 964,
  "\u2581shib": 965,
  "\u2581xale": 966,
  "\u2581niril": 967,
  "\u2581Zhidovo": 968,
  "\u2581do": 969,
  "\u2581Nazareth": 970,
  "\u2581Egypt": 971,
  "\u2581sicharimos": 972,
  "\u2581zhuvindisailo": 973,
  "\u2581svedki": 974,
  "\u2581akor": 975,
  "\u2581sastimos": 976,
  "\u2581pachanaspe": 977,
  "\u2581\u0148i\u010d": 978,
  "\u2581thodino": 979,
  "\u2581terno": 980,
  "\u2581Kristos": 981,
  "\u2581vov": 982,
  "\u2581phuro": 983,
  "\u2581marenas": 984,
  "\u2581akhardo": 985,
  "\u2581kames": 986,
  "\u2581rhomnia": 987,
  "\u2581Gazda": 988,
  "\u2581Trobul": 989,
  "ma": 990,
  "\u2581shordia": 991,
  "Nai": 992,
  "os": 993,
  "leske": 994,
  "\u2581avilian": 995,
  "\u2581av": 996,
  "\u2581phiren": 997,
  "\u2581disiplo": 998,
  "\u2581pomo\u017einel": 999,
  "Si": 1000,
  "\u2581shuden": 1001,
  "\u2581mi\u0161te": 1002,
  "\u2581\u0161ukar": 1003,
  "\u2581saikfielo": 1004,
  "\u2581rajos": 1005,
  "\u2581duzhmaia": 1006,
  "\u2581laska": 1007,
  "\u2581marturia": 1008,
  "\u2581tsipinas": 1009,
  "\u2581ker\u010fa": 1010,
  "\u2581malades": 1011,
  "\u2581ankliste": 1012,
  "\u2581Amperato": 1013,
  "\u2581Andro": 1014,
  "\u2581akharel": 1015,
  "alm": 1016,
  "\u2581phralen": 1017,
  "\u2581i": 1018,
  "ala": 1019,
  "\u2581Jesusosko": 1020,
  "\u2581manushensa": 1021,
  "\u2581cal": 1022,
  "\u2581kerdiam": 1023,
  "\u2581bolde": 1024,
  "\u2581tsinorhe": 1025,
  "\u2581rez": 1026,
  "\u2581dikhlian": 1027,
  "aj": 1028,
  "\u2581avres": 1029,
  "\u2581sap": 1030,
  "\u2581Kad": 1031,
  "Ai": 1032,
  "liam": 1033,
  "Zhan": 1034,
  "andine": 1035,
  "\u2581pruing": 1036,
  "\u2581k\u0148i\u017eka": 1037,
  "\u2581\u010dasos": 1038,
  "\u2581phanglo": 1039,
  "\u2581doshalo": 1040,
  "\u2581Leske": 1041,
  "\u2581ivia": 1042,
  "\u2581sastiardia": 1043,
  "\u2581Aven": 1044,
  "\u2581Hin": 1045,
  "\u2581ikoni": 1046,
  "\u2581kurvia": 1047,
  "\u2581Dades": 1048,
  "\u2581avrial": 1049,
  "\u2581dikhliam": 1050,
  "\u2581c": 1051,
  "\u2581beshenas": 1052,
  "\u2581Ada": 1053,
  "\u2581Keren": 1054,
  "andel": 1055,
  "\u2581traiisaras": 1056,
  "ra": 1057,
  "\u2581tsinorho": 1058,
  "\u2581mashe": 1059,
  "\u2581avre": 1060,
  "K": 1061,
  "\u2581garade": 1062,
  "uglo": 1063,
  "\u2581barvale": 1064,
  "\u2581poronchin": 1065,
  "\u2581phushen": 1066,
  "\u2581d": 1067,
  "\u2581di\u0148a": 1068,
  "\u2581xabe": 1069,
  "\u2581zhuvindin": 1070,
  "\u2581Macedonia": 1071,
  "\u2581zhutimos": 1072,
  "ol": 1073,
  "\u2581kanikaske": 1074,
  "da": 1075,
  "\u2581sikavas": 1076,
  "\u2581Zhan": 1077,
  "\u2581phrales": 1078,
  "\u2581akharde": 1079,
  ".'\"": 1080,
  "\u2581tradav": 1081,
  "\u2581geli": 1082,
  "\u2581nala\u010dhe": 1083,
  "\u2581nevi": 1084,
  "ensa": 1085,
  "\u2581Adam": 1086,
  "\u2581bal": 1087,
  "\u2581trad": 1088,
  "\u2581sikavela": 1089,
  "oske": 1090,
  "\u2581kr": 1091,
  "ena": 1092,
  "\u00e5": 1093,
  "\u2581vizion": 1094,
  "\u2581phirel": 1095,
  "\u2581dichol": 1096,
  "\u2581phenena": 1097,
  "\u2581pochin": 1098,
  "\u2581avesa": 1099,
  "\u2581daraile": 1100,
  "\u2581nashtin": 1101,
  "\u2581d\u017eanel": 1102,
  "\u2581Antioch": 1103,
  "\u2581poxtan": 1104,
  "\u2581tsipisardia": 1105,
  "\u2581naswalo": 1106,
  "\u2581ajso": 1107,
  "\u2581Mosesosko": 1108,
  "\u2581fame\u013eija": 1109,
  "\u2581bini": 1110,
  "\u2581peren": 1111,
  "\u2581garaven": 1112,
  "\u2581fialo": 1113,
  "\u2581sikaves": 1114,
  "\u2581a\u010dhi\u013ea": 1115,
  "\u2581lumiako": 1116,
  "npe": 1117,
  "\u2581korho": 1118,
  "\u258114": 1119,
  "\u2581kamas": 1120,
  "\u2581rodenas": 1121,
  "\u2581slu\u017einel": 1122,
  "\u2581thodias": 1123,
  "\u2581\u010dhave": 1124,
  "\u2581mekav": 1125,
  "Aven": 1126,
  "Wo": 1127,
  "\u2581ca\u013e": 1128,
  "\u2581vazdel": 1129,
  "\u2581Shaves": 1130,
  "\u2581xasarela": 1131,
  "\u2581sal": 1132,
  "\u2581pon": 1133,
  "\u2581Josef": 1134,
  "\u2581ber\u0161": 1135,
  "\u2581Nas": 1136,
  "\u2581ode": 1137,
  "nsa": 1138,
  "),": 1139,
  "\u2581Kots": 1140,
  "\u2581Timote": 1141,
  "\u2581armaia": 1142,
  "\u2581go\u010fi": 1143,
  "\u2581inchal": 1144,
  "\u2581pa\u013eis": 1145,
  "\u2581kolavrenge": 1146,
  "\u2581sumuntsi": 1147,
  "\u2581duxi": 1148,
  "\u2581shov": 1149,
  "\u2581sikadilo": 1150,
  "\u2581thana": 1151,
  "\u2581disiplonsa": 1152,
  "\u2581S\u00ee": 1153,
  "\u2581luvudiv": 1154,
  "\u2581Sakadia": 1155,
  "\u2581rhuginpe": 1156,
  "\u2581angerde": 1157,
  "\u2581kontrakto": 1158,
  "\u2581lasa": 1159,
  "\u2581shudia": 1160,
  "\u2581dosharen": 1161,
  "\u2581gava": 1162,
  "\u2581chinuin": 1163,
  "\u2581ji": 1164,
  "\u2581disiplon": 1165,
  "\u2581iakh": 1166,
  "\u2581avasa": 1167,
  "Phen": 1168,
  "\u25812": 1169,
  "\u2581kerdiola": 1170,
  "\u2581bar": 1171,
  "\u2581pek": 1172,
  "\u2581roven": 1173,
  "\u2581premil": 1174,
  "\u2581dukh": 1175,
  "\u2581ola": 1176,
  "\u2581chiriklia": 1177,
  "\u2581sabia": 1178,
  "\u2581semnuria": 1179,
  "\u2581duxuria": 1180,
  "\u2581rhugilpe": 1181,
  "\u2581Savatone": 1182,
  "\u2581dieluria": 1183,
  "\u2581prek": 1184,
  "\u2581bunto": 1185,
  "\u2581naisimos": 1186,
  "\u2581parno": 1187,
  "\u2581Asia": 1188,
  "\u2581tho": 1189,
  "\u2581Va\u0161oda": 1190,
  "\u2581pa\u0161": 1191,
  "\u2581vitsi": 1192,
  "\u2581anklen": 1193,
  "\u2581xoxamle": 1194,
  "\u2581shudino": 1195,
  "\u2581Mangav": 1196,
  "\u2581rimol": 1197,
  "\u2581Kaj": 1198,
  "\u2581astarde": 1199,
  "\u2581lela": 1200,
  "Z": 1201,
  "\u2581Amar": 1202,
  "\u2581merela": 1203,
  "Eta": 1204,
  "\u2581izula": 1205,
  "\u258111": 1206,
  "\u2581mudardia": 1207,
  "\u2581Caesar": 1208,
  "\u2581diesa": 1209,
  "\u2581Pre": 1210,
  "\u2581rhugiv": 1211,
  "liape": 1212,
  "\u2581leskere": 1213,
  "\u2581m": 1214,
  "\u2581chidine": 1215,
  "\u2581bale": 1216,
  "Kad": 1217,
  "L": 1218,
  "\u2581sakrifis": 1219,
  "\u2581\u010dhavo": 1220,
  "\u2581azhukeren": 1221,
  "\u2581Elijah": 1222,
  "\u2581Zhidovisko": 1223,
  "\u2581baptisto": 1224,
  "\u2581raduimasa": 1225,
  "\u2581thi\u0161": 1226,
  "\u2581feder": 1227,
  "\u2581Davidosko": 1228,
  "\u2581Ov": 1229,
  "\u2581shon": 1230,
  "\u2581ajse": 1231,
  "\u2581lolo": 1232,
  "\u2581pachaian": 1233,
  "\u2581tsinorh": 1234,
  "\u2581And": 1235,
  "\u2581arakhena": 1236,
  "\u2581shaves": 1237,
  "\u2581kasave": 1238,
  "\u2581d\u017eal": 1239,
  "\u2581chiro": 1240,
  "ndro": 1241,
  "\u258110": 1242,
  "\u2581phari": 1243,
  "\u2581Chachimasa": 1244,
  "\u2581riate": 1245,
  "y": 1246,
  "\u2581dikhenas": 1247,
  "\u2581beshle": 1248,
  "ino": 1249,
  "\u25814": 1250,
  "\u2581iekes": 1251,
  "\u2581dara": 1252,
  "\u2581jinel": 1253,
  "\u2581lenas": 1254,
  "\u2581Vo": 1255,
  "\u2581chinuil": 1256,
  "\u2581dosha": 1257,
  "\u2581drazh": 1258,
  "\u2581xoliariko": 1259,
  "\u2581anklel": 1260,
  "\u2581phrala": 1261,
  "\u2581Rasha": 1262,
  "\u2581dumult": 1263,
  "\u2581zumaimos": 1264,
  "\u2581zhandari": 1265,
  "\u2581rhugimos": 1266,
  "\u2581trutno": 1267,
  "\u2581zhanglimos": 1268,
  "\u2581rhugisailo": 1269,
  "\u2581zhuvindo": 1270,
  "\u2581marimos": 1271,
  "\u2581pherde": 1272,
  "\u2581mudardo": 1273,
  "\u2581kerdile": 1274,
  "\u2581naswalen": 1275,
  "\u2581pansh": 1276,
  "\u2581sikadiol": 1277,
  "\u2581zumaven": 1278,
  "\u2581gelem": 1279,
  "\u2581azbadia": 1280,
  "\u2581chorhi": 1281,
  "\u2581xoxamlo": 1282,
  "\u2581mangela": 1283,
  "\u2581nakhle": 1284,
  "\u00e1": 1285,
  "\u2581Jesusoske": 1286,
  "\u2581B": 1287,
  "\u2581kamelas": 1288,
  "\u2581xas": 1289,
  "\u2581Duxosa": 1290,
  "\u2581sichardia": 1291,
  "\u2581inkerel": 1292,
  "Kana": 1293,
  "\u2581las": 1294,
  "\u2581Devlestar": 1295,
  "\u2581Chaches": 1296,
  "\u2581tradel": 1297,
  "sul": 1298,
  "lpe": 1299,
  "\u2581J": 1300,
  "\u2581iado": 1301,
  "gda": 1302,
  "\u2581vlad\u0148inel": 1303,
  "\u2581pen": 1304,
  "\u2581Bakriorho": 1305,
  "iam": 1306,
  "\u2581ramosardia": 1307,
  "\u2581Oda": 1308,
  "\u2581haliarde": 1309,
  "\u2581chide": 1310,
  "\u2581Va": 1311,
  "\u2581kavres": 1312,
  "\u2581mothona": 1313,
  "\u2581Pal": 1314,
  "\u2581d\u017eiven": 1315,
  "\u25813": 1316,
  "\u2581raxami": 1317,
  "\u2581dad": 1318,
  "enca": 1319,
  "Dikh": 1320,
  "\u2581Mek": 1321,
  "\u2581azhukerel": 1322,
  "\u2581gras": 1323,
  "\u2581baiuria": 1324,
  "\u2581amperaturia": 1325,
  "\u2581kamaratos": 1326,
  "\u2581ketanengo": 1327,
  "\u2581upral": 1328,
  "\u2581kodala": 1329,
  "\u2581varesave": 1330,
  "\u2581thodine": 1331,
  "\u2581L": 1332,
  "\u2581angerel": 1333,
  "\u2581manu\u0161enge": 1334,
  "ava": 1335,
  "\u2581xanas": 1336,
  "\u2581mas": 1337,
  "\u2581chererhaia": 1338,
  "\u2581dikhelas": 1339,
  "\u2581phenava": 1340,
  "Zha": 1341,
  "\u2581wudara": 1342,
  "\u2581telai": 1343,
  "\u2581pachal": 1344,
  "\u2581statosa": 1345,
  "\u2581terne": 1346,
  "\u2581Den": 1347,
  "\u2581lian": 1348,
  "asa": 1349,
  "\u2581zhanglia": 1350,
  "men": 1351,
  "\u2581purhil": 1352,
  "\u2581kaske": 1353,
  "\u2581Filip": 1354,
  "va": 1355,
  "au": 1356,
  "\u2581nakhel": 1357,
  "\u2581pachiv": 1358,
  "\u0148e": 1359,
  "\u2581azhukeras": 1360,
  "\u2581meren": 1361,
  "\u2581\u00e8i": 1362,
  "\u2581korhe": 1363,
  "\u2581kodolesk": 1364,
  "\u2581areslia": 1365,
  "\u2581modlitbi": 1366,
  "\u2581radi\u0161agos": 1367,
  "\u2581vushoro": 1368,
  "\u2581vastensa": 1369,
  "\u2581chudisailo": 1370,
  "\u2581profesi": 1371,
  "\u2581phuterdilo": 1372,
  "\u2581vareko": 1373,
  "\u2581skepitori": 1374,
  "\u2581Silas": 1375,
  "\u2581d\u017eanas": 1376,
  "\u2581avrenge": 1377,
  "\u2581rashange": 1378,
  "\u2581doshale": 1379,
  "\u2581Iovanosko": 1380,
  "\u258118": 1381,
  "\u2581iame": 1382,
  "\u2581dosharel": 1383,
  "\u2581rhevdin": 1384,
  "\u2581daj": 1385,
  "\u2581avren": 1386,
  "\u2581pachav": 1387,
  "\u2581savorhen": 1388,
  "\u2581chinuisarde": 1389,
  "\u2581zhungale": 1390,
  "\u2581kas": 1391,
  "\u2581sikavelas": 1392,
  "\u2581thav": 1393,
  "Aidi": 1394,
  "\u2581savi": 1395,
  "\u2581ashela": 1396,
  "\u2581abiav": 1397,
  "\u25818": 1398,
  "Vi": 1399,
  "Iek": 1400,
  "\u258115": 1401,
  "\u2581phendi": 1402,
  "\u2581pomo\u017einen": 1403,
  "\u2581Lesk": 1404,
  "\u2581ketana": 1405,
  "\u2581chidel": 1406,
  "\u2581glaten": 1407,
  "\u25819": 1408,
  "\u2581mangena": 1409,
  "\u2581\u0161unel": 1410,
  "\u2581b": 1411,
  "Mek": 1412,
  "\u2581C": 1413,
  "\u2581xoxaven": 1414,
  "\u2581Len": 1415,
  "\u2581kanikas": 1416,
  "\u2581duzhmano": 1417,
  "\u2581naswale": 1418,
  "\u2581raduin": 1419,
  "\u2581Festus": 1420,
  "\u2581Isaiah": 1421,
  "\u2581nuvero": 1422,
  "\u2581xoxaimos": 1423,
  "\u2581zhuvindisardia": 1424,
  "\u2581zhuvindimos": 1425,
  "\u2581arakhadilo": 1426,
  "\u2581diminiatsi": 1427,
  "\u2581Caesarea": 1428,
  "\u2581sikh\u013euvas": 1429,
  "\u2581ankalavel": 1430,
  "\u2581nekezhime": 1431,
  "\u2581pachaiape": 1432,
  "\u2581phandado": 1433,
  "\u2581krenzhi": 1434,
  "\u2581kavreste": 1435,
  "\u2581phandade": 1436,
  "esa": 1437,
  "\u2581la\u010dhe": 1438,
  "\u2581Ephesus": 1439,
  "\u2581getosardia": 1440,
  "\u2581mudar": 1441,
  "\u2581savorhende": 1442,
  "S": 1443,
  "\u2581phirelas": 1444,
  "\u2581soba": 1445,
  "\u2581kanrhe": 1446,
  "\u2581phendiam": 1447,
  "\u2581d\u017eanen": 1448,
  "\u2581rhaiosko": 1449,
  "\u2581beshas": 1450,
  "\u2581pelo": 1451,
  "\u2581kheresko": 1452,
  "\u2581sikavav": 1453,
  "\u2581angerdia": 1454,
  "\u2581Apo": 1455,
  "\u2581hulist": 1456,
  "\u2581miazon": 1457,
  "\u2581zhuvindila": 1458,
  "\u2581bange": 1459,
  "\u2581Lazarus": 1460,
  "\u2581traden": 1461,
  "\u2581lila": 1462,
  "\u2581podail": 1463,
  "\u2581muli": 1464,
  "\u2581garadi": 1465,
  "\u2581mothola": 1466,
  "\u2581mu\u0161in": 1467,
  "Wushti": 1468,
  "\u2581trobula": 1469,
  "Nichi": 1470,
  "\u2581nakhen": 1471,
  "\u2581dikhela": 1472,
  "\u2581tradin": 1473,
  "\u2581zhana": 1474,
  "\u2581plaia": 1475,
  "\u2581ankeren": 1476,
  "\u0148i": 1477,
  "Ashun": 1478,
  "\u2581iertil": 1479,
  "\u2581luvudisarde": 1480,
  "\u2581chiri": 1481,
  "\u2581\u0161unen": 1482,
  "\u2581thodian": 1483,
  "\u258112": 1484,
  "\u2581shinen": 1485,
  "ndar": 1486,
  "\u2581trapi\u0161agos": 1487,
  "\u2581tsera": 1488,
  "\u2581changende": 1489,
  "\u2581Samaria": 1490,
  "\u2581chasuria": 1491,
  "\u2581alome": 1492,
  "\u2581chidinisaile": 1493,
  "\u2581sastilo": 1494,
  "\u2581Tir": 1495,
  "\u2581iagasa": 1496,
  "\u2581manglem": 1497,
  "\u2581rimolpe": 1498,
  "\u2581shinde": 1499,
  "\u2581krisako": 1500,
  "\u2581inia": 1501,
  "\u2581Dadesko": 1502,
  "\u2581Zhidovon": 1503,
  "\u2581nakhelas": 1504,
  "chi": 1505,
  "\u2581ashundiam": 1506,
  "vi": 1507,
  "\u2581Pate": 1508,
  "\u2581putierako": 1509,
  "\u2581arakhela": 1510,
  "\u201c.": 1511,
  "\u2581parhuven": 1512,
  "I": 1513,
  "t": 1514,
  "\u2581pochinen": 1515,
  "\u25811": 1516,
  "\u2581pherdiol": 1517,
  "\u2581gonisardia": 1518,
  "\u2581bute": 1519,
  "sosko": 1520,
  "\u25816": 1521,
  "\u2581traiila": 1522,
  "\u2581shudin": 1523,
  "\u2581Sabat": 1524,
  "\u25817": 1525,
  "\u2581ankerdio": 1526,
  "Chachimasa": 1527,
  "has": 1528,
  "\u2581swakones": 1529,
  "\u2581peli": 1530,
  "\u2581shinel": 1531,
  "\u2581pherdi": 1532,
  "\u2581darasa": 1533,
  "imata": 1534,
  "\u2581\u010di": 1535,
  "Len": 1536,
  "\u2581phushel": 1537,
  "\u2581k\u00e5": 1538,
  "\u2581gindis": 1539,
  "mas": 1540,
  "\u2581skamin": 1541,
  "erdi": 1542,
  "\u2581slugen": 1543,
  "\u2581pashe": 1544,
  "\u2581Damascus": 1545,
  "\u2581Pavol": 1546,
  "\u2581breshind": 1547,
  "\u2581vzkrjesimen": 1548,
  "\u2581Jordan": 1549,
  "\u2581Capernaum": 1550,
  "\u2581vuzhimos": 1551,
  "\u2581kolavren": 1552,
  "\u2581kovlo": 1553,
  "\u2581zboros": 1554,
  "\u2581divinilas": 1555,
  "\u2581Abrahamoske": 1556,
  "\u2581kadea": 1557,
  "\u2581duj": 1558,
  "\u2581doshako": 1559,
  "\u2581phuviake": 1560,
  "\u2581kh\u00e5": 1561,
  "\u2581paiesa": 1562,
  "\u2581chinuime": 1563,
  "\u2581Gelo": 1564,
  "\u2581zumade": 1565,
  "\u2581Ave": 1566,
  "\u2581bengeske": 1567,
  "\u2581poronchinas": 1568,
  "\u2581kereha": 1569,
  "\u2581jinde": 1570,
  "\u2581vakerel": 1571,
  "\u2581kacha": 1572,
  "em": 1573,
  "\u2581Phende": 1574,
  "\u2581manushengo": 1575,
  "\u2581bish": 1576,
  "\u2581ashunes": 1577,
  "\u2581xaiin": 1578,
  "\u2581kavresa": 1579,
  "\u2581mangliam": 1580,
  "\u2581\u0161a": 1581,
  "\u2581iertin": 1582,
  "\u2581av\u013ea": 1583,
  "\u2581Kame": 1584,
  "\u2581mu\u013ea": 1585,
  "star": 1586,
  "\u2581a\u010dhel": 1587,
  "lia": 1588,
  "\u258113": 1589,
  "\u2581lava": 1590,
  "\u2581benges": 1591,
  "aha": 1592,
  "\u2581kurko": 1593,
  "\u2581dena": 1594,
  "\u2581skepisardi": 1595,
  "\u2581soske": 1596,
  "\u2581zhanena": 1597,
  "\u2581phangli": 1598,
  "nde": 1599,
  "\u2581lelas": 1600,
  "\u2581zhala": 1601,
  "\u2581\u010dhaven": 1602,
  "ti": 1603,
  "h": 1604,
  "\u2581thola": 1605,
  "\u2581kasav": 1606,
  "\u2581daras": 1607,
  "\u2581kra\u013eis": 1608,
  "ies": 1609,
  "po": 1610,
  "\u2581Savato": 1611,
  "\u2581Agrippa": 1612,
  "\u2581antrego": 1613,
  "\u2581man\u017eelstvo": 1614,
  "\u2581stvorin\u010fa": 1615,
  "\u2581Saxke": 1616,
  "\u2581piiav": 1617,
  "\u2581vuloi": 1618,
  "\u2581bolimos": 1619,
  "\u2581chinuimos": 1620,
  "\u2581varekana": 1621,
  "\u2581pa\u0165iv": 1622,
  "\u2581paluno": 1623,
  "\u2581zumado": 1624,
  "\u2581rom\u0148aha": 1625,
  "\u2581zhungalimos": 1626,
  "\u2581ada\u010fives": 1627,
  "\u2581astaren": 1628,
  "\u2581barimatange": 1629,
  "\u2581patria": 1630,
  "\u2581phuviako": 1631,
  "\u2581kovle": 1632,
  "\u2581hai": 1633,
  "\u2581baxensa": 1634,
  "\u2581hodinin": 1635,
  "\u2581magares": 1636,
  "\u2581apostle": 1637,
  "\u2581parhuvel": 1638,
  "\u2581bezexeske": 1639,
  "\u2581angelonge": 1640,
  "\u2581tradem": 1641,
  "\u2581kurvi": 1642,
  "\u2581azhukerelas": 1643,
  "\u2581meras": 1644,
  "\u2581verno": 1645,
  "si": 1646,
  "\u2581avreske": 1647,
  "\u2581dikhlias": 1648,
  "\u2581gindinas": 1649,
  "\u2581ingeren": 1650,
  "\u2581tradine": 1651,
  "\u2581phralenge": 1652,
  "\u2581palma": 1653,
  "\u2581droma": 1654,
  "\u2581stran": 1655,
  "\u2581mia": 1656,
  "\u2581plachal": 1657,
  "\u2581daranas": 1658,
  "\u2581vazden": 1659,
  "\u2581ber\u0161a": 1660,
  "\u2581Pavloske": 1661,
  "c": 1662,
  "\u2581sastiarel": 1663,
  "\u2581premisardian": 1664,
  "\u2581tuturaza": 1665,
  "\u2581marel": 1666,
  "\u2581ashunenas": 1667,
  "var": 1668,
  "elas": 1669,
  "\u2581anava": 1670,
  "\u2581naisil": 1671,
  "i\u017ee": 1672,
  "sardia": 1673,
  "\u2581Wushti": 1674,
  "A": 1675,
  "sh": 1676,
  "\u2581primil": 1677,
  "\u2581mulen": 1678,
  "\u2581Phendia": 1679,
  "\u2581shin": 1680,
  "\u2581phei": 1681,
  "\u2581lampo": 1682,
  "\u2581mu\u0161ine": 1683,
  "\u2581besh": 1684,
  "\u2581mir": 1685,
  "\u2581Je\u017ei\u0161osker": 1686,
  "\u2581sasto": 1687,
  "\u2581struguro": 1688,
  "\u2581z": 1689,
  "\u2581shaven": 1690,
  "mar": 1691,
  "Che": 1692,
  "les": 1693,
  "\u2581phendian": 1694,
  "\u2581xa": 1695,
  "Chaches": 1696,
  "Mat": 1697,
  "\u2581Petres": 1698,
  "\u2581jinen": 1699,
  "\u2581phivli": 1700,
  "\u2581n": 1701,
  "\u2581dikh": 1702,
  "\u2581hulela": 1703,
  "brazkos": 1704,
  "\u25815": 1705,
  "\u258116": 1706,
  "\u2581Rachab": 1707,
  "\u2581chinuisardia": 1708,
  "\u2581bakriorha": 1709,
  "shela": 1710,
  "\u2581zumav": 1711,
  "D": 1712,
  "\u2581premin": 1713,
  "\u2581ningerd": 1714,
  "saile": 1715,
  "nes": 1716,
  "vas": 1717,
  "\u2581phutrel": 1718,
  "\u2581selia": 1719,
  "\u2581azba": 1720,
  "\u2581xalia": 1721,
  "\u2581Babylon": 1722,
  "\u2581Saduseanuria": 1723,
  "\u2581Zechariah": 1724,
  "\u2581marturo": 1725,
  "\u2581nala\u010dhipen": 1726,
  "\u2581stingo": 1727,
  "\u2581trenda": 1728,
  "\u2581armia": 1729,
  "\u2581gratsia": 1730,
  "\u2581naswalimos": 1731,
  "\u2581va\u0161oda": 1732,
  "\u2581romeha": 1733,
  "\u2581Melchizedek": 1734,
  "\u2581synagoguria": 1735,
  "\u2581mi\u0161to": 1736,
  "\u2581chordanes": 1737,
  "\u2581marime": 1738,
  "\u2581nakhlo": 1739,
  "\u2581palune": 1740,
  "\u2581rhonjito": 1741,
  "\u2581phaglia": 1742,
  "\u2581sichares": 1743,
  "\u2581darako": 1744,
  "\u2581\u010dhavoro": 1745,
  "\u2581konona": 1746,
  "\u2581a\u0148jela": 1747,
  "\u2581pasholas": 1748,
  "\u2581odphenel": 1749,
  "\u2581niva": 1750,
  "\u2581gonil": 1751,
  "\u2581la\u010dhi": 1752,
  "\u2581paieske": 1753,
  "\u2581daros": 1754,
  "\u2581preznain": 1755,
  "\u2581Iovanos": 1756,
  "\u2581andral": 1757,
  "\u2581respektin": 1758,
  "\u2581kako": 1759,
  "\u2581strefialas": 1760,
  "\u2581bezexalo": 1761,
  "\u2581d\u017eivena": 1762,
  "\u2581chingara": 1763,
  "\u2581rom\u0148a": 1764,
  "\u2581The": 1765,
  "\u2581mashkaral": 1766,
  "\u2581char": 1767,
  "\u2581cha": 1768,
  "lem": 1769,
  "\u2581ashunelas": 1770,
  "\u2581nashen": 1771,
  "\u2581ambolden": 1772,
  "\u2581skepisar": 1773,
  "\u2581kote": 1774,
  "\u2581gono": 1775,
  "ng": 1776,
  "\u2581pheia": 1777,
  "\u2581Z": 1778,
  "00": 1779,
  "\u2581dukhave": 1780,
  "ela": 1781,
  "peski": 1782,
  "\u2581lashardia": 1783,
  "\u2581Ashunen": 1784,
  "\u2581pa\u0165al": 1785,
  "\u2581luvudil": 1786,
  "\".": 1787,
  "\u2581phuvia": 1788,
  "\u2581phivlia": 1789,
  "\u2581rhugis": 1790,
  "\u2581latar": 1791,
  "\u2581akharena": 1792,
  "\u2581phutren": 1793,
  "\u2581Pa": 1794,
  "\u2581zhava": 1795,
  "\u2581ashunena": 1796,
  "\u2581zhutisardia": 1797,
  "ine": 1798,
  "ako": 1799,
  "\u2581ch": 1800,
  "\u2581\u0148i": 1801,
  "\u2581sicharde": 1802,
  "\u2581\u010d": 1803,
  "J\u00e1n": 1804,
  "\u2581naisin": 1805,
  "\u2581Mi": 1806,
  "Tho": 1807,
  "\u2581mu": 1808,
  "\u2581lasharen": 1809,
  "\u2581F": 1810,
  "\u2581\u010fives": 1811,
  "\u2581kerdi": 1812,
  "\u2581inkeren": 1813,
  "\u2581chinuis": 1814,
  "De": 1815,
  "\u2581bolel": 1816,
  "in": 1817,
  "\u2581ku": 1818,
  "\u2581mekela": 1819,
  "Ame": 1820,
  "\u2581gone": 1821,
  "\u2581Jeremija\u0161": 1822,
  "\u2581Jericho": 1823,
  "\u2581kurkorsho": 1824,
  "\u2581saxanits": 1825,
  "\u2581zhroma\u017e\u010fe\u0148e": 1826,
  "\u2581Pa\u013eis": 1827,
  "\u2581divanuria": 1828,
  "\u2581Titus": 1829,
  "\u2581phurane": 1830,
  "\u2581nekfeder": 1831,
  "\u2581dod\u017eanaha": 1832,
  "\u2581Sidon": 1833,
  "\u2581nichi": 1834,
  "\u2581lantsonsa": 1835,
  "\u2581Sodom": 1836,
  "\u2581k\u0148i\u017eki": 1837,
  "\u2581rhugisavas": 1838,
  "\u2581shodo": 1839,
  "\u2581ansurilpe": 1840,
  "\u2581ramosardem": 1841,
  "\u2581\u010dhaj": 1842,
  "\u2581xoxavel": 1843,
  "\u2581apostlonge": 1844,
  "\u2581Pilato": 1845,
  "\u2581Avka": 1846,
  "\u2581Iakovosko": 1847,
  "\u2581pastuxo": 1848,
  "\u2581otazki": 1849,
  "\u2581starinel": 1850,
  "\u2581pa\u0165as": 1851,
  "\u2581pachaie": 1852,
  "\u2581vazdino": 1853,
  "\u2581eftato": 1854,
  "\u2581kamarata": 1855,
  "\u2581profetonge": 1856,
  "\u2581Barabbas": 1857,
  "\u2581dichon": 1858,
  "\u2581kimpo": 1859,
  "\u2581Martha": 1860,
  "\u2581aterdiaren": 1861,
  "\u2581tsipilas": 1862,
  "\u2581parne": 1863,
  "\u2581neve": 1864,
  "\u2581Iovanoske": 1865,
  "r\u0103": 1866,
  "\u2581jilia": 1867,
  "\u2581durion": 1868,
  "\u2581bezexesko": 1869,
  "\u2581\u010da\u010d": 1870,
  "\u2581kadi": 1871,
  "\u2581chinen": 1872,
  "\u2581phraleske": 1873,
  "\u2581arakhav": 1874,
  "\u2581traiosko": 1875,
  "\u2581kerdili": 1876,
  "\u258117": 1877,
  "\u2581olestar": 1878,
  "\u2581vuzhi": 1879,
  "\u2581pomo\u017einela": 1880,
  "om": 1881,
  "\u2581angelon": 1882,
  "\u2581pachasa": 1883,
  "\u2581manglian": 1884,
  "\u2581choren": 1885,
  "\u2581beshav": 1886,
  "\u2581sheia": 1887,
  "\u2581Mark": 1888,
  "\u2581kres\u0165ansk": 1889,
  "\u2581shere": 1890,
  "\u2581Sod": 1891,
  "\u2581thu": 1892,
  "\u2581jind": 1893,
  "\u2581di": 1894,
  "changa": 1895,
  "Numa": 1896,
  "\u2581thos": 1897,
  "\u2581rodas": 1898,
  "\u2581pena": 1899,
  "\u2581d\u017ei": 1900,
  "\u2581phir": 1901,
  "\u2581Trade": 1902,
  "\u2581xasarel": 1903,
  "estar": 1904,
  "er": 1905,
  "\u2581hulel": 1906,
  "\u2581beshela": 1907,
  "Anda": 1908,
  "\u2581arakh": 1909,
  "Arakhen": 1910,
  "Trobul": 1911,
  "Savo": 1912,
  "\u2581Lia": 1913,
  "\u2581diam": 1914,
  "\u2581shinade": 1915,
  "\u2581Levi": 1916,
  "\u2581vast": 1917,
  "\u2581gropo": 1918,
  "B": 1919,
  "\u2581chire": 1920,
  "\u2581profeton": 1921,
  "\u2581chererhai": 1922,
  "Raduim": 1923,
  "skeri": 1924,
  "...": 1925,
  "engo": 1926,
  "\u2581xasarde": 1927,
  "Sai": 1928,
  "\u2581naisi": 1929,
  "ov": 1930,
  "\u2581premisardia": 1931,
  "naspe": 1932,
  "\u2581traiiv": 1933,
  "\u2581tsipil": 1934,
  "\u2581merav": 1935,
  "\u2581xasavol": 1936,
  "\u2581gindil": 1937,
  "\u2581Av": 1938,
  "\u2581daral": 1939,
  "savo": 1940,
  "aspe": 1941,
  "\u2581sovel": 1942,
  "\u2581malade": 1943,
  "\u2581gindiv": 1944,
  "\u2581chud\u0148a": 1945,
  "Sa": 1946,
  "\u2581geliam": 1947,
  "\u2581Rome": 1948,
  "\u2581Elizabeth": 1949,
  "\u2581Iscariot": 1950,
  "\u2581Romanuria": 1951,
  "\u2581krenga": 1952,
  "\u2581problemi": 1953,
  "\u2581lungo": 1954,
  "\u2581hiros": 1955,
  "\u2581ivend": 1956,
  "\u2581vutuimata": 1957,
  "\u2581amperatsi": 1958,
  "\u2581Thomas": 1959,
  "\u2581Grekuria": 1960,
  "\u2581vorbensa": 1961,
  "\u2581bokhalo": 1962,
  "\u2581rhugilaspe": 1963,
  "\u2581respektimos": 1964,
  "\u2581gada": 1965,
  "\u2581terhara": 1966,
  "\u2581sichilian": 1967,
  "\u2581bichosa": 1968,
  "\u2581buntuime": 1969,
  "\u2581biandilo": 1970,
  "\u2581vastesa": 1971,
  "\u2581patreto": 1972,
  "\u2581Abrahamoski": 1973,
  "\u2581Sikaven": 1974,
  "\u2581ti\u0161": 1975,
  "\u2581sichon": 1976,
  "\u2581pachalaspe": 1977,
  "\u2581d\u017eivas": 1978,
  "\u2581vlada": 1979,
  "\u2581pochindo": 1980,
  "\u2581lashimasa": 1981,
  "\u2581phuterdo": 1982,
  "\u2581demoni": 1983,
  "\u2581luvudilpe": 1984,
  "\u2581trushalo": 1985,
  "\u2581Simonosko": 1986,
  "\u2581geliamtar": 1987,
  "\u2581krenzha": 1988,
  "\u2581karfosard": 1989,
  "\u2581\u0148iko": 1990,
  "\u2581aterdiarel": 1991,
  "\u2581kerdilem": 1992,
  "\u2581zorasa": 1993,
  "\u2581kurvimos": 1994,
  "\u2581Duxoski": 1995,
  "\u2581khangeriako": 1996,
  "\u2581semnome": 1997,
  "\u2581xoliavol": 1998,
  "\u2581Phenen": 1999,
  "\u2581traioski": 2000,
  "\u2581lumiaki": 2001,
  "\u2581phurdia": 2002,
  "\u2581lasharel": 2003,
  "\u2581presikavel": 2004,
  "\u2581pharipena": 2005,
  "\u2581rhugisaile": 2006,
  "\u2581d\u017eanelas": 2007,
  "\u2581forosko": 2008,
  "\u2581gonin": 2009,
  "\u2581mur\u0161a": 2010,
  "\u2581Rhugin": 2011,
  "\u2581dzile": 2012,
  "\u2581Sako": 2013,
  "\u2581sicharenas": 2014,
  "\u2581keci": 2015,
  "\u2581avilemas": 2016,
  "\u2581phiras": 2017,
  "\u2581xalaven": 2018,
  "\u2581merena": 2019,
  "\u2581nirin": 2020,
  "\u2581Gele": 2021,
  "\u2581tira": 2022,
  "\u2581pasturia": 2023,
  "\u2581mu\u0161inen": 2024,
  "\u2581hi": 2025,
  "\u2581karfo": 2026,
  "\u2581xulad": 2027,
  "\u2581pravar": 2028,
  "\u2581tire": 2029,
  "d\u017eas": 2030,
  "sai": 2031,
  "\u2581streino": 2032,
  "\u258121": 2033,
  "vo": 2034,
  "\u2581Philip": 2035,
  "\u2581ingerde": 2036,
  "\u2581rup": 2037,
  "\u2581Line": 2038,
  "\u2581Dar": 2039,
  "\u2581thodem": 2040,
  "\u2581ashunela": 2041,
  "\u2581ashun": 2042,
  "\u2581Arakhen": 2043,
  "\u2581tradian": 2044,
  "asul": 2045,
  "\u2581Tumar": 2046,
  "\u2581bichind": 2047,
  "ashte": 2048,
  "\u2581xalas": 2049,
  "\u2581foros": 2050,
  "kar": 2051,
  "aresave": 2052,
  "Zhanen": 2053,
  "is": 2054,
  "\u2581kodol": 2055,
  "\u00ee": 2056,
  "\u2581Stephen": 2057,
  "!'": 2058,
  "\u2581sastiar": 2059,
  "eski": 2060,
  "\u2581ankerel": 2061,
  "sarde": 2062,
  "\u2581phushlias": 2063,
  "d": 2064,
  "jekh": 2065,
  "\u2581Ramos": 2066,
  "\u258119": 2067,
  "Den": 2068,
  "enas": 2069,
  "\u2581miraklo": 2070,
  "ge": 2071,
  "\u2581x": 2072,
  "um": 2073,
  "\u2581bij": 2074,
  "\u2581chinuina": 2075,
  "\u2581zumave": 2076,
  "ian": 2077,
  "kere": 2078,
  "\u2581traiina": 2079,
  "\u2581pomo\u017ein": 2080,
  "\u2581narodosa": 2081,
  ",'": 2082,
  "\u2581sichar": 2083,
  "\u2581Zhi": 2084,
  "\u2581wushtel": 2085,
  "\u2581apo\u0161tol": 2086,
  "\u2581bazari": 2087,
  "\u2581daxtai": 2088,
  "\u2581dopash": 2089,
  "\u2581smirom": 2090,
  "\u2581z\u0148i\u010dimen": 2091,
  "\u2581\u0161tudijum": 2092,
  "\u2581lantsuria": 2093,
  "\u2581sabiensa": 2094,
  "\u2581skurt": 2095,
  "\u2581kimpuria": 2096,
  "Zjave": 2097,
  "\u2581phurano": 2098,
  "\u2581teliara": 2099,
  "slovi": 2100,
  "\u2581ansurime": 2101,
  "\u2581kamiben": 2102,
  "\u2581lill": 2103,
  "\u2581vo\u013ea": 2104,
  "\u2581jilestar": 2105,
  "\u2581pachamasko": 2106,
  "\u2581swuntsome": 2107,
  "\u2581k\u00e5r\u00e5l": 2108,
  "\u2581Apollos": 2109,
  "\u2581tiari": 2110,
  "\u2581sika\u010fa": 2111,
  "\u2581bokhale": 2112,
  "\u2581slugenge": 2113,
  "\u2581zasadi": 2114,
  "\u2581pisinenas": 2115,
  "\u2581Evaha": 2116,
  "\u2581magari": 2117,
  "\u2581u\u017earel": 2118,
  "\u2581respektime": 2119,
  "\u2581mod\u013einas": 2120,
  "\u2581nekezhisailo": 2121,
  "\u2581jindian": 2122,
  "kala": 2123,
  "\u2581Mosesoske": 2124,
  "\u2581raduisaile": 2125,
  "\u2581guvernori": 2126,
  "\u2581pharo": 2127,
  "\u2581Inker": 2128,
  "\u2581bichinenas": 2129,
  "mborim": 2130,
  "\u2581vuni": 2131,
  "\u2581ashshile": 2132,
  "\u2581pisinel": 2133,
  "\u2581Samuel": 2134,
  "\u2581lokes": 2135,
  "\u2581chinuria": 2136,
  "\u2581sprava": 2137,
  "\u2581ablakato": 2138,
  "\u2581pashilo": 2139,
  "\u2581savorhensa": 2140,
  "\u2581oxto": 2141,
  "\u2581dural": 2142,
  "\u2581phabolas": 2143,
  "\u2581xoliavon": 2144,
  "\u2581per\u0161o": 2145,
  "\u2581amperatosko": 2146,
  "\u2581marenpe": 2147,
  "\u2581nirisardia": 2148,
  "\u2581sicharav": 2149,
  "\u2581xasavona": 2150,
  "\u2581foroske": 2151,
  "\u2581morchia": 2152,
  "\u2581barile": 2153,
  "\u2581phirenas": 2154,
  "\u2581duriol": 2155,
  "\u2581perve": 2156,
  "\u2581statoske": 2157,
  "\u2581statosko": 2158,
  "\u2581telal": 2159,
  "\u2581phuterde": 2160,
  "\u2581bashel": 2161,
  "\u2581Zhanas": 2162,
  "\u2581skamina": 2163,
  "\u2581kerdiolpe": 2164,
  "\u2581fialuri": 2165,
  "\u2581atsaven": 2166,
  "\u2581xav": 2167,
  "\u2581be": 2168,
  "\u2581arakhas": 2169,
  "\u2581anela": 2170,
  "\u2581raxamia": 2171,
  "\u2581chal": 2172,
  "Ma": 2173,
  "\u2581Dadeske": 2174,
  "\u2581nashtisardia": 2175,
  "\u2581Beng": 2176,
  "\u2581chidia": 2177,
  "\u2581wushti": 2178,
  "ape": 2179,
  "\u2581lon": 2180,
  "inepe": 2181,
  "\u2581slu\u017einen": 2182,
  "\u2581rod": 2183,
  "\u2581solaxal": 2184,
  "\u2581mosa": 2185,
  "\u2581olen": 2186,
  "\u2581od": 2187,
  "\u2581radi": 2188,
  "\u2581aviliam": 2189,
  "\u2581kerdiona": 2190,
  "\u2581Dav": 2191,
  "w": 2192,
  "\u2581pra": 2193,
  "\u2581luvudis": 2194,
  "\u2581seren": 2195,
  "\u2581divinin": 2196,
  "\u2581pachala": 2197,
  "\u2581perela": 2198,
  "\u2581Dui": 2199,
  "\u2581chud": 2200,
  "\u2581buten": 2201,
  "\u2581Che": 2202,
  "\u2581phiraven": 2203,
  "\u258120": 2204,
  "\u2581mar": 2205,
  "\u2581zhangle": 2206,
  "\u2581stat": 2207,
  "\u2581pash": 2208,
  "\u2581Sai": 2209,
  "\u2581astard": 2210,
  "\u2581shindia": 2211,
  "\u2581R": 2212,
  "\u2581bu": 2213,
  "\u2581sikav": 2214,
  "\u2581a\u010dhela": 2215,
  "\u2581ashel": 2216,
  "ci": 2217,
  "Akana": 2218,
  "\u2581musuri": 2219,
  "laspe": 2220,
  "\u2581-": 2221,
  "\u2581bachtale": 2222,
  "\u2581kam": 2223,
  "\u25813:1": 2224,
  "\u2581Avile": 2225,
  "\u2581angeren": 2226,
  "Pr": 2227,
  "\u2581Bar": 2228,
  "\u2581peng": 2229,
  "\u2581phabol": 2230,
  "\u2581pochinel": 2231,
  "\u2581ruv": 2232,
  "\u2581xala": 2233,
  "z": 2234,
  "\u2581f": 2235,
  "2)": 2236,
  "\u2581mur\u0161": 2237,
  "\u2581soven": 2238,
  "\u2581skafidia": 2239,
  "\u2581rhai": 2240,
  "\u2581Solomon": 2241,
  "\u2581Job": 2242,
  "Skutk": 2243,
  "\u2581Bethlehem": 2244,
  "\u2581Caiaphas": 2245,
  "\u2581Corinth": 2246,
  "\u2581Felix": 2247,
  "\u2581berego": 2248,
  "\u2581jakha": 2249,
  "\u2581kozhnitsi": 2250,
  "\u2581pou\u017einel": 2251,
  "\u2581streinuria": 2252,
  "\u2581zhukel": 2253,
  "\u2581rhugimata": 2254,
  "\u2581la\u010dhipen": 2255,
  "\u2581manjin": 2256,
  "\u2581shinga": 2257,
  "\u2581pretso": 2258,
  "\u2581prashtia": 2259,
  "\u2581shinaimos": 2260,
  "\u2581trivar": 2261,
  "\u2581dureder": 2262,
  "\u2581Easto": 2263,
  "\u2581vastestar": 2264,
  "\u2581zd\u017ean": 2265,
  "\u2581gojasa": 2266,
  "\u2581aterdion": 2267,
  "\u2581D\u017eanes": 2268,
  "\u2581bolav": 2269,
  "\u2581stranki": 2270,
  "\u2581rhuginaspe": 2271,
  "\u2581Va\u0161": 2272,
  "\u2581pharhadia": 2273,
  "\u2581da\u0161ti": 2274,
  "\u2581Fal": 2275,
  "\u2581Devleha": 2276,
  "\u2581xaiil": 2277,
  "\u2581fruti": 2278,
  "\u2581paramicha": 2279,
  "\u2581naisisaras": 2280,
  "\u2581rherto": 2281,
  "\u2581gretsol": 2282,
  "\u2581phuterdile": 2283,
  "\u2581punrho": 2284,
  "\u2581korkoro": 2285,
  "\u2581Elias": 2286,
  "\u2581marelpe": 2287,
  "\u2581plaiing": 2288,
  "Magdata": 2289,
  "\u2581niriv": 2290,
  "\u2581aleha": 2291,
  "\u2581bezexeski": 2292,
  "\u2581amborim": 2293,
  "\u2581sikadiola": 2294,
  "\u2581mardo": 2295,
  "\u2581akharav": 2296,
  "\u2581tsipisarde": 2297,
  "\u2581daralas": 2298,
  "\u2581gropon": 2299,
  "\u2581aterdiardia": 2300,
  "\u2581gazdaske": 2301,
  "\u2581arho": 2302,
  "\u2581katsar": 2303,
  "\u2581zhuvliake": 2304,
  "\u2581ve\u010dno": 2305,
  "\u2581Cornelius": 2306,
  "\u2581phushenas": 2307,
  "\u2581phralensa": 2308,
  "\u2581Tradav": 2309,
  "\u2581kerdiliape": 2310,
  "\u2581prosto": 2311,
  "M": 2312,
  "\u2581arakhlias": 2313,
  "\u2581shut": 2314,
  "\u2581kerdionas": 2315,
  "\u2581gindilas": 2316,
  "\u2581nakhela": 2317,
  "\u2581darav": 2318,
  "\u2581pa\u0165an": 2319,
  "\u2581beshes": 2320,
  "\u2581rode": 2321,
  "res": 2322,
  "\u2581kastar": 2323,
  "arde": 2324,
  "\u2581andin": 2325,
  "\u2581traiilas": 2326,
  "T": 2327,
  "\u2581zido": 2328,
  "\u2581duchos": 2329,
  "\u2581shavorhe": 2330,
  "\u2581Po": 2331,
  "\u2581prinzhard": 2332,
  "\u2581mu\u0161inel": 2333,
  "\u2581\u010dhas": 2334,
  "\u013ea": 2335,
  "\u2581Luvudi": 2336,
  "\u2581Jehovastar": 2337,
  "\u2581skepin": 2338,
  "\u2581vazde": 2339,
  "\u2581ankaladi": 2340,
  "\u2581bariarel": 2341,
  "ile": 2342,
  "nie": 2343,
  "\u2581Je": 2344,
  "sar": 2345,
  "\u2581adiese": 2346,
  "dian": 2347,
  "i\u0148i": 2348,
  "go": 2349,
  "\u2581vlad\u0148inela": 2350,
  "\u2581kakal": 2351,
  "\u2581statos": 2352,
  "tu": 2353,
  "rho": 2354,
  "\u2581Bo": 2355,
  "ver": 2356,
  "\u2581aresli": 2357,
  "\u2581Mu\u0161in": 2358,
  "\u010d": 2359,
  "kai": 2360,
  "\u2581La": 2361,
  "\u2581ieka": 2362,
  "\u2581daden": 2363,
  "\u2581Romano": 2364,
  "the": 2365,
  "Pacha": 2366,
  "\u2581primila": 2367,
  "Antunchi": 2368,
  "ardia": 2369,
  "Pe": 2370,
  "a\u0161ti": 2371,
  "imasa": 2372,
  "Pate": 2373,
  "\u2581Devlesk": 2374,
  "\u2581zhutisar": 2375,
  "skero": 2376,
  "\u2581niamon": 2377,
  "\u2581Noah": 2378,
  "\u2581Naisi": 2379,
  "\u2581Besh": 2380,
  "\u2581tradela": 2381,
  "\u2581d\u017ean": 2382,
  "\u2581zhanglian": 2383,
  "\u2581pashol": 2384,
  "\u2581\u010dhib": 2385,
  "\u2581morchi": 2386,
  "p": 2387,
  "\u2581trobun": 2388,
  "ge\u013ea": 2389,
  "\u2581ramosar": 2390,
  "li": 2391,
  "\u2581mod\u013einel": 2392,
  "\u2581pharipe": 2393,
  "\u2581ketanen": 2394,
  "\u2581boldia": 2395,
  "rago": 2396,
  "\u2581Cilicia": 2397,
  "\u2581Elija\u0161": 2398,
  "\u2581Farisi": 2399,
  "\u2581Gretsia": 2400,
  "\u2581Magdalena": 2401,
  "\u2581Mesija\u0161is": 2402,
  "\u2581jekhetane": 2403,
  "\u2581kara\u010do\u0148a": 2404,
  "\u2581literatura": 2405,
  "\u2581modlitba": 2406,
  "\u2581nuveria": 2407,
  "\u2581s\u00eekaimahko": 2408,
  "\u2581xarkune": 2409,
  "\u2581vojni": 2410,
  "\u2581Bethani": 2411,
  "\u2581podaitori": 2412,
  "\u2581naswalimata": 2413,
  "\u2581pisimen": 2414,
  "\u2581bro\u017eura": 2415,
  "\u2581acha\u013eol": 2416,
  "\u2581pechime": 2417,
  "\u2581vjera": 2418,
  "\u2581Syria": 2419,
  "\u2581shovardesh": 2420,
  "\u2581dandendar": 2421,
  "pokojis": 2422,
  "\u2581kontra": 2423,
  "\u2581phuterdiol": 2424,
  "\u2581atsaimos": 2425,
  "\u2581panvardesh": 2426,
  "\u2581Noach": 2427,
  "\u2581\u0161un\u010fa": 2428,
  "\u2581vladcas": 2429,
  "\u2581bustrel": 2430,
  "\u2581xasaile": 2431,
  "\u2581bustren": 2432,
  "\u2581jileha": 2433,
  "\u2581drozhda": 2434,
  "\u2581dadengo": 2435,
  "\u2581perli": 2436,
  "\u2581pachamasa": 2437,
  "AL": 2438,
  "\u2581phabarde": 2439,
  "\u2581phanglimos": 2440,
  "\u2581geton": 2441,
  "\u2581avisailo": 2442,
  "\u2581chishai": 2443,
  "\u2581posledn": 2444,
  "\u2581Joppa": 2445,
  "\u2581Davidoski": 2446,
  "\u2581slu\u017einas": 2447,
  "\u2581profetongo": 2448,
  "\u2581svato": 2449,
  "\u2581zvestinel": 2450,
  "\u2581darailo": 2451,
  "\u2581phandaven": 2452,
  "\u2581lasharde": 2453,
  "\u2581xoxamn": 2454,
  "\u2581ajsi": 2455,
  "\u2581karfome": 2456,
  "\u2581phurdelas": 2457,
  "\u2581bershengo": 2458,
  "\u2581Jonah": 2459,
  "\u2581muto": 2460,
  "\u2581hulade": 2461,
  "\u2581vakeras": 2462,
  "\u2581lepra": 2463,
  "\u2581Farizeanonge": 2464,
  "\u2581haliardia": 2465,
  "\u2581boldo": 2466,
  "\u2581Zhidovonsa": 2467,
  "\u2581kolin": 2468,
  "\u2581Furt": 2469,
  "pa\u0161eder": 2470,
  "\u2581jilaben": 2471,
  "\u2581phandavel": 2472,
  "\u2581keisaile": 2473,
  "\u2581khangeriake": 2474,
  "\u2581chidelpe": 2475,
  "\u2581dzilo": 2476,
  "\u2581kerdiolape": 2477,
  "\u2581Sikav": 2478,
  "\u2581rimonpe": 2479,
  "\u2581wushten": 2480,
  "\u2581An": 2481,
  "\u2581bolelas": 2482,
  "\u2581barilo": 2483,
  "\u2581themenge": 2484,
  "\u2581xolaile": 2485,
  "\u2581dadesko": 2486,
  "\u2581arakhenpe": 2487,
  "\u2581Ananias": 2488,
  "\u2581smutno": 2489,
  "\u2581za": 2490,
  "\u2581figi": 2491,
  "\u2581Aresl": 2492,
  "\u2581duxosa": 2493,
  "\u2581chinuilas": 2494,
  "\u2581haliarav": 2495,
  "\u2581sastri": 2496,
  "\u2581bariolas": 2497,
  "\u2581rhaioske": 2498,
  "ado": 2499,
  "\u2581d\u017eives": 2500,
  "4": 2501,
  "\u2581\u010fivesa": 2502,
  "\u2581sta": 2503,
  "\u2581SO": 2504,
  "\u2581dab": 2505,
  "\u2581thona": 2506,
  "aven": 2507,
  "\u2581getosarde": 2508,
  "\u2581zakonosko": 2509,
  "\u2581shavenge": 2510,
  "\u2581shudine": 2511,
  "\u2581pasturi": 2512,
  "\u2581mudares": 2513,
  "\u2581Tradia": 2514,
  "\u2581Ur": 2515,
  "Amar": 2516,
  "\u2581diesesko": 2517,
  "\u2581jes": 2518,
  "\u2581ashunav": 2519,
  "?'": 2520,
  "\u2581atsave": 2521,
  "\u2581siti": 2522,
  "\u2581Raj": 2523,
  "\u2581ashundias": 2524,
  "ji": 2525,
  "\u2581lenca": 2526,
  "\u2581tato": 2527,
  "\u2581jin": 2528,
  "\u2581shunuto": 2529,
  "\u2581Nashti": 2530,
  "\u2581pelia": 2531,
  "\u2581marena": 2532,
  "\u2581luvudila": 2533,
  "\u2581manu\u0161es": 2534,
  "\u2581lazhal": 2535,
  "\u2581dadeske": 2536,
  "\u2581avle": 2537,
  "\u2581ba": 2538,
  "\u2581sapa": 2539,
  "\u2581primin": 2540,
  "\u2581preznaisar": 2541,
  "\u2581cu": 2542,
  "eren": 2543,
  "\u2581doshardia": 2544,
  "\u2581kerasa": 2545,
  "am": 2546,
  "\u2581barvalia": 2547,
  "\u2581sakones": 2548,
  "\u2581hodini": 2549,
  "ata": 2550,
  "\u2581chidelas": 2551,
  "\u2581phush": 2552,
  "\u2581vo": 2553,
  "\u2581mangesa": 2554,
  "\u2581kodolesa": 2555,
  "\u2581Man": 2556,
  "\u2581bariaren": 2557,
  "\u2581groposard": 2558,
  "ni": 2559,
  "\u2581luvudisar": 2560,
  "\u2581bakre": 2561,
  "\u2581ramon": 2562,
  "\u2581pachana": 2563,
  "Kadal": 2564,
  "\u2581kan": 2565,
  "\u2581zhuti": 2566,
  "olpe": 2567,
  "ale": 2568,
  "\u2581traiisarasa": 2569,
  "avas": 2570,
  "\u2581Save": 2571,
  "\u2581G": 2572,
  "\u2581garadia": 2573,
  "\u2581marela": 2574,
  "Amen": 2575,
  "\u2581getol": 2576,
  "\u2581pravare": 2577,
  "ene": 2578,
  "he": 2579,
  "\u2581kolavre": 2580,
  "lenpe": 2581,
  "\u2581keresa": 2582,
  "ph": 2583,
  "a\u0165e\u013e": 2584,
  "\u2581duie": 2585,
  "bo": 2586,
  "Khonik": 2587,
  "\u2581phires": 2588,
  "\u2581pupui": 2589,
  "\u2581wushar": 2590,
  "Cho": 2591,
  "\u2581zakonoske": 2592,
  "\u2581meklias": 2593,
  "\u2581zhangli": 2594,
  "\u2581trobulsardia": 2595,
  "Katar": 2596,
  "\u2581Ta": 2597,
  "g": 2598,
  "\u2581shinadi": 2599,
  "turia": 2600,
  "P": 2601,
  "okim": 2602,
  "\u2581akhardias": 2603,
  "\u2581pri": 2604,
  "ria": 2605,
  "\u2581xasavon": 2606,
  "\u2581jili": 2607,
  "\u2581nekezhin": 2608,
  "\u2581zumadia": 2609,
  "\u2581perv": 2610,
  "\u2581ternaxar": 2611,
  "\u0148in\u010fa": 2612,
  "IJA": 2613,
  "\u2581Athens": 2614,
  "\u2581Beelzebub": 2615,
  "\u2581Bethsaida": 2616,
  "\u2581Cyprus": 2617,
  "\u2581Galatia": 2618,
  "\u2581Iconium": 2619,
  "\u2581glasuria": 2620,
  "\u2581neksigeder": 2621,
  "\u2581organizacija": 2622,
  "\u2581zhroma\u017e\u010fe\u0148a": 2623,
  "\u2581Alexander": 2624,
  "\u2581veli\u0165e\u013eis": 2625,
  "\u2581nekbareder": 2626,
  "\u2581Traioski": 2627,
  "\u2581figenge": 2628,
  "\u2581chachimaski": 2629,
  "\u2581demonenca": 2630,
  "\u2581halome": 2631,
  "\u2581chaben": 2632,
  "\u2581Simeon": 2633,
  "\u2581a\u010dhile": 2634,
  "\u2581swuntsosardia": 2635,
  "\u2581dilimos": 2636,
  "\u2581Zion": 2637,
  "\u2581\u010dhavenca": 2638,
  "\u2581devlenge": 2639,
  "\u2581kamau": 2640,
  "\u2581duvar": 2641,
  "\u2581sprind\u017earel": 2642,
  "\u2581mo\u017eno": 2643,
  "\u2581s\u013eubin\u010fa": 2644,
  "\u2581lunzhardia": 2645,
  "\u2581ko\u00e8e": 2646,
  "\u2581proroctvos": 2647,
  "\u2581be\u0161el": 2648,
  "\u2581phaka": 2649,
  "\u2581chra\u0148inel": 2650,
  "antsi": 2651,
  "\u2581iakhensa": 2652,
  "\u2581bandilo": 2653,
  "\u2581Skepitori": 2654,
  "Manushale": 2655,
  "\u2581odmukhel": 2656,
  "\u2581merimos": 2657,
  "\u2581suno": 2658,
  "\u2581papucha": 2659,
  "\u2581governori": 2660,
  "\u2581phares": 2661,
  "\u2581zahrada": 2662,
  "\u2581luvudimasko": 2663,
  "\u2581pharhavel": 2664,
  "\u2581mudarela": 2665,
  "\u2581proroctva": 2666,
  "\u2581nashle": 2667,
  "\u2581dadenge": 2668,
  "\u2581boldiape": 2669,
  "\u2581Nathan": 2670,
  "\u2581pherdilo": 2671,
  "\u2581chorimos": 2672,
  "\u2581slu\u017eob\u0148ika": 2673,
  "\u2581sigeder": 2674,
  "\u2581het": 2675,
  "\u2581gropa": 2676,
  "\u2581swuntsi": 2677,
  "\u2581londo": 2678,
  "\u2581Troas": 2679,
  "\u2581fame\u013eijaha": 2680,
  "\u2581nabo\u017eenstva": 2681,
  "\u2581sluga\u010fa": 2682,
  "\u2581slugensa": 2683,
  "\u2581sastile": 2684,
  "\u2581Kamelas": 2685,
  "\u2581o\u00e8e": 2686,
  "\u2581(1.": 2687,
  "\u2581go\u010faver": 2688,
  "\u2581bango": 2689,
  "\u2581alestar": 2690,
  "\u2581inger": 2691,
  "\u2581\u0161unes": 2692,
  "\u2581kres\u0165ana": 2693,
  "\u2581themeske": 2694,
  "\u2581shinadiasas": 2695,
  "\u2581rom\u0148ake": 2696,
  "\u2581Phenenas": 2697,
  "\u2581rhavdasa": 2698,
  "\u2581shibasa": 2699,
  "\u2581genel": 2700,
  "\u2581manglemas": 2701,
  "\u2581iertimele": 2702,
  "\u2581bariardia": 2703,
  "\u2581hulavel": 2704,
  "\u2581kapitano": 2705,
  "\u2581zhuvliako": 2706,
  "\u2581wuch": 2707,
  "\u2581zname\u0148inel": 2708,
  "\u2581genas": 2709,
  "\u2581aresel": 2710,
  "\u2581shil": 2711,
  "\u2581paia": 2712,
  "\u2581jean": 2713,
  "\u2581Savi": 2714,
  "\u2581azhukerenas": 2715,
  "\u2581masho": 2716,
  "\u2581iertisardia": 2717,
  "\u2581korhen": 2718,
  "\u2581zharo": 2719,
  "\u2581podain": 2720,
  "\u2581radisa\u013eon": 2721,
  "\u2581\u010dhiba": 2722,
  "\u2581\u0148isav": 2723,
  "\u2581mod\u013einen": 2724,
  "\u2581pachako": 2725,
  "\u2581bariarenas": 2726,
  "\u2581kra\u013eiske": 2727,
  "este": 2728,
  "\u2581zhungales": 2729,
  "\u2581chinuiv": 2730,
  "\u2581shipk": 2731,
  "heiorhi": 2732,
  "\u2581glasosa": 2733,
  "ilo": 2734,
  "\u2581astarel": 2735,
  "\u2581luvudinas": 2736,
  "\u2581Shavesko": 2737,
  "\u2581rhivdil": 2738,
  "\u2581lena": 2739,
  "\u2581vurhitsin": 2740,
  "\u2581haliares": 2741,
  "\u2581phagen": 2742,
  "rado": 2743,
  "imasko": 2744,
  "\u2581phirdia": 2745,
  "\u2581rovena": 2746,
  "pa": 2747,
  "ias": 2748,
  "\u2581liono": 2749,
  "\u2581parha": 2750,
  "\u2581sastiaren": 2751,
  "\u2581j": 2752,
  "bi": 2753,
  "\u2581manusheski": 2754,
  "3": 2755,
  "\u2581astardia": 2756,
  "\u2581kein": 2757,
  "\u2581beshli": 2758,
  "\u2581dikhesa": 2759,
  "\u2581unen": 2760,
  "kh": 2761,
  "\u2581griatsa": 2762,
  "\u2581Vaker": 2763,
  "so": 2764,
  "tiri": 2765,
  "\u2581phenasa": 2766,
  "\u010di": 2767,
  "\u2581Jesusosa": 2768,
  "\u258123": 2769,
  "ael": 2770,
  "\u2581xasar": 2771,
  "ca": 2772,
  "\u2581traiisardia": 2773,
  "\u2581dand": 2774,
  "\u2581J\u00e1n": 2775,
  "\u2581Radui": 2776,
  "\u2581kuk": 2777,
  "kane": 2778,
  "16)": 2779,
  "\u2581Cho": 2780,
  "\u0103": 2781,
  "\u2581bushon": 2782,
  "\u2581phenesa": 2783,
  "\u2581Kam": 2784,
  "\u2581phanden": 2785,
  "\u2581Dadesk": 2786,
  "lape": 2787,
  "\u2581bichindia": 2788,
  "za": 2789,
  "\u2581kritsini": 2790,
  "\u2581xasa": 2791,
  "\u2581kamela": 2792,
  "oski": 2793,
  "Zh": 2794,
  "haj": 2795,
  "\u2581chidena": 2796,
  "\u2581angl": 2797,
  "\u2581krisa": 2798,
  "\u2581prea\u010dhe": 2799,
  "\u0165i": 2800,
  "\u2581Rode": 2801,
  "\u2581Paul": 2802,
  "diasas": 2803,
  "\u2581sha": 2804,
  "shte": 2805,
  "Besh": 2806,
  "leskero": 2807,
  "huvlio": 2808,
  "\u2581Kod": 2809,
  "\u2581anas": 2810,
  "\u2581Pro": 2811,
  "\u2581pestar": 2812,
  "\u2581marelas": 2813,
  "\u2581garav": 2814,
  "\u2581mang": 2815,
  "\u2581mardia": 2816,
  "\u2581fi": 2817,
  "pasturi": 2818,
  "dias": 2819,
  "\u2581pachaia": 2820,
  "\u2581bino": 2821,
  "cha": 2822,
  "\u2581shord": 2823,
  "\u2581pashil": 2824,
  "\u2581thava": 2825,
  "\u2581kuch": 2826,
  "\u010da": 2827,
  "\u2581purhisar": 2828,
  "\u2581Petr": 2829,
  "\u2581Savor": 2830,
  "\u2581Ce": 2831,
  "\u2581drabar": 2832,
  "\u2581rimosar": 2833,
  "3)": 2834,
  "ari": 2835,
  "\u2581lazhan": 2836,
  "\u2581pastux": 2837,
  "ho": 2838,
  "\u2581zhutis": 2839,
  "Lash": 2840,
  "\u2581chidenas": 2841,
  "\u2581vurdon": 2842,
  "\u2581Timotej": 2843,
  "DO": 2844,
  "\u2581brazb": 2845,
  "\u2581talaz": 2846,
  "\u2581fo": 2847,
  "\u2581pharipen": 2848,
  "\u2581th": 2849,
  "\u2581varesav": 2850,
  "\u2581Jozija\u0161": 2851,
  "\u2581Izrael\u010dan": 2852,
  "\u2581slabo": 2853,
  "\u2581bichinen": 2854,
  "ablos": 2855,
  "mata": 2856,
  "\u2581vakeren": 2857,
  "\u2581musura": 2858,
  "\u2581chudin": 2859,
  "uguro": 2860,
  "\u2581Cephas": 2861,
  "\u2581Laodicea": 2862,
  "\u2581Priscilla": 2863,
  "\u2581asuensa": 2864,
  "\u2581dvole\u017eito": 2865,
  "\u2581figengi": 2866,
  "\u2581greposhevuria": 2867,
  "\u2581k\u0148i\u017e\u0148ica": 2868,
  "\u2581luluji": 2869,
  "\u2581pamphuri": 2870,
  "\u2581prind\u017earen": 2871,
  "\u2581strefaimos": 2872,
  "\u2581sulfer": 2873,
  "\u2581vushalin": 2874,
  "\u2581\u010dasopisi": 2875,
  "pokrs\u0165inel": 2876,
  "\u010di\u0165e": 2877,
  "\u2581Phu\u010d": 2878,
  "\u2581kashuke": 2879,
  "\u2581priklados": 2880,
  "\u2581slu\u017eba": 2881,
  "\u2581chunuria": 2882,
  "\u2581potopa": 2883,
  "\u2581masharia": 2884,
  "\u2581rhindo": 2885,
  "\u2581khashtensa": 2886,
  "\u2581stanos": 2887,
  "\u2581avjin": 2888,
  "\u2581vitselo": 2889,
  "\u2581cho\u013eamen": 2890,
  "\u2581stakla": 2891,
  "\u2581zhutitori": 2892,
  "\u2581duchovn": 2893,
  "\u2581du\u0161a": 2894,
  "\u2581khan\u00e8i": 2895,
  "\u2581numero": 2896,
  "\u2581zjazdos": 2897,
  "\u2581maladiol": 2898,
  "\u2581saikfialo": 2899,
  "\u2581luvudisavas": 2900,
  "\u2581bachtalo": 2901,
  "\u2581Kristus": 2902,
  "\u2581haliarimos": 2903,
  "\u2581chudinaspe": 2904,
  "\u2581sumnakasa": 2905,
  "\u2581naroduria": 2906,
  "\u2581ansurinpe": 2907,
  "\u2581sakra": 2908,
  "\u2581thud": 2909,
  "\u2581pozno": 2910,
  "\u2581vushtilo": 2911,
  "org": 2912,
  "\u2581budinel": 2913,
  "\u2581lashimasko": 2914,
  "\u2581\u0148isostar": 2915,
  "\u2581barimatango": 2916,
  "\u2581klishki": 2917,
  "\u2581chidinisailo": 2918,
  "\u2581bokhailo": 2919,
  "\u2581xasardo": 2920,
  "\u2581tuk\u00e5": 2921,
  "\u2581boldinisailo": 2922,
  "\u2581cikno": 2923,
  "\u2581ansurisailo": 2924,
  "\u2581odva\u017eno": 2925,
  "\u2581wushtili": 2926,
  "\u2581dukhado": 2927,
  "mpuria": 2928,
  "\u2581parhude": 2929,
  "\u2581solaxadias": 2930,
  "\u2581cheresko": 2931,
  "\u2581shuri": 2932,
  "\u2581Bakriorhoski": 2933,
  "\u2581dokonalo": 2934,
  "\u2581Mangen": 2935,
  "\u2581vi\u010dinelas": 2936,
  "\u2581Sinai": 2937,
  "\u2581keinpe": 2938,
  "\u2581Filiposke": 2939,
  "\u2581vuriardo": 2940,
  "\u2581bararen": 2941,
  "\u2581mang\u00e5": 2942,
  "\u2581star\u0161i": 2943,
  "\u2581punrhensa": 2944,
  "\u2581tasade": 2945,
  "\u2581fundania": 2946,
  "\u2581kh\u0103r": 2947,
  "\u2581zhuvliansa": 2948,
  "\u2581lovensa": 2949,
  "\u2581romeske": 2950,
  "\u2581nachinaisardia": 2951,
  "\u2581aresena": 2952,
  "\u2581loli": 2953,
  "\u2581alosardem": 2954,
  "\u2581Petreske": 2955,
  "\u2581Kamel": 2956,
  "\u2581ratesa": 2957,
  "\u2581phend\u017eas": 2958,
  "ER": 2959,
  "\u2581prinzharen": 2960,
  "\u2581anglun": 2961,
  "\u2581Eden": 2962,
  "\u2581phurenge": 2963,
  "\u2581kanchesko": 2964,
  "\u2581aresas": 2965,
  "\u2581vazdav": 2966,
  "\u2581bakriorhe": 2967,
  "\u2581durilo": 2968,
  "\u2581od\u010dhivel": 2969,
  "\u2581putieri": 2970,
  "\u2581Josefosko": 2971,
  "\u2581sovenas": 2972,
  "\u2581glati": 2973,
  "\u2581Ar": 2974,
  "\u2581arakhelpe": 2975,
  "\u2581\u013eid\u017eal": 2976,
  "\u2581chungarde": 2977,
  "\u2581\u013eikerel": 2978,
  "Po": 2979,
  "\u2581Hai": 2980,
  "\u2581bezexalenge": 2981,
  "\u2581peravel": 2982,
  "\u2581xoxamno": 2983,
  "\u2581Cain": 2984,
  "\u2581\u0161unelas": 2985,
  "\u2581themesko": 2986,
  "\u2581vortakon": 2987,
  "\u2581dau": 2988,
  "\u2581duzhmanon": 2989,
  "\u2581Plai": 2990,
  "\u2581shavensa": 2991,
  "\u2581zakonoski": 2992,
  "\u2581mulenge": 2993,
  "\u2581sikh\u013eol": 2994,
  "\u2581Anklist": 2995,
  "\u2581manglias": 2996,
  "\u2581Garav": 2997,
  "\u2581Timotejo": 2998,
  "\u2581Duxoske": 2999,
  "\u2581zhasa": 3000,
  "\u2581paiesko": 3001,
  "\u2581rovenas": 3002,
  "\u2581zhuvliasa": 3003,
  "\u2581sikado": 3004,
  "\u2581daratar": 3005,
  "\u2581zhavtar": 3006,
  "\u2581xasavola": 3007,
  "\u2581hulaven": 3008,
  "\u2581kasavi": 3009,
  ":4)": 3010,
  "odia": 3011,
  "\u2581Var": 3012,
  "\u2581bezexalen": 3013,
  "\u2581chibi": 3014,
  "\u2581tromal": 3015,
  "Ker": 3016,
  "Av": 3017,
  "\u2581prost": 3018,
  "\u2581sav": 3019,
  "\u2581aterdiol": 3020,
  "\u2581genen": 3021,
  "\u2581Nev": 3022,
  "\u2581dukha": 3023,
  "Dav": 3024,
  "ivar": 3025,
  "ve": 3026,
  "\u2581rroma": 3027,
  "\u2581xaladia": 3028,
  "\u2581Ker": 3029,
  "\u2581traiisarde": 3030,
  "\u2581Mothol": 3031,
  "\u2581pa\u010dinel": 3032,
  "\u2581Slu\u017ein": 3033,
  "\u2581Satano": 3034,
  "\u2581arakhes": 3035,
  "5)": 3036,
  "\u2581Ramo": 3037,
  "\u2581buchari": 3038,
  "iro": 3039,
  "\u2581saves": 3040,
  "\u2581xo": 3041,
  "avestar": 3042,
  "area": 3043,
  "\u2581solax": 3044,
  "\u2581\u0148ebesk": 3045,
  "\u2581luvudisardem": 3046,
  "\u2581meklem": 3047,
  "\u2581riga": 3048,
  "\u2581Zha": 3049,
  "\u2581u\u0161tad": 3050,
  "\u2581Cyren": 3051,
  "\u2581marav": 3052,
  "\u2581zh": 3053,
  "\u2581chik": 3054,
  "\u2581iertila": 3055,
  "\u2581bariarde": 3056,
  "\u2581Paulos": 3057,
  "\u2581phirav": 3058,
  "\u2581bokh": 3059,
  "\u2581kada": 3060,
  "Adies": 3061,
  "\u2581d\u017eas": 3062,
  "ul": 3063,
  "\u2581Kar": 3064,
  "\u2581vuzhard": 3065,
  "diape": 3066,
  "ime": 3067,
  "ch": 3068,
  "\u2581suv": 3069,
  "\u2581Meklia": 3070,
  "\u2581zhuvinde": 3071,
  "\u2581dziliare": 3072,
  "\u2581pu": 3073,
  "\u2581zhutisarde": 3074,
  "avel": 3075,
  "hi": 3076,
  "masa": 3077,
  "sto": 3078,
  "saras": 3079,
  "sardem": 3080,
  "\u2581varekas": 3081,
  "\u2581svetoske": 3082,
  "\u2581kamena": 3083,
  "\u2581pate": 3084,
  "\u2581Devlesker": 3085,
  "\u2581chindia": 3086,
  "je": 3087,
  "\u2581dashtil": 3088,
  "\u2581azhuker": 3089,
  "\u2581dukhavel": 3090,
  "ba": 3091,
  "\u2581profesia": 3092,
  "\u2581Dem": 3093,
  "\u2581Per": 3094,
  "aras": 3095,
  "\u2581zurali": 3096,
  "rug": 3097,
  "\u2581buti": 3098,
  "ren": 3099,
  "\u2581kerelpe": 3100,
  "ter": 3101,
  "dar": 3102,
  "Luk": 3103,
  "F": 3104,
  "osa": 3105,
  "tus": 3106,
  "\u2581ningeren": 3107,
  "s\u0148e": 3108,
  "ake": 3109,
  "dino": 3110,
  "DA": 3111,
  "a\u013ei": 3112,
  "\u2581v\u0161": 3113,
  "ere": 3114,
  "\u2581skepitores": 3115,
  "\u2581kh\u0103": 3116,
  "\u2581shud": 3117,
  "ion": 3118,
  "\u2581bacht": 3119,
  "tha": 3120,
  "\u2581mur": 3121,
  "\u2581Eu": 3122,
  "\u2581trobulsarde": 3123,
  "\u2581zhanela": 3124,
  "\u2581naisisardia": 3125,
  "ras": 3126,
  "\u2581Avil": 3127,
  "aki": 3128,
  "\u2581sado": 3129,
  "Iza": 3130,
  "\u2581Kash": 3131,
  "dav": 3132,
  "\u2581Pacha": 3133,
  "\u2581premisar": 3134,
  "\u2581vu": 3135,
  "\u2581xalade": 3136,
  "\u2581zhanglin": 3137,
  "Mar": 3138,
  "\u2581Sam": 3139,
  "\u2581\u010dha": 3140,
  "\u2581purhi": 3141,
  "\u2581vaker": 3142,
  "woi": 3143,
  "Ashunen": 3144,
  "\u2581Mange": 3145,
  "hrjechos": 3146,
  "Nashti": 3147,
  "\u2581in": 3148,
  "Simon": 3149,
  "Shoxar": 3150,
  "Dikhlia": 3151,
  "Saul": 3152,
  "\u2581Mar": 3153,
  "Swako": 3154,
  "\u2581xoxav": 3155,
  "7": 3156,
  "Dikhen": 3157,
  "\u2581Mudar": 3158,
  "Apo": 3159,
  "\u2581kolavres": 3160,
  "\u2581Manga": 3161,
  "\u2581nashel": 3162,
  "\u2581zachra\u0148in": 3163,
  "\u2581\u0161un": 3164,
  "J": 3165,
  "\u2581astar": 3166,
  "\u2581ca": 3167,
  "\u2581Isaak": 3168,
  "\u2581pachiva": 3169,
  "Sas": 3170,
  "\u2581Vuzh": 3171,
  "\u2581gonisard": 3172,
  "\u2581ramol": 3173,
  "\u2581bakro": 3174,
  "NG": 3175,
  "6)": 3176,
  "kana": 3177,
  "\u2581traiis": 3178,
  "\u00e1r\u00e1": 3179,
  "\u2581par": 3180,
  "lom": 3181,
  "\u2581bolden": 3182,
  "\u2581acha\u013eon": 3183,
  "\u2581falo\u0161n": 3184,
  "\u2581phu\u010den": 3185,
  "\u2581Jehova": 3186,
  "\u2581khanch": 3187,
  "olas": 3188,
  "'.": 3189,
  "\u2581Dikhle": 3190,
  "ng\u00e5": 3191,
  "ndine": 3192,
  "lishka": 3193,
  "\u2581Lazar": 3194,
  "\u2581s\u00eeteo": 3195,
  "\u2581roz": 3196,
  "\u2581chikhat": 3197,
  "\u2581Izrael": 3198,
  "\u2581Alphaeusosko": 3199,
  "\u2581Bethany": 3200,
  "\u2581Elijezer": 3201,
  "\u2581Gomorrah": 3202,
  "\u2581Iagaki": 3203,
  "\u2581Izaja\u0161": 3204,
  "\u2581Nicodemus": 3205,
  "\u2581Tarsus": 3206,
  "\u2581Tyre": 3207,
  "\u2581dar\u010dekos": 3208,
  "\u2581dzeka": 3209,
  "\u2581galbano": 3210,
  "\u2581garchitsaki": 3211,
  "\u2581gulumbo": 3212,
  "\u2581lunzhi": 3213,
  "\u2581miazutso": 3214,
  "\u2581rhuzhin": 3215,
  "\u2581ubli\u017einel": 3216,
  "\u2581u\u017eitkos": 3217,
  "\u2581ve\u017ea": 3218,
  "\u2581bo\u013eip": 3219,
  "redstavin": 3220,
  "\u2581Westo": 3221,
  "\u2581prachos": 3222,
  "\u2581koltsuria": 3223,
  "\u2581vuzharen": 3224,
  "\u2581Thessalonica": 3225,
  "\u2581Gaius": 3226,
  "\u2581Jason": 3227,
  "\u2581sarancha": 3228,
  "\u2581zhonis": 3229,
  "\u2581zachra\u0148imen": 3230,
  "\u2581vulitsi": 3231,
  "\u2581apsa": 3232,
  "\u25811914": 3233,
  "\u2581skepimasko": 3234,
  "\u2581naisimaske": 3235,
  "Phrala": 3236,
  "\u2581niamuria": 3237,
  "\u2581James": 3238,
  "\u2581s\u00eekaimos": 3239,
  "\u2581veselo": 3240,
  "\u2581Jekhvar": 3241,
  "\u2581bister": 3242,
  "\u2581mishtimata": 3243,
  "\u2581mishtimasa": 3244,
  "\u2581slu\u017eob\u0148ikos": 3245,
  "\u2581kovlimos": 3246,
  "\u2581tseri": 3247,
  "\u2581xulavel": 3248,
  "ATO": 3249,
  "\u2581bi\u010dha\u010fa": 3250,
  "\u2581ziduria": 3251,
  "\u2581bashlo": 3252,
  "\u2581swuntsomos": 3253,
  "\u2581asua": 3254,
  "\u2581s\u013eubinel": 3255,
  "\u2581Gindi": 3256,
  "\u2581aterdios": 3257,
  "\u2581chachimasko": 3258,
  "\u2581shtala": 3259,
  "\u2581pijel": 3260,
  "\u2581raduilpe": 3261,
  "\u2581avrenca": 3262,
  "\u2581sikaimos": 3263,
  "\u2581azhukerimos": 3264,
  "\u2581lovenca": 3265,
  "krst": 3266,
  "\u2581k\u0103r\u0103": 3267,
  "\u2581Je\u017ei\u0161oha": 3268,
  "\u2581buntuilpe": 3269,
  "\u2581zhuvindime": 3270,
  "\u2581vzburinde": 3271,
  "\u2581Canaan": 3272,
  "\u2581Je\u017ei\u0161ostar": 3273,
  "\u2581raduisailo": 3274,
  "\u2581kancheste": 3275,
  "\u2581\u00e8easo": 3276,
  "\u2581rezako": 3277,
  "\u2581Diana": 3278,
  "\u2581getolape": 3279,
  "\u2581phaglo": 3280,
  "\u2581pred\u017eiven": 3281,
  "\u2581rom\u0148ija": 3282,
  "\u2581rovelas": 3283,
  "\u2581nashtisaras": 3284,
  "\u2581eriate": 3285,
  "\u2581Zebedeske": 3286,
  "\u2581kox": 3287,
  "\u2581alosarde": 3288,
  "\u2581dikhimos": 3289,
  "\u2581sakoneske": 3290,
  "\u2581a\u010dhen": 3291,
  "\u2581zachra\u0148inel": 3292,
  "\u2581nirisardem": 3293,
  "\u2581vladi": 3294,
  "\u2581chailile": 3295,
  "\u2581lashardo": 3296,
  "\u2581plaiin": 3297,
  "\u2581chereske": 3298,
  "\u2581karfosardian": 3299,
  "\u2581zhigenange": 3300,
  "\u2581balensa": 3301,
  "\u2581zme\u0148inel": 3302,
  "\u2581Crete": 3303,
  "\u2581xoliale": 3304,
  "\u2581terdilo": 3305,
  "\u2581shubin": 3306,
  "\u2581dukhade": 3307,
  "\u2581podaisardia": 3308,
  "\u2581ikona": 3309,
  "\u2581shubisailo": 3310,
  "\u2581Bakriorhosko": 3311,
  "\u2581korkores": 3312,
  "\u2581upre": 3313,
  "\u2581phuvake": 3314,
  "\u2581vortakoske": 3315,
  "\u2581Herodias": 3316,
  "\u2581\u0161tudinel": 3317,
  "\u2581vuli": 3318,
  "\u2581\u010disto": 3319,
  "\u2581palmi": 3320,
  "\u2581jinav": 3321,
  "\u2581zoralo": 3322,
  "\u2581Martia": 3323,
  "\u2581vurota": 3324,
  "\u2581maslinenge": 3325,
  "Ramome": 3326,
  "\u2581\u00e8iro": 3327,
  "\u2581pomocn": 3328,
  "\u2581nirisaras": 3329,
  "\u2581pachanape": 3330,
  "\u2581bezexengo": 3331,
  "\u2581Simonoske": 3332,
  "\u2581masleneng": 3333,
  "\u2581Abrahamosko": 3334,
  "\u2581malaven": 3335,
  "\u2581Devleskre": 3336,
  "\u2581raduinpe": 3337,
  "\u2581ankerdiol": 3338,
  "\u2581mulengo": 3339,
  "\u2581duxosko": 3340,
  "\u2581angelonsa": 3341,
  "\u2581\u0161ukares": 3342,
  "\u2581kanikaste": 3343,
  "miro": 3344,
  "\u2581genes": 3345,
  "\u2581sabiasa": 3346,
  "\u2581bengeski": 3347,
  "VO": 3348,
  "\u2581vazdine": 3349,
  "\u2581suluma": 3350,
  "\u2581vudar": 3351,
  "\u2581vuzhardo": 3352,
  "\u2581Akor": 3353,
  "\u2581sovelas": 3354,
  "\u2581zhaluzia": 3355,
  "\u2581haliaras": 3356,
  "\u2581aterdile": 3357,
  "MP": 3358,
  "\u2581lampi": 3359,
  "\u2581kavrestar": 3360,
  "mult": 3361,
  "\u2581xasaras": 3362,
  "\u2581shipki": 3363,
  "\u2581anglune": 3364,
  "rdo": 3365,
  "\u2581bengenge": 3366,
  "\u2581di\u010dhol": 3367,
  "\u2581gindinpe": 3368,
  "\u2581mariako": 3369,
  "\u2581gindosa": 3370,
  "\u2581phraleski": 3371,
  "\u2581Cai": 3372,
  "\u2581korhes": 3373,
  "\u2581Premi": 3374,
  "rus": 3375,
  "\u2581Tro": 3376,
  "\u2581phabola": 3377,
  "\u2581chinenas": 3378,
  "\u2581dake": 3379,
  "\u2581inkerdia": 3380,
  "\u2581Kal": 3381,
  "\u2581Mate": 3382,
  "\u2581Judahosk": 3383,
  "\u2581traiiva": 3384,
  "\u2581zhanglias": 3385,
  "\u2581ph": 3386,
  "\u2581shor": 3387,
  "\u2581duien": 3388,
  "\u2581pa\u0148i": 3389,
  "\u2581amperatos": 3390,
  "tsi": 3391,
  "\u2581kristo": 3392,
  "\u2581dako": 3393,
  "\u2581pelias": 3394,
  "\u2581skepisaile": 3395,
  "\u2581rupune": 3396,
  "\u2581zhavatar": 3397,
  "\u2581vulist": 3398,
  "\u2581Mich": 3399,
  "\u2581Mang": 3400,
  "\u2581iertiv": 3401,
  "\u2581Ph": 3402,
  "\u2581Thode": 3403,
  "\u2581goniv": 3404,
  "ardem": 3405,
  "\u2581doshares": 3406,
  "\u2581vorbasa": 3407,
  "\u2581nango": 3408,
  "0": 3409,
  "\u2581kidel": 3410,
  "\u2581lilla": 3411,
  "\u25814)": 3412,
  "\u2581\u0161unena": 3413,
  "\u2581bichin": 3414,
  "\u2581sprav": 3415,
  "\u2581kampela": 3416,
  "\u2581mishki": 3417,
  "alo": 3418,
  "\u2581i\u013ea": 3419,
  "\u2581respektil": 3420,
  "\u2581romes": 3421,
  "\u2581no": 3422,
  "\u2581maili": 3423,
  "\u2581phandel": 3424,
  "tiva": 3425,
  "\u2581sastiarela": 3426,
  "\u2581xalavel": 3427,
  "\u2581xasare": 3428,
  "\u2581akhar": 3429,
  "\u2581dragostiasa": 3430,
  "\u2581profeti": 3431,
  "\u2581parni": 3432,
  "\u2581peskro": 3433,
  "\u2581\u013eil": 3434,
  "\u2581nakhas": 3435,
  "igeder": 3436,
  "chudena": 3437,
  "\u2581manushendar": 3438,
  "\u2581mekes": 3439,
  "\u2581dichola": 3440,
  "\u2581placha": 3441,
  "\u2581Patea": 3442,
  "xo": 3443,
  "\u2581gurumlia": 3444,
  "\u258122": 3445,
  "\u2581ankles": 3446,
  "tse": 3447,
  "\u2581zhanatar": 3448,
  "IK": 3449,
  "\u25813:16": 3450,
  "\u2581Dadesa": 3451,
  "\u2581skepi": 3452,
  "\u2581ierti": 3453,
  "\u2581zhanavas": 3454,
  "\u2581rh": 3455,
  "\u2581pashon": 3456,
  "\u2581bakriorhan": 3457,
  "\u2581sastili": 3458,
  "\u2581mon": 3459,
  "\u2581pachanas": 3460,
  "\u2581Swuntsom": 3461,
  "ashkar": 3462,
  "\u2581dukhal": 3463,
  "sos": 3464,
  "\u2581sicharela": 3465,
  "\u2581ashen": 3466,
  "\u2581charo": 3467,
  "dava": 3468,
  "\u2581aj": 3469,
  "\u2581mangava": 3470,
  "anoske": 3471,
  "nom": 3472,
  "\u2581sastren": 3473,
  "\u2581iertisar": 3474,
  "inel": 3475,
  "Jesus": 3476,
  "\u2581ade": 3477,
  "\u2581zuralel": 3478,
  "\u2581atsadi": 3479,
  "\u2581kerdiolas": 3480,
  "\u2581shindi": 3481,
  "\u2581spidia": 3482,
  "\u2581licharel": 3483,
  "\u2581parhudil": 3484,
  "\u2581sasti": 3485,
  "\u2581Kerdia": 3486,
  "N": 3487,
  "\u2581Ru": 3488,
  "\u2581butiol": 3489,
  "sinel": 3490,
  "\u2581avria": 3491,
  "\u2581alo": 3492,
  "\u2581Les": 3493,
  "\u2581Josefosk": 3494,
  "\u2581u\u0161ta": 3495,
  "\u2581nekezhis": 3496,
  "\u2581Mu": 3497,
  "del": 3498,
  "\u2581bila": 3499,
  "ja": 3500,
  "\u2581chidela": 3501,
  "Sim": 3502,
  "ndo": 3503,
  "\u2581rhevdisar": 3504,
  "or": 3505,
  "\u2581chumidia": 3506,
  "\u2581mudarena": 3507,
  "\u2581Phir": 3508,
  "\u2581sikadili": 3509,
  "\u2581Bari": 3510,
  "\u2581Ji": 3511,
  "\u2581baria": 3512,
  "\u2581duril": 3513,
  "\u2581pochinav": 3514,
  "\u2581Pash": 3515,
  "\u2581Elis": 3516,
  "\u2581lashar": 3517,
  "atsa": 3518,
  "\u2581phanglia": 3519,
  "\u2581rodena": 3520,
  "ven": 3521,
  "\u2581nakhava": 3522,
  "\u2581maj": 3523,
  "ova": 3524,
  "8)": 3525,
  "\u2581kritsinisard": 3526,
  "\u2581Adamosk": 3527,
  "kero": 3528,
  "ardi": 3529,
  "\u2581strugurosk": 3530,
  "orho": 3531,
  "\u2581solaxa": 3532,
  "\u2581bakrore": 3533,
  "\u2581profetosk": 3534,
  "\u2581nav": 3535,
  "\u2581Dine": 3536,
  "ingeras": 3537,
  "tori": 3538,
  "ulo": 3539,
  "\u2581phiri": 3540,
  "\u2581d\u017eid": 3541,
  "\u25811.": 3542,
  "\u2581dashtila": 3543,
  "nel": 3544,
  "\u2581rhevdi": 3545,
  "\u2581sochi": 3546,
  "onge": 3547,
  "\u2581inkerdio": 3548,
  "\u2581Je\u017ei\u0161oske": 3549,
  "\u2581mari": 3550,
  "\u2581sikade": 3551,
  "\u2581beshlia": 3552,
  "lijak": 3553,
  "\u2581kid": 3554,
  "mus": 3555,
  "rel": 3556,
  "zh": 3557,
  "amime": 3558,
  "\u2581Manglema": 3559,
  "\u2581rhevdil": 3560,
  "\u2581g": 3561,
  "\u2581mekena": 3562,
  "\u2581\u0161": 3563,
  "\u2581Th": 3564,
  "\u2581Anen": 3565,
  "hk\u00e5": 3566,
  "\u2581primina": 3567,
  "\u2581ZH": 3568,
  "\u2581thodiam": 3569,
  "\u017e": 3570,
  "\u2581preznai": 3571,
  "\u2581ashundilia": 3572,
  "\u2581chang": 3573,
  "Kote": 3574,
  "cho": 3575,
  "\u2581kamaraten": 3576,
  "\u2581vi\u010din": 3577,
  "\u0148a": 3578,
  "\u2581drab": 3579,
  "ste": 3580,
  "\u2581H": 3581,
  "\u2581zhigene": 3582,
  "\u2581lole": 3583,
  "\u2581zakonos": 3584,
  "\u2581nek": 3585,
  "\u2581zad\u017eive": 3586,
  "\u2581pato": 3587,
  "\u2581\u0161tudine": 3588,
  "\u2581Zh": 3589,
  "thonas": 3590,
  "\u2581d\u017eala": 3591,
  "\u2581phandadia": 3592,
  "\u2581grast": 3593,
  "ea": 3594,
  "losa": 3595,
  "\u2581perena": 3596,
  "30": 3597,
  "lendar": 3598,
  "\u2581beshava": 3599,
  "(": 3600,
  "\u2581hodinis": 3601,
  "ardo": 3602,
  "\u2581ang": 3603,
  "\u2581gurumli": 3604,
  "lesko": 3605,
  "Vushti": 3606,
  "\u2581kavren": 3607,
  "pral": 3608,
  "\u2581han": 3609,
  "Anen": 3610,
  "\u2581s\u013eubi": 3611,
  "uko": 3612,
  "Pala": 3613,
  "Hosana": 3614,
  "Dikhes": 3615,
  "oha": 3616,
  "\u2581mo": 3617,
  "Mishto": 3618,
  "\u2581nashtila": 3619,
  "\u2581troma": 3620,
  "Bari": 3621,
  "\u2581musuril": 3622,
  "xoxamlo": 3623,
  "Kadia": 3624,
  "\u2581manu\u0161enger": 3625,
  "Dar": 3626,
  "\u2581du": 3627,
  "\u2581nakha": 3628,
  "und": 3629,
  "\u2581Joseph": 3630,
  "\u2581She": 3631,
  "\u2581Par": 3632,
  "liarde": 3633,
  "\u2581strefia": 3634,
  "\u2581fiel": 3635,
  "tre": 3636,
  "H": 3637,
  "\u2581iertis": 3638,
  "\u2581On": 3639,
  "\u2581Prek": 3640,
  "\u2581Bachtale": 3641,
  "\u2581kerla": 3642,
  "\u2581d\u017eivela": 3643,
  "pasturia": 3644,
  "\u2581dosharela": 3645,
  "\u2581moros": 3646,
  "Vorta": 3647,
  "\u2581\u0161tudin": 3648,
  "\u2581Dux": 3649,
  "\u2581sung": 3650,
  "\u2581Judah": 3651,
  "\u2581num": 3652,
  "\u2581phuter": 3653,
  "\u2581Kas": 3654,
  "\u2581Greko": 3655,
  "\u2581luvudimas": 3656,
  "San": 3657,
  "\u2581chinosa": 3658,
  "\u2581kh\u00e5l": 3659,
  "\u2581sera": 3660,
  "\u2581shudena": 3661,
  "\u2581kurvis": 3662,
  "\u2581phutr": 3663,
  "\u2581podais": 3664,
  "\u2581phurdel": 3665,
  "\u2581ansuril": 3666,
  "\u2581xalias": 3667,
  "\u2581Vorb": 3668,
  "\u2581xolail": 3669,
  "lenca": 3670,
  "\u2581zhaluzi": 3671,
  "\u2581Isak": 3672,
  "\u2581amar": 3673,
  "\u2581sulum": 3674,
  "\u2581vort": 3675,
  "\u2581Pa\u0165a": 3676,
  "unzhe": 3677,
  "maske": 3678,
  "\u2581tsipin": 3679,
  "\u2581niris": 3680,
  "reznaisar": 3681,
  "\u2581devle": 3682,
  "\u2581izdraia": 3683,
  "\u2581izdrala": 3684,
  "\u2581gemula": 3685,
  "\u2581divinil": 3686,
  "\u2581nirisarde": 3687,
  "\u2581Jekh": 3688,
  "a\u010dipen": 3689,
  "\u2581PHEN": 3690,
  "\u2581Babilon": 3691,
  "\u2581Benjamin": 3692,
  "\u2581Derbe": 3693,
  "\u2581Gadarenes": 3694,
  "\u2581Golijat": 3695,
  "\u2581Lystra": 3696,
  "\u2581Thesalonika": 3697,
  "\u2581Tychicus": 3698,
  "\u2581Zebedoske": 3699,
  "\u2581fundo": 3700,
  "\u2581go\u010faha": 3701,
  "\u2581kaplitsi": 3702,
  "\u2581morchaki": 3703,
  "\u2581nekazuria": 3704,
  "\u2581oslobodzinel": 3705,
  "\u2581pravi\u010fel\u0148e": 3706,
  "\u2581preferato": 3707,
  "\u2581problemos": 3708,
  "\u2581raxamaki": 3709,
  "\u2581rhunjito": 3710,
  "\u2581trankilo": 3711,
  "\u2581vushtiavav": 3712,
  "\u2581webov": 3713,
  "\u2581\u017ea\u013ea": 3714,
  "\u2581Mod\u013ein": 3715,
  "\u2581nekbuter": 3716,
  "\u2581pozoris": 3717,
  "\u2581u\u0161\u0165en": 3718,
  "ompani": 3719,
  "\u2581domukh\u013ea": 3720,
  "\u2581miazutsi": 3721,
  "\u2581nipi": 3722,
  "\u2581pindre": 3723,
  "\u2581Zhutitori": 3724,
  "\u2581prikazinel": 3725,
  "\u2581rhimi": 3726,
  "\u2581spuma": 3727,
  "\u2581veselinpe": 3728,
  "\u2581zhonin": 3729,
  "\u2581amblad": 3730,
  "ervo": 3731,
  "\u2581zanavesk": 3732,
  "\u2581babits": 3733,
  "\u2581Beth": 3734,
  "\u2581skurtiarde": 3735,
  "\u2581Berea": 3736,
  "\u2581chinuimata": 3737,
  "\u2581stvorimen": 3738,
  "\u2581shinaimata": 3739,
  "\u2581izdraimasa": 3740,
  "\u2581zumaimata": 3741,
  "\u2581Aristarchus": 3742,
  "\u2581Pa\u010das": 3743,
  "\u2581cherniol": 3744,
  "\u2581Paluno": 3745,
  "\u2581ciknorestar": 3746,
  "\u2581dobisard": 3747,
  "\u2581reat": 3748,
  "\u2581slava": 3749,
  "\u2581Italia": 3750,
  "\u2581peklos": 3751,
  "\u2581forestar": 3752,
  "\u2581prashav": 3753,
  "\u2581Izak": 3754,
  "\u2581dokon\u010dinel": 3755,
  "\u2581Esau": 3756,
  "zoraleder": 3757,
  "\u2581korona": 3758,
  "\u2581d\u017eivaha": 3759,
  "\u2581huriardo": 3760,
  "\u2581pisin\u010fa": 3761,
  "\u2581\u0161ero": 3762,
  "\u2581pripravinel": 3763,
  "\u2581sumnakun": 3764,
  "\u2581rhugimasko": 3765,
  "\u2581zurailo": 3766,
  "\u2581memeli": 3767,
  "\u2581tsulo": 3768,
  "\u2581aterdilo": 3769,
  "\u2581Iertisar": 3770,
  "\u2581nirimos": 3771,
  "\u2581vzkrjesinel": 3772,
  "\u2581zhuvindengo": 3773,
  "\u2581jeli": 3774,
  "Efez": 3775,
  "\u2581phiravelas": 3776,
  "\u2581tachimos": 3777,
  "\u2581Lot": 3778,
  "\u2581ista": 3779,
  "\u2581pa\u013eikerav": 3780,
  "\u2581u\u010de\u0148ikenge": 3781,
  "\u2581u\u010de\u0148iken": 3782,
  "\u2581fer": 3783,
  "\u2581barzha": 3784,
  "\u2581baba": 3785,
  "\u2581zhiganesko": 3786,
  "\u2581chuchi": 3787,
  "\u2581nasvalo": 3788,
  "Riman": 3789,
  "\u2581Napriklad": 3790,
  "\u2581chikhaturia": 3791,
  "\u2581spl\u0148inde": 3792,
  "\u2581Iakovoski": 3793,
  "\u2581pechil": 3794,
  "\u2581Grekonge": 3795,
  "\u2581Chinui": 3796,
  "\u2581starinen": 3797,
  "\u2581Cana": 3798,
  "\u2581ankli": 3799,
  "\u2581hlasos": 3800,
  "\u2581raduilape": 3801,
  "\u2581moste": 3802,
  "\u2581malado": 3803,
  "\u2581dielensa": 3804,
  "\u2581doria": 3805,
  "\u2581a\u0161arel": 3806,
  "\u2581do\u013eikeras": 3807,
  "\u2581roves": 3808,
  "\u2581teksti": 3809,
  "\u2581Abel": 3810,
  "\u2581phe\u0148a": 3811,
  "\u2581zbori": 3812,
  "\u2581chikake": 3813,
  "\u2581Philippi": 3814,
  "\u2581pa\u013eikeras": 3815,
  "\u2581Iame": 3816,
  "\u2581ketanenge": 3817,
  "\u2581\u010dhavoreske": 3818,
  "\u2581D\u017ea": 3819,
  "\u2581odcirdel": 3820,
  "\u2581jekhvar": 3821,
  "\u2581xoxavav": 3822,
  "\u2581bolenpe": 3823,
  "\u2581naro\u010finel": 3824,
  "\u2581phirade": 3825,
  "\u2581mudarimos": 3826,
  "\u2581pashliolas": 3827,
  "EN": 3828,
  "\u2581krajsko": 3829,
  "\u2581nakhliam": 3830,
  "\u2581Swuntsi": 3831,
  "\u2581kokola": 3832,
  "\u2581Jehovaha": 3833,
  "\u2581klaminel": 3834,
  "\u2581davkerel": 3835,
  "\u2581Savatosko": 3836,
  "\u2581barimasa": 3837,
  "\u2581phoria": 3838,
  "\u2581Isaakosko": 3839,
  "\u258122)": 3840,
  "\u2581\u0161uneha": 3841,
  "\u2581khanensa": 3842,
  "\u2581pobo\u010dka": 3843,
  "\u2581dashtilpe": 3844,
  "\u2581pa\u010dan": 3845,
  "\u2581Israelonge": 3846,
  "\u2581kurkosko": 3847,
  "\u2581ternenge": 3848,
  "\u2581ra\u0161aj": 3849,
  "ghes": 3850,
  "\u2581a\u0161aras": 3851,
  "\u2581sune": 3852,
  "\u2581kontraktosko": 3853,
  "\u2581Apostles": 3854,
  "\u2581muliam": 3855,
  "uila": 3856,
  "\u2581la\u0161o": 3857,
  "\u2581verna": 3858,
  "\u2581nekezhisardia": 3859,
  "\u2581zorales": 3860,
  "\u2581sprind\u017earen": 3861,
  "\u2581chidimos": 3862,
  "\u2581jile": 3863,
  "\u2581Esaia": 3864,
  "\u2581mi\u0161\u013einas": 3865,
  "\u2581\u010dhavenge": 3866,
  "\u00e5r": 3867,
  "\u2581d\u017eanes": 3868,
  "\u2581zoraha": 3869,
  "\u2581nashtisarde": 3870,
  "\u2581pasinel": 3871,
  "\u2581Abrahamos": 3872,
  "\u2581u\u013eahas": 3873,
  "\u2581trpezlivo": 3874,
  "\u2581amenca": 3875,
  "\u2581Than": 3876,
  "\u2581manu\u0161eske": 3877,
  "\u2581pharhado": 3878,
  "\u2581bengengo": 3879,
  "\u2581Phenelas": 3880,
  "\u2581per\u0161a": 3881,
  "\u2581maribena": 3882,
  "\u2581vz": 3883,
  "\u2581izdralas": 3884,
  "\u2581Swuntson": 3885,
  "Ashundiam": 3886,
  "\u2581Petresko": 3887,
  "\u2581jilabav": 3888,
  "eskolk": 3889,
  "av\u013eahas": 3890,
  "\u2581huriarvel": 3891,
  "\u2581tuturazi": 3892,
  "\u2581dashtinas": 3893,
  "\u2581ma\u0161k": 3894,
  "\u2581Zhidovongi": 3895,
  "osta": 3896,
  "chinime": 3897,
  "\u2581Pomo\u017einen": 3898,
  "\u2581pachivale": 3899,
  "\u2581vediaraki": 3900,
  "\u2581hodina": 3901,
  "\u2581na\u0161ti": 3902,
  "\u2581asan": 3903,
  "\u2581Annas": 3904,
  "\u2581kolavrensa": 3905,
  "\u2581martiaki": 3906,
  "\u2581tsan": 3907,
  "\u2581rhomesa": 3908,
  "\u2581dziliaren": 3909,
  "\u2581pa\u0161es": 3910,
  "\u2581asanas": 3911,
  "\u2581Arakh": 3912,
  "\u2581pis": 3913,
  "\u2581Pomo\u017einel": 3914,
  "\u2581inkerela": 3915,
  "\u2581nasva\u013eibena": 3916,
  "\u2581haliardias": 3917,
  "Vortako": 3918,
  "\u2581pupuin": 3919,
  "\u2581alosardiasas": 3920,
  "\u2581(2": 3921,
  "\u258170": 3922,
  "\u2581pugnia": 3923,
  "\u2581skus": 3924,
  "\u2581Phushav": 3925,
  "\u2581avreste": 3926,
  "\u2581kolavreske": 3927,
  "\u2581baxresk": 3928,
  "\u2581raduimesas": 3929,
  "\u2581zhuvliange": 3930,
  "\u2581slu\u017eines": 3931,
  "\u2581angerav": 3932,
  "\u2581Leste": 3933,
  "\u2581pharhave": 3934,
  "\u2581chorhenge": 3935,
  "\u2581murshesko": 3936,
  "\u2581bachtales": 3937,
  "\u2581svjatki": 3938,
  "\u2581pashili": 3939,
  "\u2581korh": 3940,
  "\u2581cho\u013eare": 3941,
  "\u2581chinuisaras": 3942,
  "\u2581ilesko": 3943,
  "\u2581rhevdisaras": 3944,
  "\u2581mi\u0161\u013einen": 3945,
  "\u2581meriti": 3946,
  "\u2581pechin": 3947,
  "\u2581a\u0148jelen": 3948,
  "\u2581tromail": 3949,
  "\u2581\u013eid\u017ean": 3950,
  "\u2581sichardo": 3951,
  "\u2581sicharas": 3952,
  "\u2581marenaspe": 3953,
  "\u2581jeas": 3954,
  "\u2581Pavloski": 3955,
  "\u2581kerdiliasas": 3956,
  "\u2581manu\u0161engero": 3957,
  "\u2581raduiv": 3958,
  "\u2581phur": 3959,
  "chimos": 3960,
  "\u2581falo\u0161na": 3961,
  "\u2581Lav": 3962,
  "\u2581gazdasko": 3963,
  "\u2581phushelas": 3964,
  "\u2581pashua": 3965,
  "\u2581zhuvindiv": 3966,
  "\u2581suvi": 3967,
  "\u2581lashardiol": 3968,
  "\u2581lasholo": 3969,
  "\u2581mu\u013eas": 3970,
  "\u25816:9": 3971,
  "\u2581angelosko": 3972,
  "\u2581luvudinpe": 3973,
  "\u2581nekazosa": 3974,
  "\u2581xalav": 3975,
  "\u2581dikhaha": 3976,
  "\u2581gretsosard": 3977,
  "\u2581xalian": 3978,
  "\u2581ruia": 3979,
  "\u2581mot": 3980,
  "\u017ee": 3981,
  "\u2581savoren": 3982,
  "\u2581spravodlivo": 3983,
  "\u2581chores": 3984,
  "\u2581tsirdin": 3985,
  "\u2581ningerel": 3986,
  "\u2581zhalastar": 3987,
  "\u2581zea": 3988,
  "\u2581Jesusoski": 3989,
  "\u2581jinena": 3990,
  "\u2581gelia": 3991,
  "\u2581Wushten": 3992,
  "\u2581Claudi": 3993,
  "Kudo": 3994,
  "\u2581licharen": 3995,
  "13)": 3996,
  "\u2581Keras": 3997,
  "\u2581gindila": 3998,
  "\u2581Savoro": 3999,
  "\u2581Grebi": 4000,
  "il": 4001,
  "\u2581xalpe": 4002,
  "\u2581bengesko": 4003,
  "\u2581Sh": 4004,
  "slia": 4005,
  "uvas": 4006,
  "\u2581phagle": 4007,
  "\u2581zboro": 4008,
  "\u2581\u010dhavores": 4009,
  "\u2581sikadion": 4010,
  "\u2581nirila": 4011,
  "mo": 4012,
  "\u2581di\u0148as": 4013,
  "\u2581ve": 4014,
  "\u2581U": 4015,
  "\u2581ver": 4016,
  "\u2581Duxosko": 4017,
  "\u2581zhanglo": 4018,
  "\u2581jinas": 4019,
  "\u2581zhastar": 4020,
  "\u2581skut": 4021,
  "\u2581d\u017eivenas": 4022,
  "\u2581be\u0161en": 4023,
  "\u2581apo": 4024,
  "\u2581Davidoske": 4025,
  "\u2581dos": 4026,
  "\u2581viastako": 4027,
  "\u2581traioske": 4028,
  "\u2581grebi": 4029,
  "\u2581pomo\u017einelas": 4030,
  "\u2581\u010dhavore": 4031,
  "\u2581rhespi": 4032,
  "\u2581kodales": 4033,
  "iri": 4034,
  "vaha": 4035,
  "\u2581parhudiol": 4036,
  "\u2581kamav": 4037,
  "\u2581teliarde": 4038,
  "\u2581sikh\u013eo": 4039,
  "\u2581pa\u010div": 4040,
  "lu": 4041,
  "\u2581dikh\u00e5": 4042,
  "\u2581saste": 4043,
  "\u2581Haliar": 4044,
  "\u2581pimos": 4045,
  "\u2581vusharavel": 4046,
  "n\u010fa": 4047,
  "\u2581naisina": 4048,
  "d\u017eaha": 4049,
  "\u2581shudas": 4050,
  "\u2581Ga": 4051,
  "\u2581bi\u010dha": 4052,
  "\u2581xul": 4053,
  "\u2581chinuila": 4054,
  "\u2581manushale": 4055,
  "\u2581avke": 4056,
  "\u2581dinesas": 4057,
  "\u2581bakrorha": 4058,
  "\u2581Shoxar": 4059,
  "uvlio": 4060,
  "\u2581Zhana": 4061,
  "kerel": 4062,
  "\u2581tr": 4063,
  "\u2581bichinel": 4064,
  "\u2581diese": 4065,
  "\u2581pherel": 4066,
  "\u2581zhalatar": 4067,
  "\u2581ru": 4068,
  "ach": 4069,
  "ahk\u00e5": 4070,
  "\u2581izdran": 4071,
  "\u2581arakhenas": 4072,
  "dine": 4073,
  "\u2581bori": 4074,
  "\u2581vachin": 4075,
  "\u2581ankerde": 4076,
  "\u2581Luk": 4077,
  "\u2581lini": 4078,
  "\u2581barola": 4079,
  "\u2581korkore": 4080,
  "\u2581grasteng": 4081,
  "ange": 4082,
  "\u2581kerdiasas": 4083,
  "\u2581st": 4084,
  "\u2581pochinas": 4085,
  "\u2581bario": 4086,
  "\u2581raduisav": 4087,
  "\u2581phabaren": 4088,
  "\u2581rashan": 4089,
  "mon": 4090,
  "\u2581pravaren": 4091,
  "\u2581Tri": 4092,
  "\u2581thodin": 4093,
  "\u2581zhuvlian": 4094,
  "\u2581chidas": 4095,
  "in\u010fa": 4096,
  "\u2581merelas": 4097,
  "\u2581akhares": 4098,
  "uri": 4099,
  "\u2581phagela": 4100,
  "5": 4101,
  "\u2581rimona": 4102,
  "\u2581hal": 4103,
  "\u2581shubil": 4104,
  "\u2581obrazkos": 4105,
  "\u2581bash": 4106,
  "\u2581doshard": 4107,
  "\u2581Ag": 4108,
  "\u2581Phil": 4109,
  "sic": 4110,
  "\u2581zholin": 4111,
  "\u2581Perga": 4112,
  "\u2581luvudina": 4113,
  "iin": 4114,
  "\u2581chinuisardian": 4115,
  "\u2581Dena": 4116,
  "\u2581lasharav": 4117,
  "henav": 4118,
  "\u2581shele": 4119,
  "\u2581nakhav": 4120,
  "\u2581xoliar": 4121,
  "\u2581nais": 4122,
  "\u2581adi": 4123,
  "\u2581murdard": 4124,
  "olo": 4125,
  "9": 4126,
  "Mu": 4127,
  "\u2581postin": 4128,
  "\u2581dikhava": 4129,
  "\u2581sicho": 4130,
  "V": 4131,
  "\u2581zura": 4132,
  "\u2581per": 4133,
  "\u2581Romanong": 4134,
  "den": 4135,
  "\u2581tha": 4136,
  "\u2581tsava": 4137,
  "\u2581Mart": 4138,
  "vendar": 4139,
  "th": 4140,
  "\u2581nashtis": 4141,
  "\u2581Dikhes": 4142,
  "\u2581voli": 4143,
  "ingerdia": 4144,
  "\u2581mod\u013ein": 4145,
  "ori": 4146,
  "\u2581hulav": 4147,
  "Naisi": 4148,
  "\u2581vazdes": 4149,
  "\u2581Hi": 4150,
  "\u2581rhugiva": 4151,
  "\u2581mishti": 4152,
  "len": 4153,
  "\u2581odde": 4154,
  "\u2581Ark": 4155,
  "cirdel": 4156,
  "\u2581pusav": 4157,
  "\u2581milai": 4158,
  "\u2581Amon": 4159,
  "\u2581r": 4160,
  "Pa": 4161,
  "\u2581phe": 4162,
  "\u2581Ad": 4163,
  "\u2581Ser": 4164,
  "\u2581buzhne": 4165,
  "19)": 4166,
  "iake": 4167,
  "\u2581lak": 4168,
  "\u2581Tumen": 4169,
  "\u2581shindias": 4170,
  "akoj": 4171,
  "\u2581Leng": 4172,
  "\u2581bares": 4173,
  "\u2581racha": 4174,
  "rde": 4175,
  "zha": 4176,
  "\u2581dasa": 4177,
  "\u2581pisin": 4178,
  "\u2581zhand": 4179,
  "\u2581mishtil": 4180,
  "And": 4181,
  "\u2581zhutisardian": 4182,
  "\u2581Stephenos": 4183,
  "\u2581\u010dhid": 4184,
  "\u00e5l": 4185,
  "\u2581SA": 4186,
  "\u2581wushtiav": 4187,
  "\u2581banges": 4188,
  "\u2581abiavesk": 4189,
  "\u2581visare": 4190,
  "ute": 4191,
  "\u2581li": 4192,
  "ara": 4193,
  "\u2581iadosk": 4194,
  "iden": 4195,
  "\u2581prea\u010dh": 4196,
  "\u2581von": 4197,
  "\u2581Sabatosk": 4198,
  "arel": 4199,
  "shka": 4200,
  "\u2581patea": 4201,
  "kerdion": 4202,
  "\u2581rimo": 4203,
  "te\u013e": 4204,
  "\u2581xana": 4205,
  "\u2581pomo\u017einena": 4206,
  "\u2581hami": 4207,
  "\u2581dziliar": 4208,
  "\u2581Ti": 4209,
  "leha": 4210,
  "\u2581fame\u013eijen": 4211,
  "\u2581ankerela": 4212,
  "\u2581lem": 4213,
  "\u2581beshena": 4214,
  "\u2581Ela": 4215,
  "\u2581inkeras": 4216,
  "\u2581doshar": 4217,
  "Avel": 4218,
  "\u2581rhevdila": 4219,
  "\u2581pela": 4220,
  "\u2581nekezhil": 4221,
  "\u2581fa": 4222,
  "U": 4223,
  "\u2581phutrena": 4224,
  "\u2581Achai": 4225,
  "\u2581Juda": 4226,
  "\u2581tsirde": 4227,
  "\u2581chorel": 4228,
  "\u2581busho": 4229,
  "\u2581\u013eikeren": 4230,
  "han": 4231,
  "sailo": 4232,
  "and": 4233,
  "\u25812.": 4234,
  "\u2581ro\u010fi": 4235,
  "ikhlem": 4236,
  "vela": 4237,
  "3:18": 4238,
  "menge": 4239,
  "\u2581mekelas": 4240,
  "\u2581lantso": 4241,
  "An": 4242,
  "\u2581podaisar": 4243,
  "Kristo": 4244,
  "\u2581swakone": 4245,
  "cka": 4246,
  "ola": 4247,
  "\u2581sh": 4248,
  "herdo": 4249,
  "\u2581shu": 4250,
  "\u2581ningerdia": 4251,
  "\u2581levos": 4252,
  "\u2581sku\u0161in": 4253,
  "\u2581podaila": 4254,
  "skere": 4255,
  "\u2581angelos": 4256,
  "\u2581draba": 4257,
  "Jilab": 4258,
  "i\u0161": 4259,
  "\u2581gara": 4260,
  "\u2581zhegani": 4261,
  "\u2581Herodos": 4262,
  "ini": 4263,
  "\u2581nashtina": 4264,
  "Shav": 4265,
  "\u013e": 4266,
  "chardo": 4267,
  "vestar": 4268,
  "ashilo": 4269,
  "\u2581busterd": 4270,
  "\u2581thodi": 4271,
  "\u2581lashia": 4272,
  "\u2581Jes": 4273,
  "\u2581shubi": 4274,
  "\u2581Jonas": 4275,
  "\u2581Filipos": 4276,
  "\u2581haliarena": 4277,
  "\u2581slu\u017einena": 4278,
  "\u2581iekavres": 4279,
  "\u2581tsod": 4280,
  "\u2581ketan": 4281,
  "kalo": 4282,
  "\u2581shudela": 4283,
  "\u2581chumid": 4284,
  "\u2581avilia": 4285,
  "op": 4286,
  "\u2581mu\u0161ina": 4287,
  "at": 4288,
  "diol": 4289,
  "\u25815:": 4290,
  "Haliar": 4291,
  "dro": 4292,
  "\u00eera": 4293,
  "data": 4294,
  "ucha": 4295,
  "\u2581Kada": 4296,
  ":6)": 4297,
  "rin": 4298,
  "siv": 4299,
  "bra": 4300,
  "ando": 4301,
  "\u2581zheg": 4302,
  "AI": 4303,
  "\u2581vazdela": 4304,
  "unuch": 4305,
  "fielo": 4306,
  "des": 4307,
  "ode": 4308,
  "\u2581am": 4309,
  "\u2581Bichin": 4310,
  "nca": 4311,
  "\u2581huliste": 4312,
  "ahosko": 4313,
  "\u2581shudes": 4314,
  "\u2581garavela": 4315,
  ":4": 4316,
  "\u2581tsir": 4317,
  "\u2581azbad": 4318,
  "Mila": 4319,
  "ijo": 4320,
  "\u2581astardi": 4321,
  "arte": 4322,
  "\u2581amboldia": 4323,
  "phage": 4324,
  "\u2581duri": 4325,
  "\u2581chudel": 4326,
  "pravo": 4327,
  "maro": 4328,
  "\u2581Zumav": 4329,
  "\u2581phivlian": 4330,
  "\u2581ab": 4331,
  "\u2581chinuisar": 4332,
  "Raduisavo": 4333,
  "ius": 4334,
  "elders": 4335,
  "\u2581fal": 4336,
  "10)": 4337,
  "Jakub": 4338,
  "Ramos": 4339,
  "Sikav": 4340,
  "\u2581getola": 4341,
  "Rhugi": 4342,
  "ikoni": 4343,
  "\u2581Gel": 4344,
  "Arakh": 4345,
  "gdata": 4346,
  "10": 4347,
  "Keren": 4348,
  "Ande": 4349,
  "\u2581rov": 4350,
  "\u2581chuden": 4351,
  "isinel": 4352,
  "a\u010dho": 4353,
  "uas": 4354,
  "Pochin": 4355,
  "\u2581pi": 4356,
  "\u2581gi\u013ea": 4357,
  "\u2581vits": 4358,
  "oni": 4359,
  "Dikhav": 4360,
  "\u2581ti": 4361,
  "18": 4362,
  "\u2581tumar": 4363,
  "Kaj": 4364,
  "\u2581Aaron": 4365,
  "\u2581fial": 4366,
  "\u2581Simonos": 4367,
  "\u2581a\u0148jel": 4368,
  "\u2581swuntso": 4369,
  "\u2581bakriorh": 4370,
  "\u258128": 4371,
  "\u2581krisini": 4372,
  "\u2581scird": 4373,
  "lino": 4374,
  "\u2581ve\u010d": 4375,
  "iolas": 4376,
  "radem": 4377,
  "pri": 4378,
  "ris": 4379,
  "\u2581\u0148ik": 4380,
  "\u010dno": 4381,
  "\u2581vusharad": 4382,
  "\u2581sod": 4383,
  "\u2581Zm": 4384,
  "\u2581d\u017eanena": 4385,
  "\u2581Mo": 4386,
  "\u2581amperetsi": 4387,
  "\u2581zhigani": 4388,
  "\u0161na": 4389,
  "ut": 4390,
  "\u2581zvest": 4391,
  "ip": 4392,
  "\u2581trai": 4393,
  "\u2581shuchil": 4394,
  "f": 4395,
  "\u2581zakon": 4396,
  "\u2581dashtin": 4397,
  "\u2581piias": 4398,
  "\u2581Aves": 4399,
  "dren": 4400,
  "\u2581moxton": 4401,
  "\u2581ankalad": 4402,
  "\u2581pla": 4403,
  "\u2581nasva\u013eiben": 4404,
  "nape": 4405,
  "\u2581skepis": 4406,
  "\u2581betel": 4407,
  "hko": 4408,
  "\u2581dod\u017eanen": 4409,
  "\u2581swuntsol": 4410,
  "\u2581dichili": 4411,
  "\u2581vuzharel": 4412,
  "\u2581kra\u013ei\u0161ag": 4413,
  "\u2581trushal": 4414,
  "\u2581koko": 4415,
  "\u2581dashtisard": 4416,
  "aka": 4417,
  "\u2581Apostle": 4418,
  "unzhar": 4419,
  "\u2581bakria": 4420,
  "\u2581milij": 4421,
  "lobodo": 4422,
  "posled": 4423,
  "\u2581xalad": 4424,
  "Manusha": 4425,
  "\u2581vortachen": 4426,
  "\u2581klamine": 4427,
  "\u2581sastion": 4428,
  "\u2581Premi\u0161\u013ein": 4429,
  "\u2581Kris": 4430,
  "\u2581chacharel": 4431,
  "u\u017eba": 4432,
  "\u2581vzburin": 4433,
  "\u017einel": 4434,
  "\u2581raklo": 4435,
  "\u2581Gramnot": 4436,
  "\u2581pripravi": 4437,
  "azhainona": 4438,
  "\u2581arakhadile": 4439,
  "\u2581Arimath": 4440,
  "\u2581gunoi": 4441,
  "IMO": 4442,
  "humwiia": 4443,
  "pokrs\u0165imen": 4444,
  "tressome": 4445,
  "\u2581Alexandria": 4446,
  "\u2581Augustus": 4447,
  "\u2581Bartholomew": 4448,
  "\u2581Bernice": 4449,
  "\u2581Betlehem": 4450,
  "\u2581Decapolis": 4451,
  "\u2581Epaphr": 4452,
  "\u2581Erastus": 4453,
  "\u2581Gallio": 4454,
  "\u2581Jeremiah": 4455,
  "\u2581Lysias": 4456,
  "\u2581Magdalene": 4457,
  "\u2581Mattath": 4458,
  "\u2581Moj\u017ei\u0161": 4459,
  "\u2581Nekbareder": 4460,
  "\u2581Pentecost": 4461,
  "\u2581Pontius": 4462,
  "\u2581Prind\u017eare": 4463,
  "\u2581Saikfielo": 4464,
  "\u2581Shpania": 4465,
  "\u2581Silvanus": 4466,
  "\u2581Sofonija\u0161": 4467,
  "\u2581Thyatira": 4468,
  "\u2581Timothy": 4469,
  "\u2581Zhiduviska": 4470,
  "\u2581angrusti": 4471,
  "\u2581biznibraznia": 4472,
  "\u2581bro\u017euri": 4473,
  "\u2581b\u0103r\u0161": 4474,
  "\u2581chardako": 4475,
  "\u2581feliastra": 4476,
  "\u2581golumburia": 4477,
  "\u2581hebrejsk": 4478,
  "\u2581hrobos": 4479,
  "\u2581kamblem": 4480,
  "\u2581kriminalita": 4481,
  "\u2581liagano": 4482,
  "\u2581liberte": 4483,
  "\u2581luluja": 4484,
  "\u2581medve\u010fis": 4485,
  "\u2581ochrana": 4486,
  "\u2581odstra\u0148inel": 4487,
  "\u2581otrokos": 4488,
  "\u2581pharaxodo": 4489,
  "\u2581pishtiri": 4490,
  "\u2581pribehi": 4491,
  "\u2581pribehostar": 4492,
  "\u2581prind\u017earel": 4493,
  "\u2581prind\u017eares": 4494,
  "\u2581prostovanes": 4495,
  "\u2581radisa\u013euvas": 4496,
  "\u2581rozdze\u013ein": 4497,
  "\u2581ro\u010fi\u010dja": 4498,
  "\u2581sebeck": 4499,
  "\u2581sirbatiko": 4500,
  "\u2581skepimaski": 4501,
  "\u2581uspokoj": 4502,
  "\u2581votrava": 4503,
  "\u2581vutuime": 4504,
  "\u2581vutuimos": 4505,
  "\u2581wurota": 4506,
  "\u2581zemetrase\u0148a": 4507,
  "\u2581zrachinel": 4508,
  "\u2581\u017eeh\u0148ine": 4509,
  ":26": 4510,
  "\u2581Listra": 4511,
  "\u2581Siloam": 4512,
  "\u2581pachamaski": 4513,
  "\u2581ram\u010dek": 4514,
  "\u2581veselisavas": 4515,
  "\u2581\u010destn": 4516,
  "Rabb": 4517,
  "\u258137:29)": 4518,
  "\u2581Phoenicia": 4519,
  "\u2581Romania": 4520,
  "\u2581savsem": 4521,
  "\u2581vushtiarde": 4522,
  "\u2581westo": 4523,
  "momento": 4524,
  "\u2581\u010doripen": 4525,
  "\u2581Lyc": 4526,
  "\u2581Zakonos": 4527,
  "\u2581leprosi": 4528,
  "\u2581tr\u0103bu": 4529,
  "\u2581galbi": 4530,
  "\u2581Pamphilia": 4531,
  "\u2581rovnako": 4532,
  "\u2581amperetisa": 4533,
  "\u2581tristosailo": 4534,
  "\u2581lajau": 4535,
  "\u2581pharaxoduria": 4536,
  "dvole\u017eiteder": 4537,
  "diamond": 4538,
  "\u2581tsipimasa": 4539,
  "\u2581dragostimasa": 4540,
  "\u2581nekdvole\u017eiteder": 4541,
  "\u2581machol": 4542,
  "\u2581teliardo": 4543,
  "\u2581Chacho": 4544,
  "\u2581Miletus": 4545,
  "\u2581\u0161havo": 4546,
  "\u2581grebisailo": 4547,
  "\u2581vortome": 4548,
  "\u2581obrazki": 4549,
  "\u2581Kampel": 4550,
  "\u2581paramichensa": 4551,
  "\u2581rhocha": 4552,
  "\u2581Daraile": 4553,
  "\u2581zborenge": 4554,
  "\u2581mumunturia": 4555,
  "\u2581raduimastar": 4556,
  "\u2581s\u013eubos": 4557,
  "\u2581kurkesko": 4558,
  "\u2581sakrifikaturia": 4559,
  "\u2581sumnkai": 4560,
  "\u2581svedkos": 4561,
  "\u2581Samaritanuria": 4562,
  "\u2581gojavrenge": 4563,
  "\u2581odphen\u010fa": 4564,
  "\u2581tasule": 4565,
  "\u2581braval": 4566,
  "Skepisardia": 4567,
  "\u2581garu\u010fa": 4568,
  "\u2581tutaraza": 4569,
  "Efta": 4570,
  "\u2581dashtiva": 4571,
  "\u2581plani": 4572,
  "\u2581sikad\u017eas": 4573,
  "\u2581pharhadion": 4574,
  "\u2581tsigniol": 4575,
  "\u2581\u0161unaha": 4576,
  "\u2581krenzhitsi": 4577,
  "\u2581anzar": 4578,
  "\u2581dzilimos": 4579,
  "\u2581\u0165elos": 4580,
  "\u2581Haran": 4581,
  "\u2581mo\u017enos\u0165": 4582,
  "\u2581dragimos": 4583,
  "\u2581acha\u013eos": 4584,
  "\u2581mishkirin": 4585,
  "\u2581shordiol": 4586,
  "\u2581khoro": 4587,
  "\u2581streia": 4588,
  "\u2581d\u017eivipnaha": 4589,
  "\u2581vadra": 4590,
  "\u2581kononuria": 4591,
  "\u2581tampluria": 4592,
  "\u2581arachi": 4593,
  "\u2581xazhainona": 4594,
  "\u2581vi\u010dinel": 4595,
  "\u2581dziliarimos": 4596,
  "\u2581bunda": 4597,
  "\u2581pachamaske": 4598,
  "\u2581sichilem": 4599,
  "\u2581vihrajin": 4600,
  "\u2581gojako": 4601,
  "\u2581kres\u0165anos": 4602,
  "\u2581ce\u0148in": 4603,
  "\u2581politikaha": 4604,
  "\u2581vastenca": 4605,
  "\u2581terdion": 4606,
  "\u2581kerdiuav": 4607,
  "\u2581bibacht": 4608,
  "\u2581greck": 4609,
  "\u2581sprind\u017earaha": 4610,
  "\u2581dod\u017ean\u013eam": 4611,
  "\u2581barvalimas": 4612,
  "\u2581Joboske": 4613,
  "\u2581maladi": 4614,
  "\u2581xasailo": 4615,
  "\u2581Sardis": 4616,
  "\u2581meraha": 4617,
  "\u2581Satanostar": 4618,
  "\u2581Samueloske": 4619,
  "\u2581korab": 4620,
  "\u2581ramos": 4621,
  "\u2581tacholas": 4622,
  "\u2581Tiberias": 4623,
  "\u2581nachinail": 4624,
  "\u2581getome": 4625,
  "\u2581mishtisailo": 4626,
  "\u2581arakh\u00e5s": 4627,
  "\u2581d\u017eiveha": 4628,
  "\u2581boriko": 4629,
  "uvav": 4630,
  "\u2581dromeha": 4631,
  "\u2581drozhdi": 4632,
  "uk": 4633,
  "d\u017eene": 4634,
  "\u2581ashundilo": 4635,
  "\u2581pomoca": 4636,
  "\u2581pher": 4637,
  "\u2581sukar": 4638,
  "\u2581Baal": 4639,
  "\u2581Izrael\u010danenge": 4640,
  "\u2581amboldiape": 4641,
  "\u2581Kamau": 4642,
  "\u2581diminiatsak": 4643,
  "\u2581savoreste": 4644,
  "\u2581vurmi": 4645,
  "\u2581sta\u010dinel": 4646,
  "\u2581ter\u0148a": 4647,
  "\u2581Ambolde": 4648,
  "\u2581nashlo": 4649,
  "\u2581hulavav": 4650,
  "\u2581mi\u0161\u013eines": 4651,
  "\u2581kavrenge": 4652,
  "\u2581Prea\u010dh": 4653,
  "\u2581vortachensa": 4654,
  "\u2581kerd\u017eas": 4655,
  "\u2581sastrun": 4656,
  "\u2581machon": 4657,
  "\u2581pulberia": 4658,
  "\u2581bershengi": 4659,
  "\u2581rimov": 4660,
  "\u2581jileskere": 4661,
  "\u2581vunzhi": 4662,
  "\u2581Romenge": 4663,
  "\u2581mang\u0103": 4664,
  "\u2581shindili": 4665,
  "\u2581lashimata": 4666,
  "\u2581shupo": 4667,
  "\u2581nasulimata": 4668,
  "\u2581krajini": 4669,
  "\u2581lindri": 4670,
  "\u2581synagogak": 4671,
  "mparaturi": 4672,
  "\u2581bakriango": 4673,
  "\u2581dokxtoro": 4674,
  "\u2581keisailo": 4675,
  "\u2581butionas": 4676,
  "\u2581Mosesoski": 4677,
  "\u2581averfielo": 4678,
  "\u2581pochinimos": 4679,
  "\u2581Satanoskere": 4680,
  "\u2581Isakosko": 4681,
  "\u2581\u0148espravodliva": 4682,
  "\u2581Anna": 4683,
  "hrjechi": 4684,
  "\u2581peraven": 4685,
  "\u2581d\u017eava": 4686,
  "\u2581uprimna": 4687,
  "\u2581tristo": 4688,
  "\u2581vuzharenpe": 4689,
  "\u2581Phen\u010fa": 4690,
  "\u2581pashelo": 4691,
  "\u2581azhukerav": 4692,
  "\u2581shubinpe": 4693,
  "\u2581papuchenge": 4694,
  "\u2581xabeneski": 4695,
  "\u2581chudinisail": 4696,
  "\u2581lunzhe": 4697,
  "\u2581rhispisail": 4698,
  "\u2581zalin": 4699,
  "\u2581doshali": 4700,
  "\u2581buflo": 4701,
  "\u2581sastionas": 4702,
  "\u2581milijon": 4703,
  "dzimen": 4704,
  "\u2581aterdiaras": 4705,
  "\u2581u\u013e": 4706,
  "\u2581Judasosko": 4707,
  "\u2581sichilo": 4708,
  "\u2581ages": 4709,
  "AV": 4710,
  "\u2581vazdin": 4711,
  "ES": 4712,
  "\u2581sauto": 4713,
  "\u2581temnitsi": 4714,
  "\u2581strefianas": 4715,
  "\u2581Halo": 4716,
  "\u2581Rebekake": 4717,
  "\u2581zme\u0148inen": 4718,
  "\u2581themengo": 4719,
  "\u2581korheske": 4720,
  "r\u00e5bu": 4721,
  "\u2581Phuter": 4722,
  "\u2581getonpe": 4723,
  "\u2581kres\u0165an": 4724,
  "\u2581angerdo": 4725,
  "\u2581cirden": 4726,
  "\u2581nasulimaski": 4727,
  "\u2581Shtar": 4728,
  "\u2581jiveske": 4729,
  "\u2581\u0161kol": 4730,
  "\u2581chetai": 4731,
  "\u2581Pa\u0165as": 4732,
  "\u2581pokorno": 4733,
  "\u2581145:16": 4734,
  "\u2581themesa": 4735,
  "\u2581khamesko": 4736,
  "\u2581ameng\u00e5": 4737,
  "\u2581murshen": 4738,
  "r\u00e1sh": 4739,
  "AR": 4740,
  "\u2581izdraias": 4741,
  "\u2581ramosarde": 4742,
  "\u2581skepisail": 4743,
  "puria": 4744,
  "\u2581zorale": 4745,
  "\u2581ninkeren": 4746,
  "\u2581bezexalensa": 4747,
  "\u2581televiza": 4748,
  "\u2581shodenia": 4749,
  "\u2581pachivales": 4750,
  "\u2581Ajuk": 4751,
  "\u2581Bibli": 4752,
  "\u2581laskaha": 4753,
  "\u2581tehara": 4754,
  "\u2581dashtina": 4755,
  "\u2581Psalm": 4756,
  "\u2581ashundiol": 4757,
  "\u2581katkar": 4758,
  "\u2581keilpe": 4759,
  "\u2581a\u0161ar": 4760,
  "?'\"": 4761,
  "\u2581raduimelo": 4762,
  "\u2581Maslinenge": 4763,
  "Ra": 4764,
  "\u2581gropome": 4765,
  "\u2581fame\u013eijake": 4766,
  "\u2581jindia": 4767,
  "\u2581vuluisardia": 4768,
  "\u2581manrheske": 4769,
  "\u2581nekezhinas": 4770,
  "\u2581sapenge": 4771,
  "\u2581gindinaspe": 4772,
  "\u2581beteli": 4773,
  "\u2581iagake": 4774,
  "\u2581duxoske": 4775,
  "\u2581zumadias": 4776,
  "\u2581kili": 4777,
  "\u2581chorenge": 4778,
  "\u2581mod\u013einelas": 4779,
  "\u2581tuniarikoske": 4780,
  "\u2581savorenge": 4781,
  "\u2581khangeriange": 4782,
  "\u2581rovli": 4783,
  "\u2581stramin": 4784,
  "vodi": 4785,
  "\u2581moxtona": 4786,
  "\u2581dichilia": 4787,
  "\u2581jeau": 4788,
  "\u25816:10)": 4789,
  "\u2581pechisardia": 4790,
  "\u00e5r\u00e5": 4791,
  "anosko": 4792,
  "\u2581Chachimos": 4793,
  "\u2581chra\u0148inen": 4794,
  "\u2581Messiah": 4795,
  "\u2581Zacchaeus": 4796,
  "\u2581dod\u017eanena": 4797,
  "\u2581narod": 4798,
  "\u2581a\u0161arav": 4799,
  "\u2581pochinde": 4800,
  "\u2581shuchile": 4801,
  "\u2581swuntsola": 4802,
  "\u2581wushtile": 4803,
  "da\u010fives": 4804,
  "\u2581sikaveha": 4805,
  "\u2581Astar": 4806,
  "\u2581chra\u0148in": 4807,
  "\u2581pomo\u017einas": 4808,
  "\u2581phralengo": 4809,
  "\u2581iadosko": 4810,
  "\u2581hlavn": 4811,
  "\u2581gindivas": 4812,
  "\u2581tili": 4813,
  "\u2581swuntse": 4814,
  "\u2581prorok": 4815,
  "\u2581traiisa": 4816,
  "\u2581manushengi": 4817,
  "\u2581Keci": 4818,
  "\u2581Psalms": 4819,
  "\u2581s\u00eekave": 4820,
  "\u2581murdaren": 4821,
  "\u2581getosail": 4822,
  "\u2581domukhel": 4823,
  "\u2581amperatonge": 4824,
  "\u2581nekezhiv": 4825,
  "\u2581zhaluzo": 4826,
  "\u2581tsol": 4827,
  "\u2581Galilean": 4828,
  "\u2581iak": 4829,
  "\u2581grasta": 4830,
  "\u2581chidinisailia": 4831,
  "\u2581halol": 4832,
  "\u2581abiaveske": 4833,
  "\u2581rovav": 4834,
  "\u2581nevia": 4835,
  "\u2581gropomos": 4836,
  "\u2581shuk": 4837,
  "\u2581phu\u010dena": 4838,
  "\u2581shuko": 4839,
  "\u2581statoski": 4840,
  "\u2581lovenge": 4841,
  "\u2581phagavel": 4842,
  "\u2581nabo\u017eenstvo": 4843,
  "\u2581rashasko": 4844,
  "\u2581Phenel": 4845,
  "\u2581raduisardia": 4846,
  "\u2581rashaske": 4847,
  "\u2581spidel": 4848,
  "\u2581\u0161unde": 4849,
  "\u2581chachila": 4850,
  "\u2581drozhdeng": 4851,
  "\u2581Mariake": 4852,
  "\u2581swuntson": 4853,
  "\u2581ileske": 4854,
  "ciji": 4855,
  "Ps": 4856,
  "\u2581Eli": 4857,
  "\u2581rhomen": 4858,
  "\u2581nashli": 4859,
  "\u2581dobrovo\u013en": 4860,
  "bna": 4861,
  "\u2581akhar\u00e5": 4862,
  "\u2581kandine": 4863,
  "Mi": 4864,
  "\u2581aveha": 4865,
  "\u2581meklo": 4866,
  "\u2581zvestinen": 4867,
  "\u2581\u0161unenas": 4868,
  "\u2581mekelpe": 4869,
  "\u2581pile": 4870,
  "\u2581ashundesas": 4871,
  "denaspe": 4872,
  "\u2581pashola": 4873,
  "\u2581Daniel": 4874,
  "\u2581Hebrej": 4875,
  "\u2581mukhen": 4876,
  "tun": 4877,
  "\u2581dosharav": 4878,
  "ustus": 4879,
  "gon": 4880,
  "uviaki": 4881,
  "\u2581Odphenen": 4882,
  "ulberia": 4883,
  "\u2581Thi": 4884,
  "\u2581presikaven": 4885,
  "\u2581bro": 4886,
  "isto": 4887,
  "\u2581Amos": 4888,
  "\u2581tikn": 4889,
  "\u2581buntuin": 4890,
  "\u2581dadestar": 4891,
  "adiam": 4892,
  "zhi": 4893,
  "poji": 4894,
  "\u2581martiako": 4895,
  "\u2581shudian": 4896,
  "\u2581ruva": 4897,
  "Haliardia": 4898,
  "\u2581spl\u0148inel": 4899,
  "ang": 4900,
  "\u2581do\u013eikeren": 4901,
  "\u2581kakoa": 4902,
  "40": 4903,
  "\u2581apo\u0161tola": 4904,
  "\u2581manglianas": 4905,
  "\u2581dik": 4906,
  "\u2581wushtela": 4907,
  "\u2581bareske": 4908,
  "\u2581xaii": 4909,
  "\u2581vuzharela": 4910,
  "\u2581xar": 4911,
  "\u2581azhukerdia": 4912,
  "\u2581naswali": 4913,
  "\u2581Durio": 4914,
  "\u2581amperetsiake": 4915,
  "\u2581mi\u0161\u013einel": 4916,
  "\u2581\u0148e": 4917,
  "\u2581Vuzhar": 4918,
  "\u2581anavesko": 4919,
  "\u2581mira": 4920,
  "\u2581Jakub": 4921,
  "\u2581rodia": 4922,
  "\u2581Thodia": 4923,
  "\u2581vuria": 4924,
  "\u2581pr": 4925,
  "efta": 4926,
  "\u2581zhuvindina": 4927,
  "forma": 4928,
  "\u2581astardiol": 4929,
  "\u2581Kadi": 4930,
  "\u2581xanpe": 4931,
  "\u2581Pachav": 4932,
  "\u2581traiisardiam": 4933,
  "\u2581amboldel": 4934,
  "\u2581Shuden": 4935,
  "\u010dhaven": 4936,
  "\u2581wushtiard": 4937,
  "rutno": 4938,
  "\u2581prasta": 4939,
  "')": 4940,
  "\u2581di\u0148al": 4941,
  "\u2581pachalas": 4942,
  "sardian": 4943,
  "zilo": 4944,
  "priklad": 4945,
  "\u2581kerdiliam": 4946,
  "\u2581a\u010dh": 4947,
  "\u2581sobi": 4948,
  "\u2581Angerd": 4949,
  "\u2581Sikavav": 4950,
  "\u2581katka": 4951,
  "\u2581zur": 4952,
  "\u2581dashtisardia": 4953,
  "\u2581shukaren": 4954,
  "\u2581phutres": 4955,
  "\u2581premina": 4956,
  "irrh": 4957,
  "\u2581Herm": 4958,
  "\u2581vuzhardia": 4959,
  "\u2581grasten": 4960,
  "\u2581puchil": 4961,
  "\u2581phabardi": 4962,
  "\u2581krisinil": 4963,
  "\u2581zale": 4964,
  "\u2581poznamk": 4965,
  "\u2581phuren": 4966,
  "\u2581nov": 4967,
  "\u2581dikhavas": 4968,
  "\u2581penas": 4969,
  "\u2581garuv": 4970,
  "\u2581bolen": 4971,
  "\u2581chidino": 4972,
  "\u2581avilean": 4973,
  "\u2581zan": 4974,
  "\u2581k\u00e5r": 4975,
  "\u2581rhevdisardia": 4976,
  "\u2581anes": 4977,
  "\u2581parhudia": 4978,
  "st": 4979,
  "\u2581Phire": 4980,
  "tom": 4981,
  "\u2581Mishto": 4982,
  "\u2581tomn": 4983,
  "Avile": 4984,
  "\u2581getov": 4985,
  "\u2581arakhelas": 4986,
  "\u2581amil": 4987,
  "\u2581anger": 4988,
  "luv": 4989,
  "\u2581milos": 4990,
  "\u2581barolo": 4991,
  "o\u017eno": 4992,
  "\u2581ajuk\u00e5r": 4993,
  "\u2581zhuvindilas": 4994,
  "\u2581ra": 4995,
  "\u2581jas": 4996,
  "\u2581spo": 4997,
  "\u2581mekas": 4998,
  "\u2581\u0161ao": 4999,
  "\u2581Dia": 5000,
  "\u2581vusharadi": 5001,
  "\u2581Abramosk": 5002,
  "\u2581al": 5003,
  "masko": 5004,
  "\u2581bariarela": 5005,
  "diam": 5006,
  "\u2581tradi": 5007,
  "anda": 5008,
  "\u2581klami\u0161ag": 5009,
  "\u2581gi\u013eav": 5010,
  "meng\u00e5": 5011,
  "\u2581anena": 5012,
  "\u2581phirela": 5013,
  "\u2581trapinel": 5014,
  "\u2581pendar": 5015,
  "\u2581Mila": 5016,
  "fum": 5017,
  "unen": 5018,
  "\u2581narodosko": 5019,
  "\u2581vasta": 5020,
  "\u2581gazdas": 5021,
  "odo": 5022,
  "\u2581xasardem": 5023,
  "\u2581San": 5024,
  "abia": 5025,
  "\u2581tasadi": 5026,
  "atse": 5027,
  "\u2581D\u017ean": 5028,
  "\u2581ashilia": 5029,
  "Zhav": 5030,
  "\u2581vurhitsi": 5031,
  "\u2581ban": 5032,
  "\u2581ramolas": 5033,
  "r\u00e5l": 5034,
  "ga": 5035,
  "\u2581bicho": 5036,
  "\u2581prav": 5037,
  "lada": 5038,
  "\u2581dom": 5039,
  "Respekti": 5040,
  "\u2581xasardia": 5041,
  "\u25813:9": 5042,
  "\u2581simto": 5043,
  "\u2581zuravol": 5044,
  "\u2581chas": 5045,
  "rakhadiol": 5046,
  ":13": 5047,
  "Arakhlia": 5048,
  "vlo": 5049,
  "\u2581zhanastar": 5050,
  "miri": 5051,
  "\u2581kash": 5052,
  "\u2581Jona": 5053,
  "\u2581posti": 5054,
  "r\u00ee": 5055,
  "Man": 5056,
  "mai": 5057,
  "\u2581Josephosk": 5058,
  "iga": 5059,
  "\u2581pochines": 5060,
  "\u2581niamo": 5061,
  "\u2581chorhen": 5062,
  "\u2581phiravel": 5063,
  "\u2581sig": 5064,
  "\u2581thod\u017ea": 5065,
  "anav": 5066,
  "\u2581pochindia": 5067,
  "toro": 5068,
  "\u2581Bi\u010dha": 5069,
  "\u2581chungar": 5070,
  "\u2581Vazd": 5071,
  "Del": 5072,
  "\u2581nakh\u00e5": 5073,
  "\u2581\u0148ikas": 5074,
  "\u2581kolo": 5075,
  "\u2581asal": 5076,
  "\u2581pod": 5077,
  "desh": 5078,
  "\u2581inep": 5079,
  "\u2581ankalaven": 5080,
  "\u2581sut": 5081,
  "\u2581Lol": 5082,
  "\u2581Rad": 5083,
  "tsa": 5084,
  "\u2581wush": 5085,
  "\u2581pensa": 5086,
  "\u2581prim": 5087,
  "dokonala": 5088,
  "15)": 5089,
  "\u2581haliardem": 5090,
  "\u2581kru": 5091,
  "\u2581vi\u0161vet\u013ein": 5092,
  "\u2581skeri": 5093,
  "\u2581ramosardiam": 5094,
  "rea": 5095,
  "11": 5096,
  "keren": 5097,
  "\u2581vul": 5098,
  "\u2581kamarat": 5099,
  "Akharde": 5100,
  "\u2581sapes": 5101,
  "\u2581jines": 5102,
  "\u2581ansurila": 5103,
  "\u2581phabarela": 5104,
  "\u2581Tha": 5105,
  "\u2581angerena": 5106,
  "\u2581vurhitsil": 5107,
  "\u2581As": 5108,
  "imus": 5109,
  "\u2581bra": 5110,
  "\u2581sikadile": 5111,
  "\u2581D\u017ei": 5112,
  "\u2581Akhar": 5113,
  "\u2581pervone": 5114,
  "\u2581dilo": 5115,
  "riat": 5116,
  "29)": 5117,
  "rta": 5118,
  "\u2581ashundili": 5119,
  "\u2581Re": 5120,
  "dinesas": 5121,
  "\u2581buntui": 5122,
  "\u2581nakhaven": 5123,
  "\u2581Avili": 5124,
  "ic": 5125,
  "raha": 5126,
  "sardiam": 5127,
  "cinel": 5128,
  "ende": 5129,
  "\u2581ankalav": 5130,
  "\u2581chinol": 5131,
  "rdia": 5132,
  "\u2581naisisardias": 5133,
  "\u2581iekeske": 5134,
  "fial": 5135,
  "che": 5136,
  "ines": 5137,
  "\u2581kolavresk": 5138,
  "\u2581Kanaan": 5139,
  "\u2581rha": 5140,
  "\u2581kha": 5141,
  "\u2581Cam": 5142,
  "\u2581aterdiarde": 5143,
  "mi": 5144,
  "inen": 5145,
  "anau": 5146,
  "\u2581atsa": 5147,
  "\u2581sovas": 5148,
  "\u2581prast": 5149,
  "\u2581dume": 5150,
  "\u2581gazdi": 5151,
  "rakhlem": 5152,
  "\u2581u\u0161tav": 5153,
  "pime": 5154,
  "\u2581rom\u0148ijen": 5155,
  "manush": 5156,
  "hov": 5157,
  "ianas": 5158,
  "\u2581vuriarel": 5159,
  "\u2581rozhod\u0148ine": 5160,
  "Var": 5161,
  "raiin": 5162,
  "are": 5163,
  "\u2581musuris": 5164,
  "\u0161en": 5165,
  "ur": 5166,
  "isardia": 5167,
  "\u2581tasave": 5168,
  "\u2581haliarela": 5169,
  "\u2581vaz": 5170,
  "\u013ei": 5171,
  "\u2581aresav": 5172,
  "lija": 5173,
  "\u2581Duxos": 5174,
  "chaia": 5175,
  "ce": 5176,
  "\u2581basha": 5177,
  "\u2581sastiarde": 5178,
  "\u2581papo": 5179,
  "\u2581mola": 5180,
  "itha": 5181,
  "\u2581Manglem": 5182,
  "\u2581\u0161tudinena": 5183,
  "\u2581Beshl": 5184,
  "\u2581Jehovaskr": 5185,
  "laki": 5186,
  "\u2581shinave": 5187,
  "rdi": 5188,
  "\u2581odmukhl": 5189,
  "Sod": 5190,
  "\u2581Tho": 5191,
  "\u2581macharne": 5192,
  "Lu": 5193,
  "\u2581Kh": 5194,
  "\u25812:": 5195,
  "\u2581pha": 5196,
  "\u2581huliar": 5197,
  "nglo": 5198,
  "\u2581Naisin": 5199,
  "\u2581muia": 5200,
  "my": 5201,
  "rodias": 5202,
  "lesa": 5203,
  "\u2581zhang": 5204,
  "\u2581garadias": 5205,
  "\u2581nasulimask": 5206,
  "\u2581terni": 5207,
  "\u2581vide": 5208,
  "\u2581ber": 5209,
  "\u2581pachival": 5210,
  "\u2581krenzh": 5211,
  "til": 5212,
  "\u2581Pavlosa": 5213,
  "\u2581vulio": 5214,
  "\u2581pharhad": 5215,
  "\u2581profet": 5216,
  "\u2581zakonosa": 5217,
  "\u2581Pa\u013eiker": 5218,
  "\u2581bajine": 5219,
  "\u2581dragosa": 5220,
  "\u2581Avel": 5221,
  "\u010de": 5222,
  "\u2581jekhe": 5223,
  "'\"": 5224,
  "adava": 5225,
  "\u2581Bi": 5226,
  "oskro": 5227,
  "\u2581pa\u0165a": 5228,
  "gi": 5229,
  "\u2581chindar": 5230,
  "\u2581phushes": 5231,
  "eder": 5232,
  "\u2581at": 5233,
  "\u2581podai": 5234,
  "iben": 5235,
  "\u2581Abi": 5236,
  "\u2581profesisar": 5237,
  "\u2581naro": 5238,
  "\u2581do\u013eikere": 5239,
  "\u2581parhuv": 5240,
  "\u2581ole": 5241,
  "\u2581vediari": 5242,
  "\u2581aventar": 5243,
  "aile": 5244,
  "lavel": 5245,
  "\u2581shudias": 5246,
  "lin": 5247,
  "\u2581Kerde": 5248,
  "\u2581aliaren": 5249,
  "\u2581shines": 5250,
  "lian": 5251,
  "efial": 5252,
  "\u2581phuri": 5253,
  "\u25811:": 5254,
  "\u2581chinas": 5255,
  "rav": 5256,
  "ngerde": 5257,
  "\u2581phirava": 5258,
  "\u2581Gena": 5259,
  "\u2581keina": 5260,
  "ten": 5261,
  "\u2581je": 5262,
  "onia": 5263,
  "\u2581nekezhila": 5264,
  "\u2581mothava": 5265,
  "but": 5266,
  "\u2581jilabad": 5267,
  "eus": 5268,
  "\u00e5n": 5269,
  "phi": 5270,
  "\u2581Prege": 5271,
  "\u2581mares": 5272,
  "\u2581mi\u0161\u013ein": 5273,
  "ben": 5274,
  "\u2581duriare": 5275,
  "\u2581pa\u010din": 5276,
  "\u2581bush": 5277,
  "\u2581Ch": 5278,
  "eres": 5279,
  "\u2581praste": 5280,
  "\u2581sima": 5281,
  "anenas": 5282,
  "\u2581s\u00eema": 5283,
  "\u2581tre": 5284,
  "\u2581\u00e8e": 5285,
  "\u2581Vare": 5286,
  "\u2581lazha": 5287,
  "\u2581tel": 5288,
  "tosko": 5289,
  "Kodol": 5290,
  "\u2581zora": 5291,
  "savas": 5292,
  "anglo": 5293,
  "isailian": 5294,
  "\u2581zhanava": 5295,
  ":3": 5296,
  "\u2581Pisi": 5297,
  "liarel": 5298,
  "\u2581kud": 5299,
  "anas": 5300,
  "\u2581aterdiar": 5301,
  "arav": 5302,
  "\u2581chin": 5303,
  "\u2581chach": 5304,
  "\u2581huli": 5305,
  "\u2581inkerav": 5306,
  "rat": 5307,
  "doj": 5308,
  "nen": 5309,
  "du": 5310,
  "\u2581Tuma": 5311,
  "iti": 5312,
  "\u2581ashund": 5313,
  "\u2581Abia": 5314,
  "\u2581Ramosar": 5315,
  "\u2581stra": 5316,
  "42)": 5317,
  "amen": 5318,
  "\u2581mekli": 5319,
  "hal": 5320,
  ":5": 5321,
  "\u2581zaa\u010dh": 5322,
  "\u2581Shu": 5323,
  "ahk\u0103": 5324,
  "lolo": 5325,
  "\u2581rodasa": 5326,
  "\u2581vuzhar": 5327,
  "\u2581Zhav": 5328,
  "\u2581su": 5329,
  "\u2581rhugina": 5330,
  "\u2581chumide": 5331,
  "\u2581chorimas": 5332,
  "anes": 5333,
  "arfosar": 5334,
  "\u2581Enoch": 5335,
  "akhardo": 5336,
  "une": 5337,
  "ges": 5338,
  "\u2581zhuvlio": 5339,
  "\u2581Jea": 5340,
  "mahko": 5341,
  "ahas": 5342,
  "\u2581Al": 5343,
  "\u2581Du": 5344,
  "hani": 5345,
  "es\u0148e": 5346,
  "gele": 5347,
  "\u2581s\u00eem": 5348,
  "\u2581Zhas": 5349,
  "\u2581dod\u017eane": 5350,
  "ostar": 5351,
  "\u2581shtarvar": 5352,
  "\u2581tr\u00e5bu": 5353,
  "tilp": 5354,
  "avaha": 5355,
  "shkar": 5356,
  "\u2581respektisar": 5357,
  "ansa": 5358,
  "hosko": 5359,
  "ruz": 5360,
  "Mang": 5361,
  "\u2581Kamen": 5362,
  "lensa": 5363,
  "etri": 5364,
  "imaske": 5365,
  "ana": 5366,
  "\u2581izdra": 5367,
  "vel": 5368,
  "\u2581zid": 5369,
  "\u2581Nakhl": 5370,
  "\u2581astardio": 5371,
  "eri": 5372,
  "\u2581Anger": 5373,
  "\u2581Is": 5374,
  "asosko": 5375,
  "mia": 5376,
  "\u2581griats": 5377,
  "hi\u0161": 5378,
  "\u2581som": 5379,
  "\u0165": 5380,
  "\u0148ig": 5381,
  "\u2581poronchila": 5382,
  "\u2581barvalima": 5383,
  "\u2581iagak": 5384,
  "\u2581astardil": 5385,
  "\u2581Biblijake": 5386,
  "\u2581ankerd": 5387,
  "\u2581kavre": 5388,
  "char": 5389,
  "\u2581thod": 5390,
  "\u2581ash": 5391,
  "Radui": 5392,
  "\u2581zuravo": 5393,
  "udinen": 5394,
  "ehko": 5395,
  "\u2581rateske": 5396,
  "un": 5397,
  "ono": 5398,
  "\u2581hodinisard": 5399,
  "iliam": 5400,
  "\u2581dadesk": 5401,
  "\u2581lamp": 5402,
  "9)": 5403,
  "anglal": 5404,
  "don": 5405,
  "\u2581ashili": 5406,
  "\u2581Chud": 5407,
  "tra": 5408,
  "\u2581Caesaros": 5409,
  "tinel": 5410,
  "\u258127": 5411,
  "Tut": 5412,
  "zori": 5413,
  "Swunto": 5414,
  "\u2581Luvudis": 5415,
  "\u2581murdar": 5416,
  "Phutr": 5417,
  "ngi": 5418,
  "nuria": 5419,
  "\u2581pom": 5420,
  "\u2581respektis": 5421,
  "\u2581vuriar": 5422,
  "\u2581lazhala": 5423,
  "\u2581troman": 5424,
  "W": 5425,
  "\u2581kres\u0165anen": 5426,
  "\u2581preznais": 5427,
  "stvo": 5428,
  "\u2581moc": 5429,
  "\u2581garu": 5430,
  "\u2581phend": 5431,
  ":9)": 5432,
  "rava": 5433,
  "\u010dinel": 5434,
  "\u2581glateng": 5435,
  "\u2581binen": 5436,
  "\u2581bezexali": 5437,
  "chinas": 5438,
  "Dat": 5439,
  "US": 5440,
  "ite": 5441,
  "\u2581Josefos": 5442,
  "rosko": 5443,
  "\u2581\u010dh": 5444,
  "\u2581pomo\u017eine": 5445,
  "\u2581Zhane": 5446,
  "\u2581ja": 5447,
  "\u2581eftavar": 5448,
  "\u2581phuterdi": 5449,
  "\u2581respekti": 5450,
  "\u2581ambolde": 5451,
  "\u2581\u010dhi": 5452,
  "\u2581rhande": 5453,
  "\u2581oles": 5454,
  "\u2581zhuvindi": 5455,
  "Dzil": 5456,
  "\u00e8": 5457,
  "\u2581gindisard": 5458,
  "loso": 5459,
  "\u2581anker": 5460,
  "\u2581phundrave": 5461,
  "\u2581vusharave": 5462,
  "\u0148": 5463,
  "ng\u0103": 5464,
  "\u2581fr": 5465,
  "\u2581spl\u0148in": 5466,
  "peras": 5467,
  "hai": 5468,
  "\u2581zhigen": 5469,
  "\u2581korko": 5470,
  "isa\u013eol": 5471,
  "chorhe": 5472,
  "\u2581w": 5473,
  "\u2581swunt": 5474,
  "\u2581para": 5475,
  "\u2581demon": 5476,
  "\u2581Phush": 5477,
  "Baro": 5478,
  "\u2581kuku": 5479,
  "ber": 5480,
  "Mangen": 5481,
  "\u00e5s": 5482,
  "Uni": 5483,
  "\u2581meribnas": 5484,
  "\u2581kovlia": 5485,
  "\u2581Kasa": 5486,
  "tho": 5487,
  "Trade": 5488,
  "x": 5489,
  "Alle": 5490,
  "\u2581Samaritano": 5491,
  "\u2581\u017e": 5492,
  "\u00e8ea": 5493,
  "Mangav": 5494,
  "Hebrej": 5495,
  "Daniel": 5496,
  "\u2581rrom": 5497,
  "Wushten": 5498,
  "nones": 5499,
  "20": 5500,
  "\u2581miliwo": 5501,
  "\u2581nabo\u017eenstv": 5502,
  "Cornelius": 5503,
  "Ananias": 5504,
  "Dui": 5505,
  "\u2581radisa\u013eo": 5506,
  "\u2581Shude": 5507,
  "di\u0148al": 5508,
  "\u2581arakha": 5509,
  "Line": 5510,
  "u\u0161": 5511,
  "Kat": 5512,
  "limos": 5513,
  "Kas": 5514,
  "Tradav": 5515,
  "\u258129": 5516,
  "\u2581duch": 5517,
  "Rhugin": 5518,
  "\u2581svedken": 5519,
  "dean": 5520,
  "\u2581Jakov": 5521,
  "The": 5522,
  "\u2581poronchis": 5523,
  "\u2581alosar": 5524,
  "\u2581podpori": 5525,
  "\u2581spidi": 5526,
  "\u2581Balaam": 5527,
  "uto": 5528,
  "\u2581Mangle": 5529,
  "\u2581profetos": 5530,
  "\u2581di\u010dho": 5531,
  "Tumar": 5532,
  "\u017eno": 5533,
  "\u2581garad": 5534,
  "Nas": 5535,
  "\u2581zname\u0148ine": 5536,
  "\u2581Ho": 5537,
  "\u2581pere": 5538,
  "\u2581pashi": 5539,
  "\u2581arakhe": 5540,
  "\u2581drozhde": 5541,
  "\u2581Pomo\u017ein": 5542,
  "xa": 5543,
  "\u2581bakren": 5544,
  "\u2581nirisar": 5545,
  "fialo": 5546,
  "\u2581Ra": 5547,
  "xto": 5548,
  "atori": 5549,
  "naha": 5550,
  "onsa": 5551,
  "\u2581chan": 5552,
  "shako": 5553,
  "\u2581ablakat": 5554,
  "\u2581slab": 5555,
  "a\u010dhi\u013ea": 5556,
  "\u2581Ha": 5557,
  "eskere": 5558,
  "\u2581pa\u013eiker": 5559,
  "kat": 5560,
  "\u2581getosar": 5561,
  "\u2581tsipisar": 5562,
  "\u2581raduila": 5563,
  "\u2581alos": 5564,
  "riga": 5565,
  "\u2581Sabato": 5566,
  "\u2581Jud": 5567,
  "a\u010dikano": 5568,
  "\u2581guruv": 5569,
  "tr": 5570,
  "\u2581Maslineng": 5571,
  "\u2581naisis": 5572,
  "\u2581shkonits": 5573,
  "tiv": 5574,
  "\u2581z\u0148i\u010dinel": 5575,
  "\u2581Bibl": 5576,
  "\u2581serela": 5577,
  "\u2581Steph": 5578,
  "\u2581shodeni": 5579,
  "\u2581ashshil": 5580,
  "aeus": 5581,
  "\u2581tsign": 5582,
  "\u2581fundani": 5583,
  "\u2581maslineng": 5584,
  "unt": 5585,
  "\u2581starin": 5586,
  "\u2581ninker": 5587,
  "No": 5588,
  "kaj": 5589,
  "rhe": 5590,
  "\u2581raklorh": 5591,
  "\u2581pokorn": 5592,
  "\u2581vurot": 5593,
  "havo": 5594,
  "\u2581xants": 5595,
  "\u2581trpezliv": 5596,
  "\u2581pa\u010da": 5597,
  "\u2581mariben": 5598,
  "\u2581otazk": 5599,
  "\u2581rhonjit": 5600,
  "Savorhen": 5601,
  "\u2581aresen": 5602,
  "\u2581Rebeka": 5603,
  "\u2581For": 5604,
  "\u2581strefian": 5605,
  "Al": 5606,
  "\u2581dokxt": 5607,
  "\u2581rhert": 5608,
  "\u2581rhispi": 5609,
  "fon": 5610,
  "\u2581televiz": 5611,
  "\u2581Farizeanong": 5612,
  "\u2581kheldia": 5613,
  "\u2581k\u00e5rdea": 5614,
  "\u2581dichil": 5615,
  "shshile": 5616,
  "\u2581pashliol": 5617,
  "hosela": 5618,
  "\u2581sikh\u013euv": 5619,
  "cija": 5620,
  "na\u017ein": 5621,
  "\u2581gonisa": 5622,
  "iazol": 5623,
  "\u2581Grek": 5624,
  "ta\u010dinel": 5625,
  "\u010fin\u010fa": 5626,
  "\u2581bes": 5627,
  "\u2581u\u010de\u0148ik": 5628,
  "\u2581solaxadia": 5629,
  "sinorho": 5630,
  "\u2581Pharaoh": 5631,
  "\u2581\u010da\u010dip": 5632,
  "\u2581acha\u013e": 5633,
  "\u2581zvjera": 5634,
  "\u2581tsirdena": 5635,
  "\u2581pisinen": 5636,
  "OV": 5637,
  "\u2581politika": 5638,
  "ekezhisail": 5639,
  "ntaino": 5640,
  "ume": 5641,
  "ones": 5642,
  "\u2581zjazd": 5643,
  "\u2581Zhiduv": 5644,
  "\u2581poronchi": 5645,
  "\u2581Salmon": 5646,
  "4:6": 5647,
  "\u2581gojavren": 5648,
  "\u2581aterdili": 5649,
  "oxamle": 5650,
  "\u013euv": 5651,
  "ter\u010f": 5652,
  "\u2581Pamph": 5653,
  "nternet": 5654,
  "\u2581Capp": 5655,
  "hor\u0161eder": 5656,
  "\u2581Gethseman": 5657,
  "\u2581Jechonias": 5658,
  "\u2581Nicolaitan": 5659,
  "\u2581Tryph": 5660,
  "\u2581cerpin": 5661,
  "\u2581god\u017eaver": 5662,
  "\u2581posolstvo": 5663,
  "\u2581prjekop\u0148ik": 5664,
  "\u2581programo": 5665,
  "\u2581prokletsi": 5666,
  "\u2581suhlasine": 5667,
  "\u2581vlastnos\u0165": 5668,
  "\u2581vriskine": 5669,
  "\u2581zapisind": 5670,
  "\u2581\u010dasopiso": 5671,
  ":22)": 5672,
  "eaililem": 5673,
  "fect": 5674,
  "hvjezd": 5675,
  "izedek": 5676,
  "lasfime": 5677,
  "minadabosko": 5678,
  "odujd\u017eene": 5679,
  "t\u0103rde": 5680,
  "vertehara": 5681,
  "\u2581(90": 5682,
  "\u2581Bithynia": 5683,
  "\u2581Crispus": 5684,
  "\u2581Devkeski": 5685,
  "\u2581Dohod\u0148in": 5686,
  "\u2581Dorcas": 5687,
  "\u2581Eliakimosko": 5688,
  "\u2581Ezekias": 5689,
  "\u2581Gabriel": 5690,
  "\u2581Gamaliel": 5691,
  "\u2581Golgatha": 5692,
  "\u2581Julius": 5693,
  "\u2581Krs\u0165i\u0165e\u013eiske": 5694,
  "\u2581Latinesko": 5695,
  "\u2581Lindral": 5696,
  "\u2581Lydda": 5697,
  "\u2581Mekchizedek": 5698,
  "\u2581Onesiphoroski": 5699,
  "\u2581Phrygia": 5700,
  "\u2581Rahab": 5701,
  "\u2581Rugiutu": 5702,
  "\u2581Salomeski": 5703,
  "\u2581Sh\u00e1ro": 5704,
  "\u2581Skepisar": 5705,
  "\u2581Socares": 5706,
  "\u2581Sulfer": 5707,
  "\u2581Tertullus": 5708,
  "\u2581Thaddaeus": 5709,
  "\u2581Theophilus": 5710,
  "\u2581Vzkrjesinela": 5711,
  "\u2581Zabulon": 5712,
  "\u2581Zacharias": 5713,
  "\u2581amperatasaik": 5714,
  "\u2581bosorakenca": 5715,
  "\u2581buzhukuri": 5716,
  "\u2581dar\u010deki": 5717,
  "\u2581dochtora": 5718,
  "\u2581dohod\u0148in": 5719,
  "\u2581dvole\u017eita": 5720,
  "\u2581gulumburia": 5721,
  "\u2581hrobk": 5722,
  "\u2581inak\u0161es": 5723,
  "\u2581jaski\u0148a": 5724,
  "\u2581jelonge": 5725,
  "\u2581jileskro": 5726,
  "\u2581khanikaste": 5727,
  "\u2581kilomet": 5728,
  "\u2581lajaw": 5729,
  "\u2581lokorhes": 5730,
  "\u2581misijonara": 5731,
  "\u2581modli": 5732,
  "\u2581nanavidzinel": 5733,
  "\u2581nanavidzinen": 5734,
  "\u2581nekazuira": 5735,
  "\u2581nek\u0161ukareder": 5736,
  "\u2581obe\u0165": 5737,
  "\u2581odbor\u0148ika": 5738,
  "\u2581organizimen": 5739,
  "\u2581pametinel": 5740,
  "\u2581pharaxoditsi": 5741,
  "\u2581predna\u0161k": 5742,
  "\u2581prid\u017eare": 5743,
  "\u2581publikaciji": 5744,
  "\u2581rhusgin": 5745,
  "\u2581savatone": 5746,
  "\u2581scoala": 5747,
  "\u2581shpargati": 5748,
  "\u2581shuchol": 5749,
  "\u2581sirotki": 5750,
  "\u2581skafedi": 5751,
  "\u2581sku\u0161ki": 5752,
  "\u2581strument": 5753,
  "\u2581svedomje": 5754,
  "\u2581swint": 5755,
  "\u2581tragedija": 5756,
  "\u2581transfuzij": 5757,
  "\u2581vzkrjese\u0148e": 5758,
  "\u2581v\u0161adzi": 5759,
  "\u2581weekend": 5760,
  "\u2581zhre\u0161inde": 5761,
  "\u2581zhre\u0161in\u010fa": 5762,
  "\u2581\u010derche\u0148": 5763,
  "\u2581\u010du\u013ean": 5764,
  "\u2581\u0148enavidzine": 5765,
  "\u2581\u0148e\u0161\u0165esca": 5766,
  "\u2581\u0161parg": 5767,
  "\u2581\u0161ukhar": 5768,
  "\u2581DEI": 5769,
  "\u2581Grechisko": 5770,
  "\u2581Lydia": 5771,
  "\u2581buntisailo": 5772,
  "\u2581cardean": 5773,
  "\u2581slavnos\u0165": 5774,
  "Ezechi": 5775,
  "korpionk": 5776,
  "\u258112:7": 5777,
  "\u2581Antipa": 5778,
  "\u2581Arimathaea": 5779,
  "\u2581Binecuvint": 5780,
  "\u2581Gennersaret": 5781,
  "\u2581Jambres": 5782,
  "\u2581Joatham": 5783,
  "\u2581Joshua": 5784,
  "\u2581Pharoah": 5785,
  "\u2581Salathiel": 5786,
  "\u2581avrether": 5787,
  "\u2581doblisar": 5788,
  "\u2581kalendaris": 5789,
  "\u2581liketuria": 5790,
  "\u2581nahradzin": 5791,
  "\u2581napodob\u0148in": 5792,
  "\u2581nazba": 5793,
  "\u2581schva\u013ein": 5794,
  "\u2581stoliar": 5795,
  "\u2581student": 5796,
  "\u2581\u0103kh": 5797,
  "\u2581\u0161iba": 5798,
  "cnos\u0165": 5799,
  "\u2581Eleazar": 5800,
  "\u2581Epaphrodit": 5801,
  "\u2581Gazdenge": 5802,
  "\u2581Isaac": 5803,
  "\u2581Mysia": 5804,
  "\u2581Ninevah": 5805,
  "\u2581Patradi": 5806,
  "\u2581Shechem": 5807,
  "\u2581Zachariah": 5808,
  "\u2581Zorobabel": 5809,
  "\u2581athadile": 5810,
  "\u2581chramos": 5811,
  "\u2581koltso": 5812,
  "\u2581odpo\u010di": 5813,
  "\u2581u\u010di\u0165e\u013e": 5814,
  "\u2581zvitk": 5815,
  "Plachaia": 5816,
  "\u2581Jasper": 5817,
  "\u2581Josesosko": 5818,
  "\u2581ieskeske": 5819,
  "\u2581kovlejilesk": 5820,
  "\u2581skupini": 5821,
  "\u2581sudos": 5822,
  "\u2581tinau": 5823,
  "\u2581veselimelo": 5824,
  "\u2581Armagedon": 5825,
  "\u2581Cleop": 5826,
  "\u2581Roboam": 5827,
  "\u2581pachaiesaspe": 5828,
  "\u2581po\u0165inel": 5829,
  "\u2581prikazin\u010fa": 5830,
  "\u2581stados": 5831,
  "\u2581sveta": 5832,
  "\u2581tsitura": 5833,
  "merald": 5834,
  "\u2581Zhuti": 5835,
  "\u2581athade": 5836,
  "\u2581\u0161have": 5837,
  "\u2581omukh\u013ea": 5838,
  "\u2581Astar\u0103n": 5839,
  "\u2581Naasson": 5840,
  "\u2581chvala": 5841,
  "Aterdion": 5842,
  "\u2581127:3": 5843,
  "\u2581Elija\u0161iske": 5844,
  "\u2581zmeni": 5845,
  "\u2581Barsab": 5846,
  "\u2581masilineng": 5847,
  "6:16": 5848,
  "\u2581Egyptianos": 5849,
  "\u2581Matthias": 5850,
  "\u2581hunia": 5851,
  "\u2581mizm": 5852,
  "\u2581Esrom": 5853,
  "\u2581karfiang": 5854,
  "\u2581Zadoc": 5855,
  "\u2581Cench": 5856,
  ":37)": 5857,
  "\u2581tsalengo": 5858,
  "\u2581146:": 5859,
  "\u2581Athadi": 5860,
  "\u2581rakle": 5861,
  "\u2581tsipimata": 5862,
  "\u2581zhidovo": 5863,
  "\u2581arasena": 5864,
  "\u2581phu\u010d\u013ea": 5865,
  "\u2581kid\u0148a": 5866,
  "\u2581obetin\u010fa": 5867,
  "\u2581pismenkenca": 5868,
  "\u2581zaklad": 5869,
  "\u2581zhiralo": 5870,
  "\u2581vecenca": 5871,
  "\u2581ciche": 5872,
  "unjile": 5873,
  "\u2581Eliud": 5874,
  "\u2581apostlonsa": 5875,
  "\u2581film": 5876,
  "\u2581vusharimos": 5877,
  "\u2581xoxaimata": 5878,
  "\u2581odphenaha": 5879,
  "\u2581botela": 5880,
  "\u2581vetsel": 5881,
  "Tradino": 5882,
  "\u2581z\u0148i\u010din\u010fa": 5883,
  "\u2581zad\u017ei\u010fi\u013ea": 5884,
  "\u2581119:": 5885,
  "\u2581baxrenge": 5886,
  "\u2581rhoburia": 5887,
  "\u2581chudisailian": 5888,
  "\u2581Rhode": 5889,
  "\u2581vortosail": 5890,
  "\u258126": 5891,
  "\u2581ke\u010den": 5892,
  "\u2581Nahum": 5893,
  "\u2581Onesimus": 5894,
  "\u2581chetaiime": 5895,
  "\u2581parpale": 5896,
  "\u2581svedkenca": 5897,
  "\u2581Salemosko": 5898,
  "\u2581Obedosko": 5899,
  "\u00e5rdeol": 5900,
  "\u2581Joz": 5901,
  "\u2581sikaviben": 5902,
  "\u2581\u010das\u0165": 5903,
  "\u2581vulitsa": 5904,
  "\u25814:5": 5905,
  "\u2581pismo": 5906,
  "\u2581re\u010d": 5907,
  "\u2581Boazosko": 5908,
  "\u2581Conf": 5909,
  "\u2581kopaii": 5910,
  "\u2581xaiisavas": 5911,
  "\u2581Ra\u0165i": 5912,
  "\u2581acha\u013eile": 5913,
  "\u2581Ethiopiano": 5914,
  "\u2581vulardiol": 5915,
  "\u2581Liby": 5916,
  "okazin\u010fa": 5917,
  "\u2581chernilasa": 5918,
  "\u2581Jacob": 5919,
  "\u2581buntuilaspe": 5920,
  "\u2581kutari": 5921,
  "\u2581\u0161anca": 5922,
  "\u2581chacharelaspe": 5923,
  "\u2581jasper": 5924,
  "\u2581Bax": 5925,
  "\u2581flesh": 5926,
  "\u2581telairiat": 5927,
  "\u2581xasarimasko": 5928,
  "\u2581Jessesko": 5929,
  "\u00e5\u00e8i": 5930,
  "\u2581Milij": 5931,
  "\u2581sluga\u010fenge": 5932,
  "\u2581Mothav": 5933,
  "\u2581jeanau": 5934,
  "\u2581dirz": 5935,
  "\u2581chidisaile": 5936,
  "\u2581flish": 5937,
  "\u2581sovimos": 5938,
  "\u2581Grekaik": 5939,
  "\u2581Pontu": 5940,
  "\u013eejo": 5941,
  "\u2581demonendar": 5942,
  "\u2581murdar\u010fa": 5943,
  "\u2581tsipimos": 5944,
  "\u2581pred\u017ei\u010file": 5945,
  "\u2581gazdengo": 5946,
  "\u2581tachon": 5947,
  "elaxom": 5948,
  "uilla": 5949,
  "\u2581Salmonosko": 5950,
  "\u2581\u0148eprja\u0165e\u013e": 5951,
  "\u2581parhuenas": 5952,
  "\u2581kres\u0165anenca": 5953,
  "\u2581s\u00eetilean": 5954,
  "\u2581parhuimos": 5955,
  "\u2581shumo": 5956,
  "\u2581xulaimos": 5957,
  "\u2581gropuria": 5958,
  "\u2581vriana": 5959,
  "\u2581prostomo": 5960,
  "\u2581sikh\u013ei\u013ea": 5961,
  "\u2581Archip": 5962,
  "Panzh": 5963,
  "\u258125": 5964,
  "\u2581Ephesusonge": 5965,
  "\u2581Cretan": 5966,
  "tsuria": 5967,
  "\u2581Jozija\u0161iskere": 5968,
  "\u2581kudul": 5969,
  "\u2581pokoj": 5970,
  "\u2581aterdiliam": 5971,
  "\u2581vortachenge": 5972,
  "\u2581tutraz": 5973,
  "\u2581Hagar": 5974,
  "\u2581pregenel": 5975,
  "\u2581bashadia": 5976,
  "\u2581klami\u0161agos": 5977,
  "\u2581Josias": 5978,
  "\u2581kh\u0103r\u0103": 5979,
  "oliale": 5980,
  "\u2581Legion": 5981,
  "\u2581gindisaras": 5982,
  "\u2581chumidava": 5983,
  "\u2581vi\u010dinenas": 5984,
  "\u2581Sukar": 5985,
  "\u2581pu\u0161lea": 5986,
  "\u2581rovel": 5987,
  "\u2581dopere": 5988,
  "\u2581zidiv": 5989,
  "\u0165e\u0161ine": 5990,
  "\u2581ar\u00e5sle": 5991,
  "3:20)": 5992,
  "\u2581raduimasko": 5993,
  "\u2581Nepht": 5994,
  "\u2581farm": 5995,
  "\u2581\u013eudoske": 5996,
  "uno": 5997,
  "\u258148:17": 5998,
  "\u2581juv": 5999,
  "\u25819:5": 6000,
  "\u2581pherado": 6001,
  "zhukerel": 6002,
  "\u2581marimenensa": 6003,
  "\u2581Lazaroske": 6004,
  "\u2581Abelosko": 6005,
  "\u2581Kh\u00e5": 6006,
  "\u2581terdile": 6007,
  "\u2581romaii": 6008,
  "\u2581timpo": 6009,
  "\u2581varekaha": 6010,
  "\u2581sprind\u017earde": 6011,
  "\u2581drabarno": 6012,
  "\u2581divinimos": 6013,
  "\u2581pripravinen": 6014,
  "\u2581kovlion": 6015,
  "\u2581poslu\u0161na": 6016,
  "\u2581spravno": 6017,
  "\u2581Barak": 6018,
  "\u2581chachimaske": 6019,
  "\u2581strom": 6020,
  "\u2581shuklo": 6021,
  "ungro": 6022,
  "\u0148ika": 6023,
  "otelo": 6024,
  "\u2581galben": 6025,
  "lbeno": 6026,
  "\u2581Arakhadiol": 6027,
  "\u2581premime": 6028,
  "\u2581dikh\u013ea": 6029,
  "\u2581per\u0161": 6030,
  "\u2581oxtovardesh": 6031,
  "\u2581genaha": 6032,
  "\u2581phireha": 6033,
  "\u2581rupesa": 6034,
  "\u2581Asher": 6035,
  "\u2581z\u013eid\u017eal": 6036,
  "66": 6037,
  "\u2581svat": 6038,
  "\u2581Lubi": 6039,
  "\u2581kam\u013ea": 6040,
  "\u2581banuria": 6041,
  "\u2581adres": 6042,
  "\u2581drakos": 6043,
  "\u2581doba": 6044,
  "h\u00eel": 6045,
  "\u2581derz": 6046,
  "acno": 6047,
  "\u2581Pharaohnosk": 6048,
  "\u2581phiradia": 6049,
  "\u2581guruven": 6050,
  "\u2581kamaratenge": 6051,
  "\u2581gi\u013eaha": 6052,
  "\u2581presika\u010f": 6053,
  "\u2581Rhugis": 6054,
  "\u2581Solomonosko": 6055,
  "\u2581motho": 6056,
  "\u2581krenzhaki": 6057,
  "\u2581pateau": 6058,
  "\u2581Harps": 6059,
  "\u2581Joan": 6060,
  "\u2581slavin": 6061,
  "\u2581prinzhardion": 6062,
  "cius": 6063,
  "phand\u013ea": 6064,
  "c\u00e1": 6065,
  "ra\u013ei\u0161agos": 6066,
  "\u2581chikaki": 6067,
  "\u2581a\u0161es": 6068,
  "\u2581predema": 6069,
  "\u2581mudardino": 6070,
  "\u2581buntuil": 6071,
  "\u2581armaiansa": 6072,
  "\u2581seks": 6073,
  "\u2581legum": 6074,
  "aitorii": 6075,
  "\u2581dod\u017ean\u013ean": 6076,
  "\u2581chorengi": 6077,
  "\u2581phabonas": 6078,
  "\u2581A\u0161en": 6079,
  "\u2581kra\u013e": 6080,
  "\u2581Elisha": 6081,
  "\u2581\u0161u\u0161": 6082,
  "\u2581preklad": 6083,
  "\u017eba": 6084,
  "\u2581Barval": 6085,
  "\u2581\u013eikeras": 6086,
  "\u2581Gi\u013ea": 6087,
  "\u2581Rhugisaile": 6088,
  "\u2581Premi\u0161\u013einen": 6089,
  "\u2581vi\u010dines": 6090,
  "\u2581Chechi": 6091,
  "\u2581vi\u0161vet\u013einel": 6092,
  "\u2581Joel": 6093,
  "\u2581faltil": 6094,
  "\u2581gavestar": 6095,
  "\u2581shunutosko": 6096,
  "\u2581gemulake": 6097,
  "\u2581zachrana": 6098,
  "ushle": 6099,
  "\u2581mulenca": 6100,
  "\u2581d\u017eivav": 6101,
  "\u2581bakrian": 6102,
  "phos": 6103,
  "\u2581bustard": 6104,
  "\u2581Nashen": 6105,
  "\u2581rozp": 6106,
  "\u2581bariardo": 6107,
  "\u2581ternaxaresko": 6108,
  "\u2581teleardo": 6109,
  "\u2581buki": 6110,
  "\u2581zacato": 6111,
  "\u2581chacharelpe": 6112,
  "\u2581trapinen": 6113,
  "ediara": 6114,
  "\u2581phirimos": 6115,
  "\u2581zatho": 6116,
  "\u2581prethovel": 6117,
  "\u2581kukula": 6118,
  "\u2581dujto": 6119,
  "\u2581arakhadilem": 6120,
  "\u2581libiri": 6121,
  "\u2581musurako": 6122,
  "\u2581nazori": 6123,
  "\u2581d\u017eivipna": 6124,
  "\u2581plachaia": 6125,
  "\u2581smutna": 6126,
  "\u2581kadalendar": 6127,
  "\u2581Ozias": 6128,
  "kerestos": 6129,
  "\u2581Pilatoske": 6130,
  "\u2581khosela": 6131,
  "\u2581ra\u0165i": 6132,
  "\u2581xolialo": 6133,
  "\u2581parhudion": 6134,
  "\u2581be\u0161es": 6135,
  "\u2581kashtensa": 6136,
  "\u2581fundaniako": 6137,
  "\u2581odphenen": 6138,
  "\u2581Markos": 6139,
  "\u2581ver\u0161i": 6140,
  "abloske": 6141,
  "\u2581gindonsa": 6142,
  "\u2581karfosardia": 6143,
  "\u2581Satanoha": 6144,
  "\u2581vachinpe": 6145,
  "\u010fine": 6146,
  "\u2581kanchestar": 6147,
  "\u2581osoba": 6148,
  "\u2581nakhlia": 6149,
  "\u2581Rodas": 6150,
  "\u2581ashunimos": 6151,
  "\u2581merimasko": 6152,
  "\u2581manu\u0161eskero": 6153,
  "\u2581buntuisailo": 6154,
  "\u2581ram": 6155,
  "\u2581po\u010d": 6156,
  "\u2581prea\u010dhena": 6157,
  "\u2581dod\u017eanas": 6158,
  "\u2581s\u00eetu": 6159,
  "\u2581rupeske": 6160,
  "\u2581Cirus": 6161,
  "\u2581kristsi": 6162,
  "\u2581amperatitsko": 6163,
  "\u2581ablokato": 6164,
  "\u2581paraxoditsi": 6165,
  "\u2581prazniko": 6166,
  "\u2581manus": 6167,
  "\u2581uloha": 6168,
  "\u2581ba\u0161av": 6169,
  "\u2581wulitsa": 6170,
  "\u2581phiravelaspe": 6171,
  "\u2581nakhavel": 6172,
  "\u2581manu\u0161enca": 6173,
  "\u2581do\u0161al": 6174,
  "\u2581kheldian": 6175,
  "\u2581mur\u0161eske": 6176,
  "\u2581chudela": 6177,
  "\u2581bari\u013ea": 6178,
  "iiv": 6179,
  "\u2581Izrael\u010danen": 6180,
  "mis": 6181,
  "\u2581amboldinisailo": 6182,
  "\u010dhi\u010fa": 6183,
  "\u2581na\u0161\u013eola": 6184,
  "!)": 6185,
  "\u2581k\u00e5rdean": 6186,
  "shtia": 6187,
  "\u2581Roz": 6188,
  "\u2581ediese": 6189,
  "avinen": 6190,
  "\u2581buntuisaile": 6191,
  "tura": 6192,
  "\u258114:14": 6193,
  "\u2581zhaluzile": 6194,
  "\u2581Saduseanonge": 6195,
  "\u2581Jozija\u0161is": 6196,
  "\u2581Hasard": 6197,
  "\u2581zora\u013ei": 6198,
  "\u2581a\u010dhas": 6199,
  "\u2581chumidel": 6200,
  "\u2581armandine": 6201,
  "\u2581dod\u017eanes": 6202,
  "\u2581avau": 6203,
  "\u2581potomk": 6204,
  "\u2581zvjerata": 6205,
  "\u2581zhuvindolo": 6206,
  "\u2581D\u017eanas": 6207,
  "\u2581duzhmanonge": 6208,
  "\u2581phuviaki": 6209,
  "\u2581priminen": 6210,
  "\u2581Ef": 6211,
  "\u2581vakeres": 6212,
  "\u2581raduima": 6213,
  "\u2581Iakovoske": 6214,
  "\u2581averik": 6215,
  "\u2581divanonsa": 6216,
  "\u2581shukarimos": 6217,
  "\u2581kothe": 6218,
  "\u2581Caesarosko": 6219,
  "\u010dhivel": 6220,
  "\u2581leperiben": 6221,
  "\u2581vusharel": 6222,
  "talia": 6223,
  "\u2581paraxodoski": 6224,
  "\u2581phurensa": 6225,
  "\u2581Barnabasoske": 6226,
  "\u2581masheske": 6227,
  "\u2581Cos": 6228,
  "\u2581Darav": 6229,
  "\u2581gazdango": 6230,
  "\u2581zumadiam": 6231,
  "\u2581dena\u0161": 6232,
  "\u2581porha": 6233,
  "\u2581azhukeres": 6234,
  "bulus": 6235,
  "\u2581biandilia": 6236,
  "\u2581rachake": 6237,
  "\u2581korhenge": 6238,
  "\u2581rozphand": 6239,
  "larija": 6240,
  "\u2581sheiake": 6241,
  "\u2581skepinpe": 6242,
  "\u2581khangeriaki": 6243,
  "\u2581cha\u013ea": 6244,
  "chud": 6245,
  "hiv": 6246,
  "\u2581xaiis": 6247,
  "\u2581vortakonsa": 6248,
  "\u2581xitr": 6249,
  "\u2581South": 6250,
  "\u2581ketanensa": 6251,
  "\u2581Achaz": 6252,
  "\u2581gropi": 6253,
  "\u2581pheneha": 6254,
  "\u2581xoliarikosas": 6255,
  "\u2581lunzharel": 6256,
  "\u2581shudro": 6257,
  "\u2581arakhadilia": 6258,
  "ginas": 6259,
  "\u2581U\u010d": 6260,
  "\u2581tsigni": 6261,
  "ui": 6262,
  "\u2581raklorho": 6263,
  "\u25814:8": 6264,
  "\u2581kanrho": 6265,
  "\u2581displon": 6266,
  "\u2581Foro": 6267,
  "\u2581peravav": 6268,
  "\u2581Sik": 6269,
  "noske": 6270,
  "\u2581Sakones": 6271,
  "\u2581zhuvliaki": 6272,
  "\u2581lekcij": 6273,
  "\u2581savorhendar": 6274,
  "\u2581Con": 6275,
  "\u2581mariaki": 6276,
  "\u2581serv": 6277,
  "\u2581rhomeske": 6278,
  "etsia": 6279,
  "\u2581shkonitsa": 6280,
  "\u2581vusht": 6281,
  "\u2581z\u0148i\u010dinela": 6282,
  "\u2581Sunak": 6283,
  "\u2581Chang": 6284,
  "\u2581stom": 6285,
  "\u2581Ioan": 6286,
  "\u2581s\u00eeteos": 6287,
  "\u2581guruvn": 6288,
  "\u2581slabe": 6289,
  "\u2581\u0165el": 6290,
  "\u2581seliasa": 6291,
  "\u2581Mosesosa": 6292,
  "\u2581kotoror": 6293,
  "Nashtis": 6294,
  "gen": 6295,
  "\u2581Leviong": 6296,
  "\u2581molasa": 6297,
  "\u2581Ab": 6298,
  "\u2581holi": 6299,
  "\u2581soves": 6300,
  "\u2581dilabaimahk": 6301,
  "\u2581di\u0148i": 6302,
  "\u2581paraxodoske": 6303,
  "bba": 6304,
  "\u2581gavesko": 6305,
  "cos": 6306,
  "ngaresa": 6307,
  "\u2581pachivalo": 6308,
  "\u2581Demas": 6309,
  "\u2581Dalma": 6310,
  "\u2581dvo": 6311,
  "\u2581bakroro": 6312,
  "\u2581nala\u010dhi": 6313,
  "\u2581vakerenas": 6314,
  "\u2581phurde": 6315,
  "\u2581tla\u010dinen": 6316,
  "\u2581Amperatona": 6317,
  "za\u010datkostar": 6318,
  "\u2581phand": 6319,
  "\u2581Azor": 6320,
  "\u2581phare": 6321,
  "\u2581alko": 6322,
  "\u2581phuvaha": 6323,
  "\u2581zastavinel": 6324,
  "\u2581pachaki": 6325,
  "u\u010dhare": 6326,
  "\u2581Post": 6327,
  "\u0161unde": 6328,
  "\u2581slabon": 6329,
  "talo": 6330,
  "\u25815:28": 6331,
  "\u2581Lo": 6332,
  "\u2581sika\u010fal": 6333,
  "\u2581Ro": 6334,
  "\u2581iertilpe": 6335,
  "\u2581garavas": 6336,
  "\u2581bution": 6337,
  "\u2581milewon": 6338,
  "\u2581jileskre": 6339,
  "\u2581shind": 6340,
  "\u2581glinda": 6341,
  "\u2581Romanongo": 6342,
  "bus": 6343,
  "\u2581chud\u0148al": 6344,
  "\u2581chinosko": 6345,
  "\u2581piiasa": 6346,
  "kri\u017ei": 6347,
  "\u2581Swakones": 6348,
  "\u2581Jupiter": 6349,
  "\u2581drukos": 6350,
  "\u2581vusharade": 6351,
  "\u2581kherestar": 6352,
  "\u2581kh\u00e5r\u00e5": 6353,
  "\u2581pastuxos": 6354,
  "\u2581slugaki": 6355,
  "\u2581jindem": 6356,
  "\u2581tsirdav": 6357,
  "gus": 6358,
  "bacht": 6359,
  "\u2581asana": 6360,
  "\u2581sichu": 6361,
  "\u0103n": 6362,
  "\u2581thanestar": 6363,
  "\u2581\u00e8ior": 6364,
  "\u2581rhomniako": 6365,
  "\u2581buka": 6366,
  "\u2581ankalavela": 6367,
  "\u2581xoxadia": 6368,
  "\u2581tromailem": 6369,
  "\u2581Sichar": 6370,
  "\u2581Spravodliv": 6371,
  "\u2581Krsto": 6372,
  "uzo": 6373,
  "rc": 6374,
  "\u2581ruii": 6375,
  "\u258112)": 6376,
  "\u2581oltar": 6377,
  "\u2581zeleno": 6378,
  "\u2581sastiarimask": 6379,
  "\u2581gi\u013eavav": 6380,
  "phath": 6381,
  "\u2581rhomes": 6382,
  "\u2581pastuxosa": 6383,
  "Abba": 6384,
  "\u2581\u0148ev": 6385,
  "\u2581dzilail": 6386,
  "\u2581perado": 6387,
  "korho": 6388,
  "nerg": 6389,
  "iasosko": 6390,
  "\u2581kh\u00e5r": 6391,
  "\u2581bano": 6392,
  "\u2581Marti": 6393,
  "ve\u0161\u0165inel": 6394,
  "\u2581phabo": 6395,
  "ef": 6396,
  "\u2581glatako": 6397,
  "rha": 6398,
  "\u258131": 6399,
  "\u2581Atear": 6400,
  "\u2581pochinelas": 6401,
  "incen": 6402,
  "\u2581pohan": 6403,
  "\u2581katea": 6404,
  "Zhas": 6405,
  "\u2581sapen": 6406,
  "\u2581zhutila": 6407,
  "\u2581darailem": 6408,
  "Bo": 6409,
  "\u2581buchasa": 6410,
  "\u2581avresko": 6411,
  "\u2581dzilar": 6412,
  "\u2581temi": 6413,
  "\u2581mudarelpe": 6414,
  "\u2581rhugimas": 6415,
  "\u2581rodemas": 6416,
  "\u2581lazhano": 6417,
  "\u2581forostar": 6418,
  "\u2581Zhidov": 6419,
  "\u2581Matthan": 6420,
  ":25": 6421,
  "gre": 6422,
  "\u2581Strefial": 6423,
  "ting": 6424,
  "\u2581Rhomnia": 6425,
  "\u2581nort": 6426,
  "\u2581podporinen": 6427,
  "4:7": 6428,
  "\u2581goresko": 6429,
  "glo": 6430,
  "uka": 6431,
  "\u2581chumidi": 6432,
  "\u2581zuraven": 6433,
  "\u2581Joram": 6434,
  "28)": 6435,
  "\u2581nakh": 6436,
  "\u2581acha\u013eona": 6437,
  "\u2581dromeske": 6438,
  "\u2581talazo": 6439,
  "oral": 6440,
  "\u2581brazbi": 6441,
  "\u2581dochude": 6442,
  "\u2581amperets": 6443,
  "\u2581suspinin": 6444,
  "\u2581sikadio": 6445,
  "\u2581sphanden": 6446,
  "\u2581\u010dist": 6447,
  "\u2581Balaamosk": 6448,
  "phurta": 6449,
  "\u2581jindi": 6450,
  "\u2581zab": 6451,
  "\u2581spl\u0148inen": 6452,
  "\u2581raham": 6453,
  "hubin": 6454,
  "\u2581traiivas": 6455,
  "\u2581rashask": 6456,
  "ece": 6457,
  "\u2581Dama": 6458,
  "xan": 6459,
  "\u0165ano": 6460,
  "\u2581Jakovosk": 6461,
  "lim": 6462,
  "\u2581shinenas": 6463,
  "\u2581dokon\u010din\u010fa": 6464,
  "\u2581amperatoske": 6465,
  "rahosko": 6466,
  "Ashunena": 6467,
  "\u2581Paulosa": 6468,
  "\u2581Za": 6469,
  "tso": 6470,
  "\u2581vurdona": 6471,
  "\u2581pust": 6472,
  "\u2581Sy": 6473,
  "\u2581chorh": 6474,
  "\u2581\u010dhor": 6475,
  "\u2581patrine": 6476,
  "bareder": 6477,
  "\u2581ilenge": 6478,
  "\u2581miliwon": 6479,
  "\u2581ver\u0161o": 6480,
  "\u2581korzh": 6481,
  "kom": 6482,
  "\u2581khashtesk": 6483,
  "zvik": 6484,
  "\u2581gretson": 6485,
  "\u2581chudisailem": 6486,
  "\u2581Aaronosk": 6487,
  "\u2581App": 6488,
  "\u2581dziliard": 6489,
  "\u2581pos": 6490,
  "alol": 6491,
  "\u2581\u010dore": 6492,
  "\u2581jag": 6493,
  "rah": 6494,
  "intari": 6495,
  "io": 6496,
  "\u2581Asi": 6497,
  "dra": 6498,
  "\u2581kalo": 6499,
  "\u2581ashile": 6500,
  "\u2581nashav": 6501,
  "orosko": 6502,
  "\u2581Ba": 6503,
  "thovel": 6504,
  "\u2581Grekon": 6505,
  "\u2581Abo": 6506,
  "\u2581sunga": 6507,
  "\u2581vediarako": 6508,
  "\u2581mariake": 6509,
  "\u2581Samaritanong": 6510,
  "NI": 6511,
  "\u2581khangeriasa": 6512,
  "\u2581Jano": 6513,
  "moroske": 6514,
  "ufus": 6515,
  "ANG": 6516,
  "\u2581vorbe": 6517,
  "\u010fe\u010fi": 6518,
  "\u2581Alle": 6519,
  "14)": 6520,
  "\u2581ramosardian": 6521,
  "\u2581d\u017eana": 6522,
  "inatsi": 6523,
  "\u2581bezexenge": 6524,
  "\u2581ningeras": 6525,
  "\u2581fiela": 6526,
  "Cal": 6527,
  "\u2581rudi": 6528,
  "arki": 6529,
  "\u2581Radisa\u013e": 6530,
  "\u2581loko": 6531,
  "55": 6532,
  "\u2581Kodoles": 6533,
  "\u2581tsipila": 6534,
  "\u2581sastilia": 6535,
  "\u2581sikavena": 6536,
  "\u2581rimos": 6537,
  "\u2581pochinela": 6538,
  "\u2581chernil": 6539,
  "\u2581tov": 6540,
  "\u2581manta": 6541,
  "\u2581Mariasa": 6542,
  "\u2581pravard": 6543,
  "aza": 6544,
  "\u2581serelas": 6545,
  "\u2581ingerela": 6546,
  "\u2581kovliare": 6547,
  "\u00e1va": 6548,
  "\u2581melal": 6549,
  "\u2581y": 6550,
  "\u2581zumavena": 6551,
  "\u2581biandile": 6552,
  "\u2581\u010dorker": 6553,
  "\u2581butilo": 6554,
  "\u2581\u0161p": 6555,
  "\u2581sas\u0165": 6556,
  "\u2581Swuntoske": 6557,
  "orha": 6558,
  "\u2581balen": 6559,
  "eze": 6560,
  "\u2581drechinil": 6561,
  "\u2581Vorta": 6562,
  "hushlias": 6563,
  "\u2581mi\u0161tes": 6564,
  "SA": 6565,
  "isavo": 6566,
  "\u2581bolela": 6567,
  "\u2581martiake": 6568,
  "\u2581Rhe": 6569,
  "azin": 6570,
  "h\u00e1r\u00e1": 6571,
  "\u2581elders": 6572,
  "kuria": 6573,
  "toris": 6574,
  "\u258112:12": 6575,
  "\u2581lichar": 6576,
  "\u2581k\u00e5rimahk": 6577,
  "Kokalo": 6578,
  "\u2581Trad": 6579,
  "\u2581Fo": 6580,
  "\u2581lindra": 6581,
  "\u2581Swuntosko": 6582,
  "\u2581arakhaha": 6583,
  "er\u0161o": 6584,
  "\u2581falti": 6585,
  "\u2581Am": 6586,
  "\u2581Stra": 6587,
  "\u2581kerdiilo": 6588,
  "\u2581phundraven": 6589,
  "\u2581Raduisavo": 6590,
  "\u2581\u0148isost": 6591,
  "\u2581rhuginas": 6592,
  "\u2581lehk\u00e5": 6593,
  "\u2581merava": 6594,
  "\u2581semnosa": 6595,
  "\u2581zidi": 6596,
  "bas": 6597,
  "\u2581Iakovos": 6598,
  "\u2581\u00e8io": 6599,
  "\u2581rhas": 6600,
  "\u2581lion": 6601,
  "\u2581Nah": 6602,
  "\u2581Beshav": 6603,
  "Les": 6604,
  "\u2581Mattha": 6605,
  "orm": 6606,
  "\u2581odme": 6607,
  "\u2581dieseske": 6608,
  "\u017eas": 6609,
  "\u2581roda": 6610,
  "\u2581Varek": 6611,
  "\u2581Syra": 6612,
  "\u2581Sc": 6613,
  "\u2581iakhasa": 6614,
  "\u2581vuzh": 6615,
  "\u2581Asa": 6616,
  "ama": 6617,
  "\u2581lasharas": 6618,
  "\u013eikerena": 6619,
  "dosko": 6620,
  "\u2581punrhesa": 6621,
  "\u2581bengail": 6622,
  "\u2581xoxaimas": 6623,
  "\u2581Pochin": 6624,
  "ja\u0161": 6625,
  "\u2581tumennge": 6626,
  "ad": 6627,
  "Kanchi": 6628,
  "\u2581tromala": 6629,
  "\u2581lazhai": 6630,
  "\u2581sikadi": 6631,
  "\u2581shindiol": 6632,
  "\u2581sastreng": 6633,
  "\u2581hulad": 6634,
  "\u2581Beshe": 6635,
  "\u2581lashardio": 6636,
  "\u2581chid": 6637,
  "\u2581hasarde": 6638,
  "\u2581Bichinen": 6639,
  "\u2581Hosana": 6640,
  "\u2581beze": 6641,
  "\u2581phag": 6642,
  "\u2581\u0161unela": 6643,
  "mukhle": 6644,
  "\u2581slug": 6645,
  "\u2581shubisail": 6646,
  "\u2581skepisard": 6647,
  "\u2581bufli": 6648,
  "\u2581sakrifisard": 6649,
  "\u2581chu\u0165i": 6650,
  "\u2581Motho": 6651,
  "\u2581duxos": 6652,
  "ru": 6653,
  "\u2581khe": 6654,
  "\u2581Zhid": 6655,
  "\u2581taj": 6656,
  "\u2581mocn": 6657,
  "\u2581barvalen": 6658,
  "9.": 6659,
  "eng\u0103": 6660,
  "\u2581zakam": 6661,
  "\u2581bucharen": 6662,
  "\u2581xasas": 6663,
  "chus": 6664,
  "eunuch": 6665,
  "scr": 6666,
  "\u2581barvalon": 6667,
  "\u2581Nic": 6668,
  "\u2581zo": 6669,
  "\u2581\u010dhivker": 6670,
  "\u2581kameha": 6671,
  "rimata": 6672,
  "\u2581amperetsiasa": 6673,
  "\u2581prege": 6674,
  "\u2581xu": 6675,
  "eha": 6676,
  "\u2581Adi": 6677,
  "stvos": 6678,
  "\u2581lavor": 6679,
  "\u2581trobulsardi": 6680,
  "\u2581Jannes": 6681,
  "\u2581Bu": 6682,
  "21)": 6683,
  "\u2581odphen": 6684,
  "\u2581alosardian": 6685,
  "rli": 6686,
  "orto": 6687,
  "\u2581garavav": 6688,
  "\u2581drabarimahk": 6689,
  "\u2581drazhe": 6690,
  "\u2581murshesk": 6691,
  "\u2581Tab": 6692,
  "\u2581amperatosa": 6693,
  "\u2581geto": 6694,
  "isarde": 6695,
  "\u2581cherniar": 6696,
  "\u2581shavesko": 6697,
  "\u2581kanikasa": 6698,
  "avenas": 6699,
  "sarel": 6700,
  "engero": 6701,
  "\u2581rhugisav": 6702,
  "iesa": 6703,
  "\u2581bengesa": 6704,
  "uc": 6705,
  "\u2581sna\u017ein": 6706,
  "\u2581nekezhisail": 6707,
  "resikaven": 6708,
  "avon": 6709,
  "\u2581iertim": 6710,
  "oli": 6711,
  "\u2581profetin": 6712,
  "\u2581hrjechos": 6713,
  "\u2581xalaves": 6714,
  "\u2581nashtisardi": 6715,
  "\u2581dikhl": 6716,
  "d\u017eal": 6717,
  "\u2581kukule": 6718,
  "\u2581vak": 6719,
  "\u2581gugl": 6720,
  "\u2581peradi": 6721,
  "ansh": 6722,
  "\u2581vriamako": 6723,
  "rdem": 6724,
  "\u2581phushena": 6725,
  "mosko": 6726,
  "ame": 6727,
  "\u2581shubila": 6728,
  "ska": 6729,
  "\u2581dindar": 6730,
  "mero": 6731,
  "opolis": 6732,
  "\u2581\u010da\u010dikane": 6733,
  "hin": 6734,
  "\u2581phandesa": 6735,
  "\u2581Emma": 6736,
  "\u2581Prinjeane": 6737,
  "\u2581Adamoske": 6738,
  "\u2581budine": 6739,
  "\u2581\u00e8ea\u00e8e": 6740,
  "\u2581keis": 6741,
  "her": 6742,
  "\u2581ob": 6743,
  "\u2581parhudili": 6744,
  "\u2581Farizeano": 6745,
  "\u2581pa\u010dal": 6746,
  "\u2581sumnakask": 6747,
  "rigi": 6748,
  "nav": 6749,
  "erti": 6750,
  "\u2581odcirde": 6751,
  "\u2581pira": 6752,
  "\u2581chudelas": 6753,
  "Per": 6754,
  "olenge": 6755,
  "\u2581Shud": 6756,
  "\u2581ansurin": 6757,
  "\u2581Sicho": 6758,
  "\u2581Pet": 6759,
  "hala": 6760,
  "tia": 6761,
  "\u2581Pat": 6762,
  "easto": 6763,
  "\u2581trobuna": 6764,
  "9:31": 6765,
  "\u2581Pechi": 6766,
  "\u2581m\u00eer": 6767,
  "\u2581xasarav": 6768,
  "cus": 6769,
  "\u2581ninger": 6770,
  "4:15": 6771,
  "\u258111:4": 6772,
  "\u258115:": 6773,
  "\u2581Daran": 6774,
  "\u2581\u0148em": 6775,
  "ez": 6776,
  "\u2581raduilas": 6777,
  "\u2581viziona": 6778,
  "\u2581\u010duda\u013ein": 6779,
  "\u2581W": 6780,
  "\u2581premi\u0161\u013ein": 6781,
  "nu": 6782,
  "\u2581wu": 6783,
  "\u2581vriamake": 6784,
  "\u2581rho": 6785,
  "\u2581buster": 6786,
  "era": 6787,
  "\u2581manushestar": 6788,
  "pha": 6789,
  "kasa": 6790,
  "\u2581duriar": 6791,
  "\u2581vachi": 6792,
  "Phande": 6793,
  "\u2581a\u0161ad": 6794,
  "zabe": 6795,
  "\u2581bichindi": 6796,
  "\u2581miraklong": 6797,
  "\u2581gave": 6798,
  "\u013ee": 6799,
  "\u2581zhido": 6800,
  "vlad\u0148inena": 6801,
  "\u2581Jos": 6802,
  "muria": 6803,
  "\u2581Jesse": 6804,
  "\u2581vuriard": 6805,
  "\u2581vurm": 6806,
  "oviben": 6807,
  "\u2581Eno": 6808,
  "\u2581zhun": 6809,
  "\u2581Noahosk": 6810,
  "\u2581Maga": 6811,
  "nisa": 6812,
  "min": 6813,
  "rates": 6814,
  "\u2581chine": 6815,
  "\u2581rhugisarde": 6816,
  "iasa": 6817,
  "\u2581tum": 6818,
  "\u2581Mala": 6819,
  "\u2581zhegania": 6820,
  "\u2581tsirdel": 6821,
  "\u2581izdrail": 6822,
  "ilaben": 6823,
  "\u2581gindi": 6824,
  "\u2581Anz": 6825,
  "arimos": 6826,
  "\u2581mangli": 6827,
  "\u2581tr\u00e5bun": 6828,
  "bec": 6829,
  "\u2581zad\u017eiv": 6830,
  "Iz": 6831,
  "\u2581phurd": 6832,
  "\u2581Euni": 6833,
  "\u2581mishkisard": 6834,
  "iv": 6835,
  "inas": 6836,
  "\u2581hu": 6837,
  "ila": 6838,
  "\u2581pa\u013eikeren": 6839,
  "\u2581parhuve": 6840,
  "udzinela": 6841,
  "\u2581Tito": 6842,
  "mboldinisailem": 6843,
  "\u2581Pert": 6844,
  "\u2581Herodia": 6845,
  "\u0161unav": 6846,
  "\u2581durio": 6847,
  "\u2581pachi": 6848,
  "\u2581ramo": 6849,
  "lako": 6850,
  "kerdem": 6851,
  "atal": 6852,
  "tholas": 6853,
  "\u2581savesk": 6854,
  "ledov": 6855,
  "nitori": 6856,
  "\u2581nakhena": 6857,
  "\u2581phiravena": 6858,
  "Droboi": 6859,
  "\u2581dikhe": 6860,
  "\u2581sher": 6861,
  "plo": 6862,
  "kola": 6863,
  ":23)": 6864,
  "ie": 6865,
  "\u2581ades": 6866,
  "20)": 6867,
  ":7)": 6868,
  "sop": 6869,
  "\u2581ankerdi": 6870,
  "\u2581Enochos": 6871,
  "\u2581mi\u0161\u013eina": 6872,
  "ah": 6873,
  "polis": 6874,
  "\u2581shinadem": 6875,
  "phiresa": 6876,
  "\u2581z\u0148": 6877,
  "adia": 6878,
  "\u2581Ca": 6879,
  "\u2581Da": 6880,
  "Ga": 6881,
  "\u2581hamil": 6882,
  "reklad": 6883,
  "alim": 6884,
  "\u2581muj": 6885,
  "\u2581Amp": 6886,
  "\u2581vakerela": 6887,
  "\u2581phab": 6888,
  "\u2581phena": 6889,
  "\u2581Manasses": 6890,
  "\u2581dod\u017ean": 6891,
  "\u2581pilia": 6892,
  "\u2581mu\u013e": 6893,
  "\u2581puran": 6894,
  "\u2581Evake": 6895,
  "cia": 6896,
  "\u2581zapojin": 6897,
  "7)": 6898,
  "\u2581Ju": 6899,
  "aliarel": 6900,
  "hava": 6901,
  "\u2581Ankala": 6902,
  "\u2581phiravenas": 6903,
  "ndem": 6904,
  "\u010dka": 6905,
  "\u2581lashare": 6906,
  "HU": 6907,
  "\u2581anklist": 6908,
  "UM": 6909,
  "\u2581udar": 6910,
  "jel": 6911,
  "\u010fom": 6912,
  "44": 6913,
  "\u2581Iovanosa": 6914,
  "\u2581arakhli": 6915,
  "boldinisaili": 6916,
  "\u2581Phares": 6917,
  "\u2581holear": 6918,
  "\u2581bang": 6919,
  "\u2581Herodian": 6920,
  "k\u00e1": 6921,
  "\u2581nigr": 6922,
  "\u2581mudarav": 6923,
  "over": 6924,
  "\u2581gonesk": 6925,
  "\u2581darana": 6926,
  "kle": 6927,
  "\u2581vlad\u0148inen": 6928,
  "por": 6929,
  "\u2581tsip": 6930,
  "\u2581rimosarde": 6931,
  "\u2581pa\u010d": 6932,
  "\u2581tik": 6933,
  "ide": 6934,
  "\u2581Bokha": 6935,
  "\u2581grebin": 6936,
  "adel": 6937,
  "\u2581manushende": 6938,
  "\u2581diel": 6939,
  "ica": 6940,
  "\u2581chachar": 6941,
  "\u2581Cea": 6942,
  "\u2581sluga\u010fen": 6943,
  "\u00e1r": 6944,
  "\u2581xaliam": 6945,
  "\u2581kh\u0103le": 6946,
  "\u2581tsird": 6947,
  "\u2581pherdili": 6948,
  "\u2581obeti": 6949,
  "\u2581skepitor": 6950,
  "pus": 6951,
  "phat": 6952,
  "\u2581ro": 6953,
  "\u2581pred\u017eiv": 6954,
  "Kaz": 6955,
  "\u2581Joppe": 6956,
  "\u2581zhanglimas": 6957,
  "\u2581ci": 6958,
  "\u2581podaisard": 6959,
  "spravodliva": 6960,
  "\u2581priker": 6961,
  "\u2581ankalave": 6962,
  "\u2581pharhudi": 6963,
  "kerenas": 6964,
  "\u2581zuriar": 6965,
  "lel": 6966,
  "ac": 6967,
  "\u2581en": 6968,
  "ada": 6969,
  "imesas": 6970,
  "\u2581avisail": 6971,
  "\u2581la\u0161": 6972,
  "\u2581tsirden": 6973,
  "\u2581Apoll": 6974,
  "\u2581Por": 6975,
  "\u2581Soste": 6976,
  "ande": 6977,
  "\u2581guverno": 6978,
  "Mu\u0161ine": 6979,
  "\u2581Phile": 6980,
  "ral": 6981,
  "\u2581ingerd": 6982,
  "A\u010dhen": 6983,
  "abilo": 6984,
  "\u2581Scirde": 6985,
  "\u2581ketanak": 6986,
  "sailem": 6987,
  "peres": 6988,
  "\u2581Kodole": 6989,
  ":17)": 6990,
  "\u2581potine": 6991,
  "\u2581hul": 6992,
  "lestar": 6993,
  "ys": 6994,
  "\u2581Ash": 6995,
  "KO": 6996,
  "\u2581patean": 6997,
  "\u2581arakhad": 6998,
  "\u2581serav": 6999,
  "\u2581phandadi": 7000,
  "\u2581avr": 7001,
  "a\u0148i": 7002,
  "\u2581posi": 7003,
  "\u2581lash": 7004,
  "\u2581barar": 7005,
  "\u2581Are": 7006,
  "\u2581sapesko": 7007,
  "emas": 7008,
  "nos": 7009,
  "\u2581SI": 7010,
  ":9": 7011,
  "\u2581vika": 7012,
  "\u2581prethov": 7013,
  "\u2581Sikadil": 7014,
  "Saves": 7015,
  "\u2581rhomnian": 7016,
  "\u2581Dad": 7017,
  "\u2581phu\u010d": 7018,
  "oll": 7019,
  "\u2581Tr": 7020,
  "\u00e8i": 7021,
  "\u0165ina": 7022,
  "\u2581zvjerat": 7023,
  "tato": 7024,
  "nik": 7025,
  "\u258132": 7026,
  "tume": 7027,
  "arela": 7028,
  "\u2581slu\u017eob\u0148ik": 7029,
  "\u2581Reu": 7030,
  "nglia": 7031,
  "rima": 7032,
  "\u2581\u010da\u010dipena": 7033,
  "\u2581sastiola": 7034,
  "ososke": 7035,
  "urhe": 7036,
  "ent": 7037,
  "alem": 7038,
  "astiaren": 7039,
  "\u2581meribna": 7040,
  "etsi": 7041,
  "\u2581traiosa": 7042,
  "\u2581lashardili": 7043,
  "evo": 7044,
  "\u2581fisht": 7045,
  "\u2581lasharena": 7046,
  "\u2581phe\u0148en": 7047,
  "\u2581Cu": 7048,
  "\u2581guvern": 7049,
  "oleske": 7050,
  "\u258124:": 7051,
  "\u2581Fi": 7052,
  "alon": 7053,
  "11)": 7054,
  "\u2581gr": 7055,
  "\u2581ovlad\u0148inen": 7056,
  "arau": 7057,
  "\u2581pl": 7058,
  "iana": 7059,
  "\u2581cchach": 7060,
  "Kodoles": 7061,
  "\u0161enca": 7062,
  "aske": 7063,
  "\u010das": 7064,
  "\u258127:1": 7065,
  "iko": 7066,
  "ula": 7067,
  "\u2581zhangl": 7068,
  "14": 7069,
  "\u2581Mu\u0161ine": 7070,
  "urdon": 7071,
  "\u2581shubis": 7072,
  "\u2581ats": 7073,
  "ome": 7074,
  "\u2581rachak": 7075,
  "\u2581barol": 7076,
  "ril": 7077,
  "Pregen": 7078,
  "kadia": 7079,
  "rhai": 7080,
  "\u2581leha": 7081,
  "\u2581goja": 7082,
  "udisarde": 7083,
  "AS": 7084,
  "\u2581posu": 7085,
  "meng\u0103": 7086,
  "\u2581nauk": 7087,
  "kra": 7088,
  "\u2581Sen": 7089,
  "\u2581mart": 7090,
  "\u2581Pan": 7091,
  "cu": 7092,
  "\u2581keravas": 7093,
  "\u2581peskr": 7094,
  "\u2581shinelas": 7095,
  "\u013eaha": 7096,
  "\u2581ningerena": 7097,
  "Sh": 7098,
  "\u2581arakhl": 7099,
  "ty": 7100,
  "amosko": 7101,
  "\u2581bajin": 7102,
  "shko": 7103,
  "\u2581hulen": 7104,
  "\u2581pan": 7105,
  "\u2581tse": 7106,
  "tosa": 7107,
  "imp": 7108,
  "rosto": 7109,
  "achtaleder": 7110,
  "\u2581serel": 7111,
  "\u2581prem": 7112,
  "ians": 7113,
  "radia": 7114,
  "\u2581slu\u017eob\u0148iken": 7115,
  "\u2581macharn": 7116,
  "\u2581nu": 7117,
  "nonge": 7118,
  "\u2581xasares": 7119,
  "\u2581mukhel": 7120,
  "juca": 7121,
  "\u2581zvjeraten": 7122,
  "\u2581izulak": 7123,
  "red": 7124,
  "\u2581gre": 7125,
  "\u2581Jehovask": 7126,
  "dile": 7127,
  "ort": 7128,
  "\u2581bu\u0165a": 7129,
  "\u2581Angla": 7130,
  "\u2581savorheng": 7131,
  "thode": 7132,
  "\u2581lashen": 7133,
  "\u2581phu\u010de": 7134,
  "\u2581buzhn": 7135,
  "\u2581pa\u0148": 7136,
  "visarde": 7137,
  "\u2581amim": 7138,
  "chisaras": 7139,
  "din": 7140,
  "D\u017ea": 7141,
  "\u2581traii": 7142,
  "iol": 7143,
  "\u0161ti": 7144,
  "\u2581phird": 7145,
  "\u2581tas": 7146,
  "\u2581d\u017ei\u010fil": 7147,
  ":14": 7148,
  "\u2581nakhe": 7149,
  "\u2581mishtis": 7150,
  "\u2581taso": 7151,
  "pom": 7152,
  "\u2581kadal": 7153,
  "\u010dinen": 7154,
  "nelas": 7155,
  "umi": 7156,
  "ndel": 7157,
  "numa": 7158,
  "\u2581\u010dor": 7159,
  "vres": 7160,
  "\u2581ga": 7161,
  "\u2581sastiol": 7162,
  "\u2581urdo": 7163,
  "avrendar": 7164,
  ":11)": 7165,
  "ribnaske": 7166,
  "\u2581traiisardias": 7167,
  "\u2581malav": 7168,
  "ade": 7169,
  "\u2581Sav": 7170,
  "\u2581Kaz": 7171,
  "lta": 7172,
  "tor": 7173,
  "rasa": 7174,
  "los": 7175,
  "\u2581anklisti": 7176,
  "tro": 7177,
  "ucal": 7178,
  "\u2581Avri": 7179,
  "\u2581aresava": 7180,
  "isardian": 7181,
  "\u2581prethove": 7182,
  "\u2581rozhod\u0148in": 7183,
  "tvori\u0165e\u013eis": 7184,
  "ivia": 7185,
  "\u25812:4": 7186,
  "\u2581luvudi": 7187,
  "chidisardia": 7188,
  "\u2581luvudilas": 7189,
  "ano": 7190,
  "\u2581zhigenien": 7191,
  "\u2581doshardian": 7192,
  "\u2581rhugi": 7193,
  "chab": 7194,
  "\u2581dra": 7195,
  "\u25816:": 7196,
  "\u2581nasuli": 7197,
  "\u2581bakreng": 7198,
  "\u2581Eliske": 7199,
  "\u2581Mi\u0161": 7200,
  "\u2581dum": 7201,
  "\u2581respekt": 7202,
  "\u2581phagav": 7203,
  "\u2581paba": 7204,
  "\u2581kerdiua": 7205,
  "\u2581bustr": 7206,
  "vetlo": 7207,
  "demas": 7208,
  "be": 7209,
  "ilem": 7210,
  "\u2581nigra": 7211,
  "\u2581Achim": 7212,
  "erno": 7213,
  "rial": 7214,
  "lena": 7215,
  "\u0161t": 7216,
  "\u2581divini": 7217,
  "im": 7218,
  "\u2581Sost": 7219,
  "\u2581Abrah": 7220,
  "kim": 7221,
  "zhil": 7222,
  "\u2581pred\u017eive": 7223,
  "\u2581bokha": 7224,
  "\u2581kasa": 7225,
  "\u2581Jo": 7226,
  "hol": 7227,
  "\u2581sik": 7228,
  "lon": 7229,
  "\u2581\u013e": 7230,
  "\u2581shindil": 7231,
  "\u2581phandena": 7232,
  "\u2581go": 7233,
  "\u2581LU": 7234,
  "kon": 7235,
  "\u2581holeara": 7236,
  "bori": 7237,
  "kro": 7238,
  "\u2581Sikadi": 7239,
  "\u2581phan": 7240,
  "\u2581Kerel": 7241,
  "\u2581Phi": 7242,
  "\u2581groposar": 7243,
  "\u2581atear": 7244,
  "\u2581zapoji": 7245,
  "\u2581aresl": 7246,
  "\u2581vurhits": 7247,
  "\u2581Phar": 7248,
  "hara": 7249,
  "\u2581vulad": 7250,
  "\u0161e": 7251,
  "\u2581Manasse": 7252,
  "rac": 7253,
  "\u2581angere": 7254,
  "Karfo": 7255,
  "risto": 7256,
  "\u2581podaim": 7257,
  "\u2581phande": 7258,
  "\u2581Tra": 7259,
  "\u2581miazo": 7260,
  "\u2581phend\u017ea": 7261,
  "int": 7262,
  "\u2581Pesk": 7263,
  "line": 7264,
  "\u2581Jan": 7265,
  "\u2581mudard": 7266,
  "\u2581zhe": 7267,
  "\u2581sprind\u017ear": 7268,
  "\u2581trushula": 7269,
  "\u0161aren": 7270,
  "rom": 7271,
  "vale": 7272,
  "rau": 7273,
  "atosko": 7274,
  "\u2581bin": 7275,
  "amas": 7276,
  "\u2581bi\u010dhad": 7277,
  "Savata": 7278,
  "nai": 7279,
  "\u2581chachare": 7280,
  "spe": 7281,
  "\u2581vurhitsis": 7282,
  "\u2581sudzine": 7283,
  "\u2581Ep": 7284,
  "enpe": 7285,
  "idas": 7286,
  "hom": 7287,
  "shav": 7288,
  "\u2581Trai": 7289,
  "in\u010f": 7290,
  "\u2581zuriare": 7291,
  "itsa": 7292,
  "\u2581Pergam": 7293,
  "olin": 7294,
  "\u2581zholina": 7295,
  "Goni": 7296,
  "tsir": 7297,
  "\u2581jilaba": 7298,
  "\u2581paraxodos": 7299,
  "huri": 7300,
  "\u2581Kat": 7301,
  "aria": 7302,
  "\u2581Cyreni": 7303,
  "wo": 7304,
  "\u2581phabarel": 7305,
  "\u2581Mul": 7306,
  "kodo": 7307,
  "\u2581slu\u017eina": 7308,
  "\u2581odmukhe": 7309,
  "\u2581ge": 7310,
  "rensa": 7311,
  "iera": 7312,
  "\u2581Fe": 7313,
  "\u2581Bachtal": 7314,
  "sikaven": 7315,
  "\u2581Eva": 7316,
  "vaj": 7317,
  "eto": 7318,
  "\u258114:": 7319,
  "\u2581amboldinisaile": 7320,
  "\u00eeni": 7321,
  "\u010des": 7322,
  "\u2581vur": 7323,
  "\u2581lasharava": 7324,
  "astilian": 7325,
  "usosko": 7326,
  "\u2581angropo": 7327,
  "rimos": 7328,
  "\u2581prinzhardi": 7329,
  "\u2581primi": 7330,
  "tai": 7331,
  "\u2581postina": 7332,
  "\u013eol": 7333,
  "\u2581a\u0161e": 7334,
  ":30": 7335,
  "\u2581nash": 7336,
  "oneske": 7337,
  "\u2581Zhanel": 7338,
  "\u2581pherdiola": 7339,
  "ulade": 7340,
  "ura": 7341,
  "\u2581deian": 7342,
  "shesko": 7343,
  "\u0161el": 7344,
  "\u2581droboi": 7345,
  "ilia": 7346,
  "\u2581naro\u010f": 7347,
  "savi": 7348,
  "Kam": 7349,
  "son": 7350,
  "\u25815:2": 7351,
  "\u2581Go": 7352,
  "\u2581\u010duda\u013eine": 7353,
  "\u2581mishkil": 7354,
  "\u2581vares": 7355,
  "\u2581rad": 7356,
  "\u2581Mur": 7357,
  "\u2581kos": 7358,
  "8:1": 7359,
  "hime": 7360,
  "icus": 7361,
  "\u2581odmukh": 7362,
  "imahk\u00e5": 7363,
  "espektin": 7364,
  "\u2581Zhasa": 7365,
  "dui": 7366,
  "\u2581manrhesk": 7367,
  "\u2581\u0161v": 7368,
  "\u2581hului": 7369,
  "\u2581Prinjean": 7370,
  "ashimasa": 7371,
  "\u2581\u00e8ea\u00e8": 7372,
  "\u2581pharha": 7373,
  "uxho": 7374,
  "\u2581trobu": 7375,
  "\u25819:3": 7376,
  "\u2581vare": 7377,
  "\u2581phendea": 7378,
  "\u2581slu\u017einela": 7379,
  "akana": 7380,
  "\u2581odcird": 7381,
  "\u2581He": 7382,
  "\u2581visa": 7383,
  "\u2581\u0161tudinen": 7384,
  "Kasav": 7385,
  "uime": 7386,
  "it": 7387,
  "\u2581ura": 7388,
  "\u2581Aram": 7389,
  "eng\u00e5": 7390,
  "\u2581Kach": 7391,
  "\u2581bakr": 7392,
  "\u2581Vushti": 7393,
  "\u258110:2": 7394,
  "\u2581Tira": 7395,
  "\u2581\u010da\u010dikan": 7396,
  "eta": 7397,
  "onas": 7398,
  "chinel": 7399,
  "ns": 7400,
  "sea": 7401,
  "\u2581bich": 7402,
  "\u2581phagel": 7403,
  "\u2581Rajes": 7404,
  "arimata": 7405,
  "\u2581sna\u017eine": 7406,
  "har": 7407,
  "\u2581nashela": 7408,
  "almo": 7409,
  "\u2581juk": 7410,
  "ZA": 7411,
  "buchi": 7412,
  "zakono": 7413,
  "ud": 7414,
  "\u2581Benges": 7415,
  "\u2581poronchisa": 7416,
  "\u2581Li": 7417,
  "\u2581gonisardias": 7418,
  "a\u0161": 7419,
  "\u2581phage": 7420,
  "angle": 7421,
  "\u2581phu": 7422,
  "\u2581wuz": 7423,
  "avela": 7424,
  "\u2581Lazarusos": 7425,
  "\u2581inkerdi": 7426,
  "Mudaren": 7427,
  "\u2581Ara": 7428,
  "odola": 7429,
  "\u2581avi": 7430,
  "vuria": 7431,
  "\u013eahas": 7432,
  "ater": 7433,
  "\u2581zhutinas": 7434,
  "kado": 7435,
  "\u2581divin": 7436,
  "AN": 7437,
  "\u2581rodela": 7438,
  "R": 7439,
  "\u2581ducho": 7440,
  "Kada": 7441,
  "\u2581chori": 7442,
  "\u2581ad": 7443,
  "\u2581Abramos": 7444,
  "\u2581trapin": 7445,
  "nt": 7446,
  "\u2581El": 7447,
  "\u2581shuda": 7448,
  "\u2581Tim": 7449,
  "iape": 7450,
  "pal": 7451,
  "\u2581vular": 7452,
  "mp": 7453,
  "\u2581Adamos": 7454,
  "31": 7455,
  "orhi": 7456,
  "\u2581Jann": 7457,
  "\u2581\u0148ikast": 7458,
  "\u2581bufl": 7459,
  "rdian": 7460,
  "adala": 7461,
  "\u2581\u010dhivkere": 7462,
  "\u2581Ne": 7463,
  "rad": 7464,
  "sht": 7465,
  "\u2581chindias": 7466,
  "phral": 7467,
  "hagaven": 7468,
  "drago": 7469,
  "\u2581chu\u0165": 7470,
  "\u2581Satanoske": 7471,
  "rt": 7472,
  "mare": 7473,
  "mol": 7474,
  "aro": 7475,
  "\u2581ajuk\u00e5ra": 7476,
  "\u2581bez": 7477,
  "\u2581korkor": 7478,
  "\u2581angerdias": 7479,
  "\u2581tra": 7480,
  "ija\u0161": 7481,
  "ipen": 7482,
  "\u2581Nazaren": 7483,
  "\u2581Josephos": 7484,
  "inkeren": 7485,
  "\u2581garuva": 7486,
  "keri": 7487,
  "\u2581parhu": 7488,
  "\u2581rom\u0148": 7489,
  "\u2581ank": 7490,
  "\u2581Phendias": 7491,
  "phandel": 7492,
  "\u017ei": 7493,
  "okola": 7494,
  "\u2581Mal": 7495,
  "ravas": 7496,
  "oznamka": 7497,
  "\u2581aterdiola": 7498,
  "\u2581sichardi": 7499,
  "\u017eiv": 7500,
  "pes": 7501,
  "\u2581chidi": 7502,
  "asaven": 7503,
  "\u2581ship": 7504,
  "\u2581vlad\u0148ine": 7505,
  "\u0161ines": 7506,
  "\u2581pa\u010diva": 7507,
  "\u2581rhi": 7508,
  "\u2581puchi": 7509,
  "losardem": 7510,
  "\u2581mami": 7511,
  "orhe": 7512,
  "\u2581goni": 7513,
  "mui": 7514,
  "\u2581chingar": 7515,
  "\u2581simtos": 7516,
  "\u2581rhivdi": 7517,
  "\u2581xoxam": 7518,
  "\u2581phrale": 7519,
  "\u2581chudis": 7520,
  "xaiima": 7521,
  "\u2581prava": 7522,
  "\u013eam": 7523,
  "\u2581presikave": 7524,
  "\u2581Her": 7525,
  "\u2581St": 7526,
  "resave": 7527,
  "\u2581ts": 7528,
  "\u2581Kan": 7529,
  "Pavlo": 7530,
  "\u2581nachinai": 7531,
  "chardias": 7532,
  "\u2581vi\u010di": 7533,
  "\u2581nekezhisar": 7534,
  "nilas": 7535,
  "Ashundia": 7536,
  "d\u017eanel": 7537,
  "\u2581Barnab": 7538,
  "amos": 7539,
  "Thode": 7540,
  "dikhen": 7541,
  "\u010dinela": 7542,
  "kaske": 7543,
  "kerdiol": 7544,
  "Jerusalem": 7545,
  "\u2581kovlim": 7546,
  "\u2581lindr": 7547,
  "Petri": 7548,
  "a\u017e": 7549,
  "pas": 7550,
  "\u2581drechini": 7551,
  "\u2581be\u0161e": 7552,
  "dur": 7553,
  "utno": 7554,
  "Akhar": 7555,
  "\u2581vuzhare": 7556,
  "\u2581terdiol": 7557,
  "araxoduria": 7558,
  "ukar": 7559,
  "Thav": 7560,
  "jes": 7561,
  "ker": 7562,
  "\u2581genena": 7563,
  "oskere": 7564,
  "lema": 7565,
  "\u2581bakrorh": 7566,
  "\u2581rhugil": 7567,
  "5:2": 7568,
  "600": 7569,
  "\u2581tsav": 7570,
  "tisardia": 7571,
  "ika": 7572,
  "\u2581doma": 7573,
  "holas": 7574,
  "\u2581barva": 7575,
  "\u2581duzh": 7576,
  "\u2581kurv": 7577,
  "Porme": 7578,
  "\u2581tsali": 7579,
  "dony": 7580,
  "tut": 7581,
  "Iovano": 7582,
  "Beshe": 7583,
  "\u2581wur": 7584,
  "\u2581Sha": 7585,
  "\u2581ves": 7586,
  "stinel": 7587,
  "rna": 7588,
  "\u2581andi": 7589,
  "\u2581raduis": 7590,
  "\u2581mudardias": 7591,
  "\u2581traiisar": 7592,
  "iduvuria": 7593,
  "5:9": 7594,
  "oro": 7595,
  "\u2581kanrh": 7596,
  "ero": 7597,
  "udas": 7598,
  "chachimos": 7599,
  "\u010fe": 7600,
  "\u2581rro": 7601,
  "\u2581Zebede": 7602,
  "roboitu": 7603,
  "\u2581tsi": 7604,
  "2:12)": 7605,
  "barians": 7606,
  "\u2581Deme": 7607,
  "fu": 7608,
  "\u2581xoliavo": 7609,
  "itori": 7610,
  "arodo": 7611,
  "avenca": 7612,
  "\u2581dashti": 7613,
  "\u2581marava": 7614,
  "\u2581perade": 7615,
  "ran": 7616,
  "Sav": 7617,
  "e\u0148in": 7618,
  "ate": 7619,
  "ungalo": 7620,
  "\u2581hula": 7621,
  "\u2581inf": 7622,
  "\u2581Odphene": 7623,
  "phenelas": 7624,
  "aradia": 7625,
  "\u2581Se": 7626,
  "\u2581rupun": 7627,
  "\u2581haliarava": 7628,
  "\u2581bichi": 7629,
  "\u2581patri": 7630,
  "\u2581Claud": 7631,
  "\u2581Num": 7632,
  "\u2581Mana": 7633,
  "\u2581Kristosk": 7634,
  "ovo": 7635,
  "lias": 7636,
  "\u2581104:": 7637,
  "mukhel": 7638,
  "Galilee": 7639,
  "\u2581Galile": 7640,
  "\u2581zvi": 7641,
  "\u2581amperet": 7642,
  "\u2581purh": 7643,
  "Gen": 7644,
  "\u2581\u013eid\u017ea": 7645,
  "d\u017ei\u010fi\u013ea": 7646,
  "Abraham": 7647,
  ":15)": 7648,
  "\u2581huriar": 7649,
  "\u2581dobrovo\u013e": 7650,
  "\u2581nashena": 7651,
  "\u2581dade": 7652,
  "\u2581sastr": 7653,
  "\u2581m\u00ee": 7654,
  "\u2581Plaiin": 7655,
  "obro": 7656,
  "PE": 7657,
  "\u2581dashtisar": 7658,
  "\u2581dokon\u010din\u010f": 7659,
  "elosko": 7660,
  "\u2581cho\u013e": 7661,
  "\u2581pili": 7662,
  "cal": 7663,
  "Avav": 7664,
  "Savorhe": 7665,
  "\u2581\u010dho": 7666,
  "\u2581d\u017e": 7667,
  "ushtilo": 7668,
  "xale": 7669,
  "But": 7670,
  "\u2581Kh\u00e1r": 7671,
  "Maria": 7672,
  "shilo": 7673,
  "Chin": 7674,
  "\u2581gene": 7675,
  "Vort": 7676,
  "Pilate": 7677,
  "\u2581chu": 7678,
  "\u2581suspini": 7679,
  "\u2581kapitan": 7680,
  "\u2581xasardi": 7681,
  "\u2581Gre": 7682,
  "\u2581garades": 7683,
  "8": 7684,
  "\u2581amboldinisail": 7685,
  "Andre": 7686,
  "uv": 7687,
  "\u2581vurhi": 7688,
  "\u2581Rhomni": 7689,
  "\u2581nekezhi": 7690,
  "\u2581swunts": 7691,
  "\u2581kh": 7692,
  "e\u013e": 7693,
  "\u2581phene": 7694,
  "zhutil": 7695,
  "\u2581zhu": 7696,
  "erne": 7697,
  "tumari": 7698,
  "adiuas": 7699,
  "\u2581Pele": 7700,
  "\u2581Zhido": 7701,
  "ax": 7702,
  "svjatk": 7703,
  "\u2581famili": 7704,
  "ordina": 7705,
  "miazol": 7706,
  "Eph": 7707,
  "Judas": 7708,
  "\u2581Ge": 7709,
  "a\u010dinen": 7710,
  "Terhar": 7711,
  "familia": 7712,
  "Strazo": 7713,
  "khash": 7714,
  "stia": 7715,
  "taksa": 7716,
  "\u2581a\u010dhi\u013e": 7717,
  "honas": 7718,
  "\u2581Mic": 7719,
  "la\u010dhi": 7720,
  "k\u00e5": 7721,
  "\u2581ve\u0161\u0165ine": 7722,
  "havas": 7723,
  "bits": 7724,
  "arakhel": 7725,
  "ince": 7726,
  "\u2581pa\u010dine": 7727,
  "Amperato": 7728,
  "Zhidovo": 7729,
  "\u2581tasad": 7730,
  "di\u0148a": 7731,
  "niva": 7732,
  "peske": 7733,
  "Zechari": 7734,
  "\u2581raduil": 7735,
  "Anger": 7736,
  "ginel": 7737,
  "bezexale": 7738,
  "kurvia": 7739,
  "\u2581vriam": 7740,
  "slu\u017einel": 7741,
  "mi\u0161te": 7742,
  "\u2581Devle": 7743,
  "\u2581kodi": 7744,
  "chorhi": 7745,
  "\u2581Na\u0161": 7746,
  "\u2581Acha": 7747,
  "\u2581zhigan": 7748,
  "Josef": 7749,
  "Hin": 7750,
  "Sakadia": 7751,
  "Va\u0161oda": 7752,
  "\u2581veseli": 7753,
  "Mudar": 7754,
  "Spravodliv": 7755,
  "khangeria": 7756,
  "\u2581od\u010dhiv": 7757,
  "vuzhi": 7758,
  "Lazarus": 7759,
  "\u2581dikhli": 7760,
  "Ephesus": 7761,
  "uden": 7762,
  "Andro": 7763,
  "idosko": 7764,
  "ya": 7765,
  "\u2581dicho": 7766,
  "3:1": 7767,
  "d\u017ean": 7768,
  "chinuime": 7769,
  "\u2581\u013eiker": 7770,
  "\u2581Krist": 7771,
  "Psalm": 7772,
  "\u2581hlav": 7773,
  "\u2581miaz": 7774,
  "Shuden": 7775,
  "Mange": 7776,
  "sika\u010fa": 7777,
  "Ark": 7778,
  "chra\u0148inen": 7779,
  "avrial": 7780,
  "Barabbas": 7781,
  "apostle": 7782,
  "Jupiter": 7783,
  "drukos": 7784,
  "zeleno": 7785,
  "kh\u00e5r\u00e5": 7786,
  "Martha": 7787,
  "kurvimos": 7788,
  "zhaluzo": 7789,
  "\u2581ive": 7790,
  "kri\u017e": 7791,
  "Ada": 7792,
  "duchos": 7793,
  "Beng": 7794,
  "spidel": 7795,
  "Samuel": 7796,
  "glinda": 7797,
  "jileskre": 7798,
  "bish": 7799,
  "per\u0161o": 7800,
  "kimpo": 7801,
  "go\u010faver": 7802,
  "Zacchaeus": 7803,
  "prosto": 7804,
  "Messiah": 7805,
  "andral": 7806,
  "Chachimos": 7807,
  "kerela": 7808,
  "6:10)": 7809,
  "lokes": 7810,
  "Furt": 7811,
  "sikaveha": 7812,
  "rom\u0148ake": 7813,
  "\u2581Zuma": 7814,
  "pugnia": 7815,
  "\u2581milewo": 7816,
  "niamon": 7817,
  "Phushav": 7818,
  "chinuilas": 7819,
  "venca": 7820,
  "\u2581Pilat": 7821,
  "\u2581gat": 7822,
  "\u2581slu\u017ei": 7823,
  "70": 7824,
  "Premi": 7825,
  "jeau": 7826,
  "\u0161unes": 7827,
  "6": 7828,
  "zi": 7829,
  "2.": 7830,
  "aliarav": 7831,
  "Ru": 7832,
  "\u2581za\u010datkos": 7833,
  "slu\u017eines": 7834,
  "\u2581Pochi": 7835,
  "Psalms": 7836,
  "tla\u010dinen": 7837,
  "charde": 7838,
  "zastavinel": 7839,
  "soven": 7840,
  "aren": 7841,
  "oskero": 7842,
  "Thodia": 7843,
  "dikhenas": 7844,
  "Pachav": 7845,
  "Ur": 7846,
  "limata": 7847,
  "Tab": 7848,
  "\u2581vuluisard": 7849,
  "\u2581Azo": 7850,
  "keci": 7851,
  "\u2581(1": 7852,
  "\u2581varek": 7853,
  "Kerdia": 7854,
  "Angla": 7855,
  "dili": 7856,
  "dcirde": 7857,
  "KA": 7858,
  "\u2581viast": 7859,
  "\u2581chidian": 7860,
  "\u2581dilaba": 7861,
  "svjatki": 7862,
  "dzilo": 7863,
  "\u2581Bakriorh": 7864,
  "\u2581papuc": 7865,
  "Ash": 7866,
  "Slu\u017ein": 7867,
  "jinen": 7868,
  "sikh\u013eo": 7869,
  "\u2581dashtis": 7870,
  "\u2581chirikli": 7871,
  "nakuno": 7872,
  "\u2581zhaluz": 7873,
  "Luvudis": 7874,
  "Jehova": 7875,
  "Phendia": 7876,
  "Bar": 7877,
  "\u2581proroctv": 7878,
  "\u2581vush": 7879,
  "\u2581apostlo": 7880,
  "36": 7881,
  "\u2581put": 7882,
  "\u2581pa\u0165ana": 7883,
  "r\u00e5n": 7884,
  "rabarde": 7885,
  "sveto": 7886,
  "\u0161al": 7887,
  "genes": 7888,
  "TE": 7889,
  "\u2581145:1": 7890,
  "Aves": 7891,
  "\u2581chernia": 7892,
  "\u2581zme\u0148in": 7893,
  "Naisin": 7894,
  "imaeus": 7895,
  "trec": 7896,
  "\u2581ikon": 7897,
  "trenia": 7898,
  "\u010dhi\u013ea": 7899,
  "\u0161unen": 7900,
  "ux": 7901,
  "\u2581maslenen": 7902,
  "omstvo": 7903,
  "serv": 7904,
  "\u2581amper": 7905,
  "post": 7906,
  "17)": 7907,
  "\u2581khanger": 7908,
  "mir": 7909,
  "\u2581synagogu": 7910,
  "\u2581phandav": 7911,
  "odpo": 7912,
  "\u2581gi\u013e": 7913,
  "Phush": 7914,
  "\u2581Phuterd": 7915,
  "\u2581\u0161und": 7916,
  "up": 7917,
  "Ara": 7918,
  "\u2581dzi": 7919,
  "rav\u0148e": 7920,
  "\u2581zhegan": 7921,
  "shuko": 7922,
  "\u2581xoxai": 7923,
  "ON": 7924,
  "\u2581upr": 7925,
  "\u2581100": 7926,
  "\u2581phira": 7927,
  "ili": 7928,
  "\u2581antunch": 7929,
  "h\u0103len": 7930,
  "\u2581sakone": 7931,
  "\u010fi\u013ea": 7932,
  "dcas": 7933,
  "\u2581zhung": 7934,
  "\u2581armandin": 7935,
  "o\u00e8e": 7936,
  "\u2581zrad": 7937,
  "\u2581Saduseanong": 7938,
  "Manglema": 7939,
  "\u2581s\u013eub": 7940,
  "chudeha": 7941,
  "\u2581lunzhar": 7942,
  "ashilia": 7943,
  "cha\u013ea": 7944,
  "\u2581Samaritan": 7945,
  "0-1": 7946,
  "\u2581khashte": 7947,
  "Eli": 7948,
  "hrjech": 7949,
  "imen": 7950,
  "phira": 7951,
  "\u2581avilea": 7952,
  "\u2581na\u0161\u013eol": 7953,
  "ijah": 7954,
  "8:3": 7955,
  "\u2581chererha": 7956,
  "\u2581marturi": 7957,
  "\u2581\u0148espravodliv": 7958,
  "anuria": 7959,
  "\u2581uprimn": 7960,
  "oshalo": 7961,
  "periben": 7962,
  "\u2581pobo\u010dk": 7963,
  "\u2581wulits": 7964,
  "\u2581zhigenang": 7965,
  "\u2581zahrad": 7966,
  "\u2581u\u017ear": 7967,
  "\u010fin": 7968,
  "\u2581zvestin": 7969,
  "\u2581praznik": 7970,
  "\u2581ablokat": 7971,
  "\u2581paraxodits": 7972,
  "\u2581amperatitsk": 7973,
  "zea": 7974,
  "s\u0165": 7975,
  "rusosker": 7976,
  "\u2581chailil": 7977,
  "\u2581intai": 7978,
  "\u2581slobod": 7979,
  "\u2581merimask": 7980,
  "\u2581maslen": 7981,
  "\u2581zelen": 7982,
  "\u2581kontrakt": 7983,
  "\u2581krajsk": 7984,
  "\u2581krajin": 7985,
  "\u2581governor": 7986,
  "\u2581odva\u017en": 7987,
  "pachi": 7988,
  "\u2581phori": 7989,
  "h\u00e5s": 7990,
  "ononge": 7991,
  "She": 7992,
  "\u2581pochinena": 7993,
  "\u2581zasad": 7994,
  "\u2581cikn": 7995,
  "1-1": 7996,
  "10:1": 7997,
  "iariko": 7998,
  "Phenen": 7999,
  "ved": 8000,
  "\u2581ra\u0165": 8001,
  "jinel": 8002,
  "\u2581zname\u0148": 8003,
  "\u2581zacat": 8004,
  "khelpe": 8005,
  "\u2581Skepitor": 8006,
  "hra\u0148i": 8007,
  "\u2581dod\u017ean\u013ea": 8008,
  "\u2581Cyr": 8009,
  "Ambold": 8010,
  "\u2581zachran": 8011,
  "\u2581bunt": 8012,
  "\u2581\u013eudo": 8013,
  "\u2581ansurisail": 8014,
  "Kodolen": 8015,
  "ibnaha": 8016,
  "\u2581bandil": 8017,
  "\u2581nachinaisard": 8018,
  "\u2581patret": 8019,
  "\u2581phundra": 8020,
  "\u2581ajuk": 8021,
  "\u2581dielen": 8022,
  "umensa": 8023,
  "Keras": 8024,
  "\u2581nakhli": 8025,
  "\u0161oha": 8026,
  "\u2581drag": 8027,
  "zbadia": 8028,
  "\u2581Harp": 8029,
  "terdiardia": 8030,
  "\u2581chordane": 8031,
  "riben": 8032,
  "\u2581xoliarik": 8033,
  "\u00e5rdea": 8034,
  "postluria": 8035,
  "\u2581Tiberi": 8036,
  "\u2581tachol": 8037,
  "Grebisa": 8038,
  "\u2581Cret": 8039,
  "Trobu": 8040,
  "\u2581vec": 8041,
  "\u2581zastavine": 8042,
  "Sastil": 8043,
  "\u2581z\u013eid\u017ea": 8044,
  "chanas": 8045,
  "ushale": 8046,
  "\u2581chidis": 8047,
  "pl\u0148in": 8048,
  "\u2581uloh": 8049,
  "\u013eubin\u010fa": 8050,
  "\u0103r\u0103": 8051,
  "\u2581vun": 8052,
  "ynagoguria": 8053,
  "ancheste": 8054,
  "hes": 8055,
  "\u2581z\u0148i\u010din": 8056,
  "\u2581Melchizede": 8057,
  "ripravinen": 8058,
  "\u2581rozhod": 8059,
  "prind\u017earaha": 8060,
  "hrajin": 8061,
  "\u0148inela": 8062,
  "\u2581premis": 8063,
  "sipisar": 8064,
  "\u2581Capernau": 8065,
  "\u2581shox": 8066,
  "\u2581Mosesos": 8067,
  "rofetonge": 8068,
  "ea\u00e8es": 8069,
  "umuntsi": 8070,
  "\u2581vzkrjesi": 8071,
  "roroctva": 8072,
  "kepimos": 8073,
  "rapinel": 8074,
  "phtali": 8075,
  "rigin": 8076,
  "2:12": 8077,
  "nsurisail": 8078,
  "slu\u0161na": 8079,
  "\u2581inkerena": 8080,
  "50": 8081,
  "ubim": 8082,
  "12:1": 8083,
  "rushalo": 8084,
  "\u2581xasavo": 8085,
  "\u2581xazhaino": 8086,
  "rerhaia": 8087,
  "\u2581Ierti": 8088,
  "\u258148": 8089,
  "\u2581Egyp": 8090,
  "ea\u00e8eo": 8091,
  "od\u017ean\u013eam": 8092,
  "\u2581\u0148eprja\u0165e": 8093,
  "okxtoro": 8094,
  "ganesko": 8095,
  "ishtimos": 8096,
  "o\u013eikeras": 8097,
  "\u017eivipen": 8098,
  "\u2581prasht": 8099,
  "od\u017eanaha": 8100,
  "\u2581slobo": 8101,
  "Efe": 8102,
  "\u2581punr": 8103,
  "iminiatsi": 8104,
  "erdiuav": 8105,
  "zdralas": 8106,
  "ivinilas": 8107,
  "pur": 8108,
  "primna": 8109,
  "ukhavel": 8110,
  "Melch": 8111,
  "\u2581sakrifikat": 8112,
  "od\u017eanena": 8113,
  "\u2581Jaco": 8114,
  "acedonia": 8115,
  "\u2581Ethiopia": 8116,
  "iknorestar": 8117,
  "ro\u017eura": 8118,
  "ra\u0148inel": 8119,
  "\u2581Gramn": 8120,
  "dokon\u010dine": 8121,
  "munturia": 8122,
  "xazhainon": 8123,
  "\u2581disip": 8124,
  "i\u0161\u013ein": 8125,
  "\u2581Obed": 8126,
  "\u2581marimenen": 8127,
  "\u2581Aristarch": 8128,
  "ezex": 8129,
  "\u2581Pozn": 8130,
  "\u2581vutuima": 8131,
  "rtina": 8132,
  "\u2581dvole\u017eite": 8133,
  "\u2581Onesim": 8134,
  "0:2": 8135,
  "name\u0148inel": 8136,
  "\u0148inena": 8137,
  "\u2581obraz": 8138,
  "hungarde": 8139,
  "\u2581Boaz": 8140,
  "honjito": 8141,
  "\u0148ikos": 8142,
  "a\u010dikane": 8143,
  "azos": 8144,
  "d\u017ei\u010f": 8145,
  ":28": 8146,
  "\u2581pismenk": 8147,
  "ramnoturia": 8148,
  "chra\u0148imen": 8149,
  "klami": 8150,
  "\u2581Melc": 8151,
  "\u2581Thessaloni": 8152,
  "zniko": 8153,
  "Armaged": 8154,
  "dzinel": 8155,
  "\u2581druk": 8156,
  "vzbu": 8157,
  "\u2581nabo\u017eens": 8158,
  "organiz": 8159,
  "babelosko": 8160,
  "\u017einena": 8161,
  "liavol": 8162,
  "Jeremi": 8163,
  "zebub": 8164,
  "\u017earava": 8165,
  "\u2581slavno": 8166,
  "\u2581oslobo": 8167,
  "\u2581Golg": 8168,
  "\u2581man\u017eel": 8169,
  "\u2581hlaso": 8170,
  "prja\u0165e\u013e": 8171,
  "ubli": 8172,
  "\u2581prikaz": 8173,
  "dzinen": 8174,
  "litik": 8175,
  "dicea": 8176,
  "\u2581Alpha": 8177,
  "u\u017eo": 8178,
  "\u2581Ninev": 8179,
  "Ankl": 8180,
  "\u2581resp": 8181,
  "\u2581Phoeni": 8182,
  "spekt": 8183,
  "obulsardi": 8184,
  "\u258137:": 8185,
  "hudisailo": 8186,
  "atira": 8187,
  "4:14": 8188,
  "\u2581Bakr": 8189,
  "zija": 8190,
  "\u2581Genne": 8191,
  "9:1": 8192,
  "\u0161\u0165e": 8193,
  "uviake": 8194,
  "\u2581grepo": 8195,
  "l\u0148in": 8196,
  "\u2581pulb": 8197,
  "\u2581s\u00eetile": 8198,
  "gisailo": 8199,
  "b\u0148ikos": 8200,
  "usheske": 8201,
  "\u2581rhobu": 8202,
  "disailian": 8203,
  "\u2581Caper": 8204,
  "iutu": 8205,
  "\u2581nekez": 8206,
  "\u2581Barthol": 8207,
  "\u2581Amboldi": 8208,
  "aktosa": 8209,
  "Garav": 8210,
  "riorhan": 8211,
  "achimasa": 8212,
  "\u2581Roma": 8213,
  "\u2581fur": 8214,
  "xengo": 8215,
  "\u2581intain": 8216,
  "\u2581sved": 8217,
  "\u013einen": 8218,
  "arps": 8219,
  "in\u010fom": 8220,
  "haioski": 8221,
  "zin\u010fa": 8222,
  "\u2581znachi": 8223,
  "vakerena": 8224,
  "\u2581guv": 8225,
  "\u2581Melchi": 8226,
  "thy": 8227,
  "a\u013eiben": 8228,
  "aikfialo": 8229,
  "\u2581Ephes": 8230,
  "ekfeder": 8231,
  "vestinel": 8232,
  "\u2581izdral": 8233,
  "jerat": 8234,
  "tudinen": 8235,
  "37": 8236,
  "chicus": 8237,
  "ushenge": 8238,
  "\u010danen": 8239,
  "aliardia": 8240,
  "\u2581Arch": 8241,
  "henes": 8242,
  "\u2581sveto": 8243,
  "hererhai": 8244,
  "\u2581Tru": 8245,
  "kazinel": 8246,
  "vlastn": 8247,
  "\u2581naswa": 8248,
  "\u2581Vush": 8249,
  "\u2581ramosard": 8250,
  "\u2581za\u010d": 8251,
  "\u2581xab": 8252,
  "treino": 8253,
  "urilpe": 8254,
  "me\u0148inen": 8255,
  "oshardia": 8256,
  "\u2581Rach": 8257,
  "saret": 8258,
  "\u013ei\u013e": 8259,
  "ipin": 8260,
  "\u2581zhuvindisar": 8261,
  "orimen": 8262,
  "0:3": 8263,
  "khetane": 8264,
  "os\u0165": 8265,
  "\u2581Lib": 8266,
  "\u2581Spr": 8267,
  "impo": 8268,
  "\u2581Jozija\u0161iske": 8269,
  "AT": 8270,
  "\u2581sichile": 8271,
  "\u2581fru": 8272,
  "huimos": 8273,
  "BA": 8274,
  "charel": 8275,
  "\u2581Davidos": 8276,
  "igate": 8277,
  "\u2581pije": 8278,
  "kono": 8279,
  "zeb": 8280,
  "\u2581kurke": 8281,
  "ustre": 8282,
  "\u2581sumn": 8283,
  "\u2581buz": 8284,
  "Ankli": 8285,
  "\u2581pu\u0161l": 8286,
  "\u2581duriola": 8287,
  "\u2581\u013eudos": 8288,
  "silin": 8289,
  "riz": 8290,
  "ilaba": 8291,
  "biris": 8292,
  "bar": 8293,
  "\u2581dokxtor": 8294,
  "\u2581Manushe": 8295,
  "rovna": 8296,
  "hanen": 8297,
  "ronchinas": 8298,
  "livo": 8299,
  "moth": 8300,
  "\u2581do\u0161": 8301,
  "vinav": 8302,
  "IA": 8303,
  "\u2581Zach": 8304,
  "mbor": 8305,
  "\u2581pu\u0161": 8306,
  "jona": 8307,
  "\u2581Prof": 8308,
  "\u2581d\u017eav": 8309,
  "olaile": 8310,
  "\u2581holea": 8311,
  "\u2581grats": 8312,
  "onah": 8313,
  "\u2581temni": 8314,
  "kluria": 8315,
  "hra\u0148in": 8316,
  "nton": 8317,
  "uniariko": 8318,
  "\u2581gazden": 8319,
  "\u2581vladc": 8320,
  "urale": 8321,
  "\u2581Bart": 8322,
  "imat": 8323,
  "isava": 8324,
  "Dosha": 8325,
  "\u2581papucheng": 8326,
  "avorestar": 8327,
  "bad": 8328,
  "NE": 8329,
  "kalavel": 8330,
  "choni": 8331,
  "\u2581ansuris": 8332,
  "i\u013ean": 8333,
  "ar\u00e5s": 8334,
  "ronosko": 8335,
  "\u2581slu": 8336,
  "huc": 8337,
  "\u0148ines": 8338,
  "rija": 8339,
  "zare": 8340,
  "handaven": 8341,
  "u\u013eas": 8342,
  "\u2581rhugilas": 8343,
  "hinena": 8344,
  "\u2581proroctvo": 8345,
  "horho": 8346,
  "\u2581bakri": 8347,
  "\u2581altar": 8348,
  "\u2581miazu": 8349,
  "vongo": 8350,
  "\u2581bakriang": 8351,
  "uvena": 8352,
  "\u2581zhuvi": 8353,
  "xes": 8354,
  "Durio": 8355,
  "adcas": 8356,
  "\u0161is": 8357,
  "\u2581pozn": 8358,
  "\u2581phabon": 8359,
  "\u2581\u00e8eas": 8360,
  "\u2581amb": 8361,
  "unelas": 8362,
  "\u2581podporine": 8363,
  "cub": 8364,
  "\u2581potom": 8365,
  "\u2581Phoe": 8366,
  "xosa": 8367,
  "\u2581Luv": 8368,
  "nd": 8369,
  "mew": 8370,
  "\u2581M\u00e1": 8371,
  "\u2581Thu": 8372,
  "harde": 8373,
  "\u2581drako": 8374,
  "u\u0165a": 8375,
  "hiven": 8376,
  "nicia": 8377,
  "\u2581Zeb": 8378,
  "\u2581Amin": 8379,
  "erub": 8380,
  "\u2581ampere": 8381,
  "avinel": 8382,
  ":10": 8383,
  "\u2581fam": 8384,
  "zosko": 8385,
  "ijaha": 8386,
  "i\u010dinelas": 8387,
  "100": 8388,
  "ebos": 8389,
  "\u2581k\u0148": 8390,
  "duri": 8391,
  "agog": 8392,
  "\u2581Swunts": 8393,
  "\u2581uspo": 8394,
  "ulesa": 8395,
  "\u013eola": 8396,
  "ideon": 8397,
  "\u2581osob": 8398,
  "u\u0165": 8399,
  "jera": 8400,
  "\u2581apostlong": 8401,
  "\u2581rhu": 8402,
  "\u2581Jord": 8403,
  "\u2581devlen": 8404,
  "tno": 8405,
  "k\u00e5rau": 8406,
  "\u2581Ber": 8407,
  "\u2581Get": 8408,
  "Va": 8409,
  "\u2581Sika": 8410,
  "rof": 8411,
  "thanes": 8412,
  "\u2581shavorhen": 8413,
  "orh": 8414,
  "\u2581tsu": 8415,
  "dasosko": 8416,
  "alpa": 8417,
  "\u2581lashimas": 8418,
  "dz": 8419,
  "\u2581shode": 8420,
  "gave": 8421,
  "tinas": 8422,
  "\u2581streinon": 8423,
  "rovela": 8424,
  "esija\u0161": 8425,
  "\u2581sikadias": 8426,
  "gret": 8427,
  "\u2581semn": 8428,
  "vav": 8429,
  "\u2581rhevdis": 8430,
  "\u2581sax": 8431,
  "isailem": 8432,
  "Shei": 8433,
  "\u2581Cha": 8434,
  "gil": 8435,
  "\u2581Salem": 8436,
  "\u2581Syn": 8437,
  "\u2581Abr": 8438,
  "aeusosko": 8439,
  "andilo": 8440,
  "gaz": 8441,
  "hran": 8442,
  "habe": 8443,
  "syn": 8444,
  "\u2581xol": 8445,
  "usosa": 8446,
  "Rac": 8447,
  "\u2581da\u0161": 8448,
  "lot": 8449,
  "\u2581kots": 8450,
  "\u2581Solom": 8451,
  "xk": 8452,
  "80": 8453,
  "eleno": 8454,
  "vria": 8455,
  "asardo": 8456,
  "Ale": 8457,
  "sonsa": 8458,
  "\u2581kasht": 8459,
  "kadal": 8460,
  "Cher": 8461,
  "ipl": 8462,
  "\u2581kanc": 8463,
  "\u2581My": 8464,
  "unel": 8465,
  "Oda": 8466,
  "\u2581chudinas": 8467,
  "\u2581\u00e8": 8468,
  "tele": 8469,
  "urke": 8470,
  "\u2581pred": 8471,
  "\u2581tromaile": 8472,
  "\u2581me\u0148": 8473,
  "\u2581Har": 8474,
  "\u2581strefiana": 8475,
  "kolin": 8476,
  "\u2581rim": 8477,
  "mun": 8478,
  "\u2581mu\u0161inela": 8479,
  "stesa": 8480,
  "KE": 8481,
  "ovna": 8482,
  "\u2581Isakosk": 8483,
  "\u2581rhob": 8484,
  "\u2581zhiganes": 8485,
  "\u2581k\u00e5r\u00e5": 8486,
  "\u2581azh": 8487,
  "udia": 8488,
  "tatos": 8489,
  "udio": 8490,
  "\u2581rodem": 8491,
  "gion": 8492,
  "\u2581Israelong": 8493,
  "tum": 8494,
  "\u2581Tert": 8495,
  "\u2581Cir": 8496,
  "\u2581Lis": 8497,
  "sus": 8498,
  "\u2581mekh": 8499,
  "\u2581svjatk": 8500,
  "\u2581zna": 8501,
  "\u2581zhuvinden": 8502,
  "illa": 8503,
  "akolo": 8504,
  "\u2581Bee": 8505,
  "\u2581kur": 8506,
  "dab": 8507,
  "odpor": 8508,
  "shudia": 8509,
  "\u2581tsin": 8510,
  "\u2581\u010daso": 8511,
  "ndiol": 8512,
  "\u2581Gaz": 8513,
  "\u2581ning": 8514,
  "\u2581themen": 8515,
  "epo": 8516,
  "slea": 8517,
  "\u2581chidin": 8518,
  "\u2581puti": 8519,
  "\u2581manu": 8520,
  "\u2581Hag": 8521,
  "tris": 8522,
  "hant": 8523,
  "\u2581Dur": 8524,
  "Nev": 8525,
  "RE": 8526,
  "\u2581Zechari": 8527,
  "einosko": 8528,
  "\u2581At": 8529,
  "Sika": 8530,
  "\u2581veselim": 8531,
  "gla": 8532,
  "\u2581Dam": 8533,
  "\u2581biandi": 8534,
  "tiko": 8535,
  "unes": 8536,
  "ansuri": 8537,
  "\u2581A\u0161": 8538,
  "\u2581huria": 8539,
  "\u2581mi\u0161": 8540,
  "\u2581pashli": 8541,
  "timo": 8542,
  "\u2581pa\u0165i": 8543,
  "\u2581kokal": 8544,
  "\u2581Ram": 8545,
  "\u2581vese": 8546,
  "1.": 8547,
  "erharin": 8548,
  "e\u010dno": 8549,
  "\u2581Bro": 8550,
  "\u2581Ac": 8551,
  "\u2581mudara": 8552,
  "\u2581hod": 8553,
  "kaz": 8554,
  "\u2581pac": 8555,
  "anj": 8556,
  "\u2581k\u0103": 8557,
  "\u2581zhen": 8558,
  "\u2581Bab": 8559,
  "enes": 8560,
  "\u2581vurhit": 8561,
  "\u2581bezexeng": 8562,
  "1)": 8563,
  "shlo": 8564,
  "\u2581Bal": 8565,
  "bre": 8566,
  "\u2581\u0165": 8567,
  "\u2581phurdela": 8568,
  "\u2581parhudio": 8569,
  "shki": 8570,
  "\u2581bokhail": 8571,
  "\u2581anklia": 8572,
  "fe": 8573,
  "incha": 8574,
  "\u2581sphande": 8575,
  "\u2581Hos": 8576,
  "\u2581\u0148isos": 8577,
  "anias": 8578,
  "\u2581Lu": 8579,
  "Sicho": 8580,
  "\u2581ave": 8581,
  "ym": 8582,
  "kodi": 8583,
  "\u2581lesker": 8584,
  "uten": 8585,
  "\u2581buntuisail": 8586,
  "\u2581Sic": 8587,
  "sk": 8588,
  "unjit": 8589,
  "\u2581svedk": 8590,
  "\u0165iv": 8591,
  "khardia": 8592,
  "ves": 8593,
  "haiape": 8594,
  "man": 8595,
  "\u2581a\u010dhe": 8596,
  "\u2581rhugisail": 8597,
  "aiina": 8598,
  "ntra": 8599,
  "\u2581romen": 8600,
  "\u2581stre": 8601,
  "uma": 8602,
  "hoske": 8603,
  "itsi": 8604,
  "\u2581astara": 8605,
  "\u2581papuch": 8606,
  "eau": 8607,
  "\u2581podar": 8608,
  "\u2581po\u0165i": 8609,
  "\u2581iven": 8610,
  "havor": 8611,
  "\u00eer": 8612,
  "alolo": 8613,
  "\u2581prin": 8614,
  "haglia": 8615,
  "haski": 8616,
  "\u2581sp": 8617,
  "ave": 8618,
  "roc": 8619,
  "\u2581\u0161tudina": 8620,
  "kli": 8621,
  "tis": 8622,
  "\u2581phuterdil": 8623,
  "roim": 8624,
  "i\u00e8i": 8625,
  "sia": 8626,
  "\u2581skup": 8627,
  "otha": 8628,
  "\u017eivena": 8629,
  "av\u013eal": 8630,
  "\u2581preznaina": 8631,
  "\u2581Pac": 8632,
  "\u2581anklela": 8633,
  "idimos": 8634,
  "ad\u017ei\u010fi\u013ea": 8635,
  "\u2581strefiam": 8636,
  "\u0165e": 8637,
  "hena": 8638,
  "\u2581raduisard": 8639,
  "vosko": 8640,
  "\u2581darail": 8641,
  "\u2581shta": 8642,
  "\u2581huriarv": 8643,
  "\u2581atsaima": 8644,
  "saki": 8645,
  "\u2581Sina": 8646,
  "hemosko": 8647,
  "\u2581sikava": 8648,
  "\u2581ankl": 8649,
  "\u2581phutrela": 8650,
  "ngle": 8651,
  "ates": 8652,
  "me\u0148in": 8653,
  "erdilia": 8654,
  "\u2581Zebedesk": 8655,
  "erdilem": 8656,
  "r\u010fa": 8657,
  "\u2581na\u0161": 8658,
  "\u2581ras": 8659,
  "tarinel": 8660,
  "lazha": 8661,
  "stil": 8662,
  "\u2581vuriarela": 8663,
  "trob": 8664,
  "\u2581beshl": 8665,
  "\u2581trapine": 8666,
  "\u2581Be": 8667,
  "glia": 8668,
  "o\u0161na": 8669,
  "aglo": 8670,
  "kerena": 8671,
  "\u2581pherdil": 8672,
  "\u2581Rhugi": 8673,
  "nev": 8674,
  "tv": 8675,
  "ham": 8676,
  "jos": 8677,
  "\u2581chere": 8678,
  "hiduvuria": 8679,
  "\u2581Arak": 8680,
  "\u2581strami": 8681,
  "odos": 8682,
  "\u2581Ak": 8683,
  "uz": 8684,
  "tunch": 8685,
  "agdata": 8686,
  "i\u010d": 8687,
  "\u2581Dev": 8688,
  "cedon": 8689,
  "\u2581obr": 8690,
  "ianos": 8691,
  "dinel": 8692,
  "iaren": 8693,
  "\u25812:1": 8694,
  "Shave": 8695,
  "\u2581mishtisail": 8696,
  "gu": 8697,
  "\u2581vern": 8698,
  "gle": 8699,
  "\u2581Mis": 8700,
  "doske": 8701,
  "\u2581saut": 8702,
  "Motho": 8703,
  "gel": 8704,
  "\u2581paraxod": 8705,
  "\u2581mala": 8706,
  "phan": 8707,
  "Kak": 8708,
  "osardia": 8709,
  "estinel": 8710,
  "23)": 8711,
  "\u2581zhanasa": 8712,
  "rub": 8713,
  "chisko": 8714,
  "\u2581Raduisav": 8715,
  "a\u0161i": 8716,
  "\u2581prof": 8717,
  "tengo": 8718,
  "\u2581Barnaba": 8719,
  "unde": 8720,
  "adiola": 8721,
  "jis": 8722,
  "\u2581Alo": 8723,
  "\u2581ternen": 8724,
  "\u2581cher": 8725,
  "manga": 8726,
  "erdili": 8727,
  "\u2581dragostiamas": 8728,
  "sisko": 8729,
  "\u2581pechisard": 8730,
  "\u2581kont": 8731,
  "\u2581nachinaisa": 8732,
  "\u2581Marko": 8733,
  "bute": 8734,
  "\u2581chiriklian": 8735,
  "monos": 8736,
  "utisardia": 8737,
  "inin": 8738,
  "losardia": 8739,
  "ulu": 8740,
  "\u2581Cle": 8741,
  "o\u013ea": 8742,
  "sarea": 8743,
  "opo": 8744,
  "lemas": 8745,
  "\u2581Timo": 8746,
  "ielosko": 8747,
  "dena": 8748,
  "shen": 8749,
  "\u2581bold": 8750,
  "pelo": 8751,
  "liasa": 8752,
  "k\u0103": 8753,
  "\u2581Sara": 8754,
  "\u2581ods": 8755,
  "\u258116:": 8756,
  "zhile": 8757,
  "\u2581for": 8758,
  "\u2581nala\u010dhen": 8759,
  "menas": 8760,
  "\u2581bok": 8761,
  "\u2581Isaakosk": 8762,
  "iamon": 8763,
  "buria": 8764,
  "\u2581\u010fivese": 8765,
  "zharen": 8766,
  "\u2581Esai": 8767,
  "\u2581varesost": 8768,
  "unto": 8769,
  "Sk": 8770,
  "bos": 8771,
  "\u2581aterdi": 8772,
  "\u2581stvorin": 8773,
  "\u2581savor": 8774,
  ":12)": 8775,
  "\u2581guvernor": 8776,
  "\u2581amperaton": 8777,
  "\u2581chinosard": 8778,
  "elot": 8779,
  "\u2581Gi": 8780,
  "\u2581vakera": 8781,
  "\u2581shordi": 8782,
  "sti": 8783,
  "\u2581alosard": 8784,
  "hib": 8785,
  "dimasko": 8786,
  "\u2581luvudimask": 8787,
  "OD": 8788,
  "avelas": 8789,
  "4)": 8790,
  "lata": 8791,
  "a\u0161t": 8792,
  "nuri": 8793,
  "Pen": 8794,
  "dea": 8795,
  "\u2581Ci": 8796,
  "\u2581u\u013ea": 8797,
  "\u2581Nicola": 8798,
  "\u2581gazdask": 8799,
  "\u2581zhut": 8800,
  "\u2581pochi": 8801,
  "\u2581lashardi": 8802,
  "\u2581xoxavena": 8803,
  "labo": 8804,
  "anaspe": 8805,
  "iamuria": 8806,
  "\u017eivi": 8807,
  "idim": 8808,
  "\u2581barvalim": 8809,
  "\u2581sovena": 8810,
  "amlo": 8811,
  "zhav": 8812,
  "\u2581Pi": 8813,
  "azosko": 8814,
  "\u2581zhigenesk": 8815,
  "\u2581Sardi": 8816,
  "het": 8817,
  "hrad": 8818,
  "\u2581shubisa": 8819,
  "\u2581var": 8820,
  "ik": 8821,
  "iva": 8822,
  "romane": 8823,
  ":31": 8824,
  "Du": 8825,
  "kon\u010dinel": 8826,
  "\u2581azhukerasa": 8827,
  "a\u0161\u013eol": 8828,
  "\u2581Zumave": 8829,
  "easo": 8830,
  "via": 8831,
  "\u2581tasa": 8832,
  "\u0161uk": 8833,
  "\u2581Eg": 8834,
  "\u2581cheresk": 8835,
  "ariaki": 8836,
  "ger": 8837,
  "luria": 8838,
  "id": 8839,
  "\u2581premi": 8840,
  "omos": 8841,
  "ichi": 8842,
  "\u2581konon": 8843,
  "naka": 8844,
  "\u2581s\u00eekai": 8845,
  "\u2581vor": 8846,
[...]
